{
  "version": "1.0",
  "truncation": null,
  "padding": null,
  "added_tokens": [
    {
      "id": 0,
      "content": "<pad>",
      "single_word": false,
      "lstrip": false,
      "rstrip": false,
      "normalized": false,
      "special": true
    },
    {
      "id": 1,
      "content": "<eos>",
      "single_word": false,
      "lstrip": false,
      "rstrip": false,
      "normalized": false,
      "special": true
    },
    {
      "id": 2,
      "content": "<unk>",
      "single_word": false,
      "lstrip": false,
      "rstrip": false,
      "normalized": false,
      "special": true
    },
    {
      "id": 3,
      "content": "<bos>",
      "single_word": false,
      "lstrip": false,
      "rstrip": false,
      "normalized": false,
      "special": true
    },
    {
      "id": 4,
      "content": "    ",
      "single_word": false,
      "lstrip": false,
      "rstrip": false,
      "normalized": false,
      "special": true
    },
    {
      "id": 5,
      "content": "        ",
      "single_word": false,
      "lstrip": false,
      "rstrip": false,
      "normalized": false,
      "special": true
    },
    {
      "id": 6,
      "content": "            ",
      "single_word": false,
      "lstrip": false,
      "rstrip": false,
      "normalized": false,
      "special": true
    },
    {
      "id": 7,
      "content": "\n    ",
      "single_word": false,
      "lstrip": false,
      "rstrip": false,
      "normalized": false,
      "special": true
    },
    {
      "id": 8,
      "content": "\n        ",
      "single_word": false,
      "lstrip": false,
      "rstrip": false,
      "normalized": false,
      "special": true
    },
    {
      "id": 9,
      "content": "\n            ",
      "single_word": false,
      "lstrip": false,
      "rstrip": false,
      "normalized": false,
      "special": true
    },
    {
      "id": 10,
      "content": "def ",
      "single_word": false,
      "lstrip": false,
      "rstrip": false,
      "normalized": false,
      "special": true
    },
    {
      "id": 11,
      "content": "return ",
      "single_word": false,
      "lstrip": false,
      "rstrip": false,
      "normalized": false,
      "special": true
    },
    {
      "id": 12,
      "content": "class ",
      "single_word": false,
      "lstrip": false,
      "rstrip": false,
      "normalized": false,
      "special": true
    },
    {
      "id": 13,
      "content": "import ",
      "single_word": false,
      "lstrip": false,
      "rstrip": false,
      "normalized": false,
      "special": true
    },
    {
      "id": 14,
      "content": "from ",
      "single_word": false,
      "lstrip": false,
      "rstrip": false,
      "normalized": false,
      "special": true
    },
    {
      "id": 15,
      "content": "self.",
      "single_word": false,
      "lstrip": false,
      "rstrip": false,
      "normalized": false,
      "special": true
    },
    {
      "id": 16,
      "content": "lambda ",
      "single_word": false,
      "lstrip": false,
      "rstrip": false,
      "normalized": false,
      "special": true
    },
    {
      "id": 17,
      "content": "assert ",
      "single_word": false,
      "lstrip": false,
      "rstrip": false,
      "normalized": false,
      "special": true
    },
    {
      "id": 18,
      "content": "yield ",
      "single_word": false,
      "lstrip": false,
      "rstrip": false,
      "normalized": false,
      "special": true
    },
    {
      "id": 19,
      "content": "async ",
      "single_word": false,
      "lstrip": false,
      "rstrip": false,
      "normalized": false,
      "special": true
    },
    {
      "id": 20,
      "content": "await ",
      "single_word": false,
      "lstrip": false,
      "rstrip": false,
      "normalized": false,
      "special": true
    },
    {
      "id": 21,
      "content": "try:",
      "single_word": false,
      "lstrip": false,
      "rstrip": false,
      "normalized": false,
      "special": true
    },
    {
      "id": 22,
      "content": "except:",
      "single_word": false,
      "lstrip": false,
      "rstrip": false,
      "normalized": false,
      "special": true
    },
    {
      "id": 23,
      "content": "finally:",
      "single_word": false,
      "lstrip": false,
      "rstrip": false,
      "normalized": false,
      "special": true
    },
    {
      "id": 24,
      "content": "if ",
      "single_word": false,
      "lstrip": false,
      "rstrip": false,
      "normalized": false,
      "special": true
    },
    {
      "id": 25,
      "content": "elif ",
      "single_word": false,
      "lstrip": false,
      "rstrip": false,
      "normalized": false,
      "special": true
    },
    {
      "id": 26,
      "content": "else:",
      "single_word": false,
      "lstrip": false,
      "rstrip": false,
      "normalized": false,
      "special": true
    },
    {
      "id": 27,
      "content": "for ",
      "single_word": false,
      "lstrip": false,
      "rstrip": false,
      "normalized": false,
      "special": true
    },
    {
      "id": 28,
      "content": "while ",
      "single_word": false,
      "lstrip": false,
      "rstrip": false,
      "normalized": false,
      "special": true
    },
    {
      "id": 29,
      "content": "in ",
      "single_word": false,
      "lstrip": false,
      "rstrip": false,
      "normalized": false,
      "special": true
    },
    {
      "id": 30,
      "content": "not in ",
      "single_word": false,
      "lstrip": false,
      "rstrip": false,
      "normalized": false,
      "special": true
    },
    {
      "id": 31,
      "content": "is ",
      "single_word": false,
      "lstrip": false,
      "rstrip": false,
      "normalized": false,
      "special": true
    },
    {
      "id": 32,
      "content": "True",
      "single_word": false,
      "lstrip": false,
      "rstrip": false,
      "normalized": false,
      "special": true
    },
    {
      "id": 33,
      "content": "False",
      "single_word": false,
      "lstrip": false,
      "rstrip": false,
      "normalized": false,
      "special": true
    },
    {
      "id": 34,
      "content": "None",
      "single_word": false,
      "lstrip": false,
      "rstrip": false,
      "normalized": false,
      "special": true
    },
    {
      "id": 35,
      "content": " -> ",
      "single_word": false,
      "lstrip": false,
      "rstrip": false,
      "normalized": false,
      "special": true
    },
    {
      "id": 36,
      "content": " == ",
      "single_word": false,
      "lstrip": false,
      "rstrip": false,
      "normalized": false,
      "special": true
    },
    {
      "id": 37,
      "content": " != ",
      "single_word": false,
      "lstrip": false,
      "rstrip": false,
      "normalized": false,
      "special": true
    },
    {
      "id": 38,
      "content": " <= ",
      "single_word": false,
      "lstrip": false,
      "rstrip": false,
      "normalized": false,
      "special": true
    },
    {
      "id": 39,
      "content": " >= ",
      "single_word": false,
      "lstrip": false,
      "rstrip": false,
      "normalized": false,
      "special": true
    },
    {
      "id": 40,
      "content": "\"\"\"",
      "single_word": false,
      "lstrip": false,
      "rstrip": false,
      "normalized": false,
      "special": true
    },
    {
      "id": 41,
      "content": "'''",
      "single_word": false,
      "lstrip": false,
      "rstrip": false,
      "normalized": false,
      "special": true
    },
    {
      "id": 42,
      "content": "f\"",
      "single_word": false,
      "lstrip": false,
      "rstrip": false,
      "normalized": false,
      "special": true
    },
    {
      "id": 43,
      "content": "f'",
      "single_word": false,
      "lstrip": false,
      "rstrip": false,
      "normalized": false,
      "special": true
    },
    {
      "id": 44,
      "content": "r\"",
      "single_word": false,
      "lstrip": false,
      "rstrip": false,
      "normalized": false,
      "special": true
    },
    {
      "id": 45,
      "content": "r'",
      "single_word": false,
      "lstrip": false,
      "rstrip": false,
      "normalized": false,
      "special": true
    },
    {
      "id": 46,
      "content": "b\"",
      "single_word": false,
      "lstrip": false,
      "rstrip": false,
      "normalized": false,
      "special": true
    },
    {
      "id": 47,
      "content": "b'",
      "single_word": false,
      "lstrip": false,
      "rstrip": false,
      "normalized": false,
      "special": true
    }
  ],
  "normalizer": null,
  "pre_tokenizer": {
    "type": "ByteLevel",
    "add_prefix_space": false,
    "trim_offsets": true,
    "use_regex": true
  },
  "post_processor": null,
  "decoder": {
    "type": "ByteLevel",
    "add_prefix_space": true,
    "trim_offsets": true,
    "use_regex": true
  },
  "model": {
    "type": "BPE",
    "dropout": null,
    "unk_token": "<unk>",
    "continuing_subword_prefix": null,
    "end_of_word_suffix": null,
    "fuse_unk": false,
    "byte_fallback": false,
    "ignore_merges": false,
    "vocab": {
      "<pad>": 0,
      "<eos>": 1,
      "<unk>": 2,
      "<bos>": 3,
      "    ": 4,
      "        ": 5,
      "            ": 6,
      "\n    ": 7,
      "\n        ": 8,
      "\n            ": 9,
      "def ": 10,
      "return ": 11,
      "class ": 12,
      "import ": 13,
      "from ": 14,
      "self.": 15,
      "lambda ": 16,
      "assert ": 17,
      "yield ": 18,
      "async ": 19,
      "await ": 20,
      "try:": 21,
      "except:": 22,
      "finally:": 23,
      "if ": 24,
      "elif ": 25,
      "else:": 26,
      "for ": 27,
      "while ": 28,
      "in ": 29,
      "not in ": 30,
      "is ": 31,
      "True": 32,
      "False": 33,
      "None": 34,
      " -> ": 35,
      " == ": 36,
      " != ": 37,
      " <= ": 38,
      " >= ": 39,
      "\"\"\"": 40,
      "'''": 41,
      "f\"": 42,
      "f'": 43,
      "r\"": 44,
      "r'": 45,
      "b\"": 46,
      "b'": 47,
      "!": 48,
      "\"": 49,
      "#": 50,
      "$": 51,
      "%": 52,
      "&": 53,
      "'": 54,
      "(": 55,
      ")": 56,
      "*": 57,
      "+": 58,
      ",": 59,
      "-": 60,
      ".": 61,
      "/": 62,
      "0": 63,
      "1": 64,
      "2": 65,
      "3": 66,
      "4": 67,
      "5": 68,
      "6": 69,
      "7": 70,
      "8": 71,
      "9": 72,
      ":": 73,
      ";": 74,
      "<": 75,
      "=": 76,
      ">": 77,
      "?": 78,
      "@": 79,
      "A": 80,
      "B": 81,
      "C": 82,
      "D": 83,
      "E": 84,
      "F": 85,
      "G": 86,
      "H": 87,
      "I": 88,
      "J": 89,
      "K": 90,
      "L": 91,
      "M": 92,
      "N": 93,
      "O": 94,
      "P": 95,
      "Q": 96,
      "R": 97,
      "S": 98,
      "T": 99,
      "U": 100,
      "V": 101,
      "W": 102,
      "X": 103,
      "Y": 104,
      "Z": 105,
      "[": 106,
      "\\": 107,
      "]": 108,
      "^": 109,
      "_": 110,
      "`": 111,
      "a": 112,
      "b": 113,
      "c": 114,
      "d": 115,
      "e": 116,
      "f": 117,
      "g": 118,
      "h": 119,
      "i": 120,
      "j": 121,
      "k": 122,
      "l": 123,
      "m": 124,
      "n": 125,
      "o": 126,
      "p": 127,
      "q": 128,
      "r": 129,
      "s": 130,
      "t": 131,
      "u": 132,
      "v": 133,
      "w": 134,
      "x": 135,
      "y": 136,
      "z": 137,
      "{": 138,
      "|": 139,
      "}": 140,
      "~": 141,
      "¡": 142,
      "¢": 143,
      "£": 144,
      "¤": 145,
      "¥": 146,
      "¦": 147,
      "§": 148,
      "¨": 149,
      "©": 150,
      "ª": 151,
      "«": 152,
      "¬": 153,
      "®": 154,
      "¯": 155,
      "°": 156,
      "±": 157,
      "²": 158,
      "³": 159,
      "´": 160,
      "µ": 161,
      "¶": 162,
      "·": 163,
      "¸": 164,
      "¹": 165,
      "º": 166,
      "»": 167,
      "¼": 168,
      "½": 169,
      "¾": 170,
      "¿": 171,
      "À": 172,
      "Á": 173,
      "Â": 174,
      "Ã": 175,
      "Ä": 176,
      "Å": 177,
      "Æ": 178,
      "Ç": 179,
      "È": 180,
      "É": 181,
      "Ê": 182,
      "Ë": 183,
      "Ì": 184,
      "Í": 185,
      "Î": 186,
      "Ï": 187,
      "Ð": 188,
      "Ñ": 189,
      "Ò": 190,
      "Ó": 191,
      "Ô": 192,
      "Õ": 193,
      "Ö": 194,
      "×": 195,
      "Ø": 196,
      "Ù": 197,
      "Ú": 198,
      "Û": 199,
      "Ü": 200,
      "Ý": 201,
      "Þ": 202,
      "ß": 203,
      "à": 204,
      "á": 205,
      "â": 206,
      "ã": 207,
      "ä": 208,
      "å": 209,
      "æ": 210,
      "ç": 211,
      "è": 212,
      "é": 213,
      "ê": 214,
      "ë": 215,
      "ì": 216,
      "í": 217,
      "î": 218,
      "ï": 219,
      "ð": 220,
      "ñ": 221,
      "ò": 222,
      "ó": 223,
      "ô": 224,
      "õ": 225,
      "ö": 226,
      "÷": 227,
      "ø": 228,
      "ù": 229,
      "ú": 230,
      "û": 231,
      "ü": 232,
      "ý": 233,
      "þ": 234,
      "ÿ": 235,
      "Ā": 236,
      "ā": 237,
      "Ă": 238,
      "ă": 239,
      "Ą": 240,
      "ą": 241,
      "Ć": 242,
      "ć": 243,
      "Ĉ": 244,
      "ĉ": 245,
      "Ċ": 246,
      "ċ": 247,
      "Č": 248,
      "č": 249,
      "Ď": 250,
      "ď": 251,
      "Đ": 252,
      "đ": 253,
      "Ē": 254,
      "ē": 255,
      "Ĕ": 256,
      "ĕ": 257,
      "Ė": 258,
      "ė": 259,
      "Ę": 260,
      "ę": 261,
      "Ě": 262,
      "ě": 263,
      "Ĝ": 264,
      "ĝ": 265,
      "Ğ": 266,
      "ğ": 267,
      "Ġ": 268,
      "ġ": 269,
      "Ģ": 270,
      "ģ": 271,
      "Ĥ": 272,
      "ĥ": 273,
      "Ħ": 274,
      "ħ": 275,
      "Ĩ": 276,
      "ĩ": 277,
      "Ī": 278,
      "ī": 279,
      "Ĭ": 280,
      "ĭ": 281,
      "Į": 282,
      "į": 283,
      "İ": 284,
      "ı": 285,
      "Ĳ": 286,
      "ĳ": 287,
      "Ĵ": 288,
      "ĵ": 289,
      "Ķ": 290,
      "ķ": 291,
      "ĸ": 292,
      "Ĺ": 293,
      "ĺ": 294,
      "Ļ": 295,
      "ļ": 296,
      "Ľ": 297,
      "ľ": 298,
      "Ŀ": 299,
      "ŀ": 300,
      "Ł": 301,
      "ł": 302,
      "Ń": 303,
      "ĠĠ": 304,
      "čĊ": 305,
      "ĠĠĠĠ": 306,
      "Ġt": 307,
      "in": 308,
      "ĠĠĠ": 309,
      "Ġa": 310,
      "re": 311,
      "he": 312,
      "on": 313,
      "at": 314,
      "Ġs": 315,
      "Ġthe": 316,
      "er": 317,
      "en": 318,
      "or": 319,
      "Ġf": 320,
      "Ġc": 321,
      "le": 322,
      "ĠĠĠĠĠĠĠ": 323,
      "st": 324,
      "ion": 325,
      "de": 326,
      "Ġi": 327,
      "Ġp": 328,
      "Ġ=": 329,
      "ct": 330,
      "ing": 331,
      "ou": 332,
      "se": 333,
      "Ġre": 334,
      "it": 335,
      "Ġin": 336,
      "al": 337,
      "ar": 338,
      "me": 339,
      "nd": 340,
      "\"\"": 341,
      "ur": 342,
      "es": 343,
      "ro": 344,
      "ent": 345,
      "mp": 346,
      "Ġn": 347,
      "Ġo": 348,
      "\\\"": 349,
      "ra": 350,
      "Ġto": 351,
      "el": 352,
      "Ġw": 353,
      "as": 354,
      "Ġ`": 355,
      "Ġl": 356,
      "ed": 357,
      "ut": 358,
      "urn": 359,
      "turn": 360,
      "Ġand": 361,
      "ge": 362,
      "):": 363,
      "um": 364,
      "ction": 365,
      "Ġb": 366,
      "Ġreturn": 367,
      "def": 368,
      "Ġd": 369,
      "Ġ\"": 370,
      "un": 371,
      "th": 372,
      "Ġof": 373,
      "ĠĠĠĠĠĠĠĠĠĠĠ": 374,
      "Ġm": 375,
      "ist": 376,
      "Ġfor": 377,
      "ate": 378,
      "ic": 379,
      "mple": 380,
      "an": 381,
      "Ġe": 382,
      "Ġst": 383,
      "ame": 384,
      "Ġis": 385,
      "unction": 386,
      "lo": 387,
      "Ġ#": 388,
      "ation": 389,
      "Ġfunction": 390,
      "ment": 391,
      "ld": 392,
      "Ġ'": 393,
      "``": 394,
      "ĠT": 395,
      "Ġth": 396,
      "ue": 397,
      "Ġco": 398,
      "ul": 399,
      "Ġif": 400,
      "int": 401,
      "ac": 402,
      "ith": 403,
      "pe": 404,
      "put": 405,
      "co": 406,
      "Ġg": 407,
      "ri": 408,
      "ata": 409,
      "Ġsh": 410,
      "fi": 411,
      "te": 412,
      "Ġsel": 413,
      "You": 414,
      "Ġself": 415,
      "\\\"\\\"": 416,
      "Ġpro": 417,
      "Ġv": 418,
      "Ġ1": 419,
      "res": 420,
      "ould": 421,
      "ass": 422,
      "ers": 423,
      "Ġshould": 424,
      "Ġthat": 425,
      "iv": 426,
      "Ġwith": 427,
      "nt": 428,
      "ma": 429,
      "ce": 430,
      "Ġdef": 431,
      "Ġstr": 432,
      "sel": 433,
      "us": 434,
      "self": 435,
      "__": 436,
      "yth": 437,
      "ython": 438,
      "Ġcon": 439,
      "is": 440,
      "ĠP": 441,
      "od": 442,
      "Ġfi": 443,
      "ord": 444,
      "ĠThe": 445,
      "Ġme": 446,
      "ot": 447,
      "\":": 448,
      "ask": 449,
      "id": 450,
      "ol": 451,
      "Ġ[": 452,
      "Ġas": 453,
      "xt": 454,
      "ad": 455,
      "Ġnum": 456,
      "Ġlist": 457,
      "ch": 458,
      "Ġ-": 459,
      "()": 460,
      "Ġ\"\"\"": 461,
      "rint": 462,
      "Ġ(": 463,
      "lass": 464,
      "et": 465,
      "\",": 466,
      "str": 467,
      "Ġare": 468,
      "pp": 469,
      "Ġh": 470,
      "ces": 471,
      "age": 472,
      "Ġtask": 473,
      "mplement": 474,
      "ig": 475,
      "pt": 476,
      "name": 477,
      "Ġprint": 478,
      "Ġ0": 479,
      "ke": 480,
      ":\\": 481,
      "ĠčĊ": 482,
      "```": 483,
      "if": 484,
      "ab": 485,
      "Ġ+": 486,
      "ĠPython": 487,
      "end": 488,
      "qu": 489,
      "',": 490,
      "ter": 491,
      "Ġclass": 492,
      "iz": 493,
      "ort": 494,
      "ult": 495,
      ")\\": 496,
      "ount": 497,
      "ite": 498,
      "Ġan": 499,
      "Ġimplement": 500,
      "iven": 501,
      "ĠĠĠĠĠĠĠĠ": 502,
      "Ġval": 503,
      "ase": 504,
      "Ġar": 505,
      "ve": 506,
      "low": 507,
      "Ġdata": 508,
      "ode": 509,
      "get": 510,
      "il": 511,
      "ĠA": 512,
      "Ġ2": 513,
      "Ġgiven": 514,
      "thod": 515,
      "Ġex": 516,
      "Ġde": 517,
      "ver": 518,
      "Ġra": 519,
      "Ġinput": 520,
      "Ġstring": 521,
      "ĠI": 522,
      "Ġus": 523,
      "\\\"\\\"\\\"": 524,
      "Your": 525,
      "pro": 526,
      "Ġfile": 527,
      "Ġres": 528,
      "di": 529,
      "ath": 530,
      "ary": 531,
      "ck": 532,
      "Ġmethod": 533,
      "Ġbe": 534,
      "pl": 535,
      "Ġne": 536,
      "Ġ{": 537,
      "Ġnumb": 538,
      "ta": 539,
      "Ġdi": 540,
      "Ġ==": 541,
      "val": 542,
      "Ġma": 543,
      "orm": 544,
      "Ġon": 545,
      "rom": 546,
      "Ġal": 547,
      "Ġta": 548,
      "Ġel": 549,
      "ss": 550,
      "cess": 551,
      "ci": 552,
      "num": 553,
      "out": 554,
      "vi": 555,
      "key": 556,
      "Ġpar": 557,
      "':": 558,
      "):\\": 559,
      "gra": 560,
      "ample": 561,
      "ay": 562,
      "ĠĠĠĠĠĠĠĠĠĠĠĠĠĠĠ": 563,
      "data": 564,
      "up": 565,
      "ĠC": 566,
      ".\\": 567,
      "im": 568,
      "list": 569,
      "Ġcode": 570,
      "ip": 571,
      "one": 572,
      "ollow": 573,
      "con": 574,
      "Ġfollow": 575,
      "reate": 576,
      "ure": 577,
      "form": 578,
      "ow": 579,
      "Ġte": 580,
      "ht": 581,
      "ĠF": 582,
      "ĠN": 583,
      "ub": 584,
      "Ġnot": 585,
      "Ġname": 586,
      "ime": 587,
      "pres": 588,
      "rite": 589,
      "mpt": 590,
      "ect": 591,
      ".\"\"\"": 592,
      "Ġspe": 593,
      "))": 594,
      "able": 595,
      "om": 596,
      "per": 597,
      "Ġfrom": 598,
      "and": 599,
      "ded": 600,
      "po": 601,
      "ly": 602,
      "gram": 603,
      "Ġch": 604,
      "ĠS": 605,
      "to": 606,
      "Ġfollowing": 607,
      "ind": 608,
      "Ġ\\": 609,
      "set": 610,
      "que": 611,
      "ray": 612,
      "file": 613,
      "ize": 614,
      "ack": 615,
      "Ġ->": 616,
      "(\"": 617,
      "present": 618,
      "ine": 619,
      "Ġlo": 620,
      "nge": 621,
      "art": 622,
      "tain": 623,
      "Ġ\\\"": 624,
      "dd": 625,
      "ener": 626,
      "('": 627,
      "Ġ3": 628,
      "Ġit": 629,
      "Ġrepresent": 630,
      "Ġse": 631,
      "Ġlen": 632,
      "word": 633,
      "Ġtak": 634,
      "\")": 635,
      "Ġcal": 636,
      "Ġelse": 637,
      "string": 638,
      "00": 639,
      "Ġnumber": 640,
      "Ġy": 641,
      "app": 642,
      "ag": 643,
      "path": 644,
      "Ġtakes": 645,
      "Ġrange": 646,
      "--": 647,
      "ach": 648,
      "ance": 649,
      "Ġ__": 650,
      "Re": 651,
      "ial": 652,
      "ror": 653,
      "tion": 654,
      "Ġx": 655,
      "],": 656,
      "ype": 657,
      "Ġprogram": 658,
      "Ġor": 659,
      "rue": 660,
      "ity": 661,
      "Ġresult": 662,
      "count": 663,
      "init": 664,
      "Ġ<": 665,
      "am": 666,
      "')": 667,
      "rent": 668,
      "cul": 669,
      "ns": 670,
      "Ġ*": 671,
      "\"}": 672,
      "ption": 673,
      "Ġmax": 674,
      "comple": 675,
      "ĠE": 676,
      "ory": 677,
      "ject": 678,
      "Ġtasked": 679,
      "act": 680,
      "{\"": 681,
      "`:": 682,
      "ens": 683,
      "ates": 684,
      "Ġkey": 685,
      "Ġby": 686,
      "prompt": 687,
      "Ġvalue": 688,
      "Ġcontain": 689,
      "completion": 690,
      "==": 691,
      "Ġ\\\"\\\"\\\"": 692,
      "her": 693,
      "odel": 694,
      "len": 695,
      "ĠNone": 696,
      "red": 697,
      "Ġset": 698,
      "\\\"\\\"\\\"\\": 699,
      "__(": 700,
      "ating": 701,
      "lement": 702,
      "ice": 703,
      "Ġwh": 704,
      "ations": 705,
      "ĠL": 706,
      "Ġprovi": 707,
      "tri": 708,
      "Ġcom": 709,
      "sed": 710,
      "ib": 711,
      "ated": 712,
      "])": 713,
      "ser": 714,
      "The": 715,
      "Ġword": 716,
      "ĠD": 717,
      "Ġdiction": 718,
      "ues": 719,
      "rect": 720,
      "Ġusing": 721,
      "Write": 722,
      "Ġpo": 723,
      "alse": 724,
      "gs": 725,
      "Ġint": 726,
      "Ġreturns": 727,
      "ĠO": 728,
      "mat": 729,
      "mage": 730,
      "ir": 731,
      "ract": 732,
      "fig": 733,
      "cri": 734,
      "output": 735,
      "ĠĠĠĠĠ": 736,
      "pon": 737,
      "fied": 738,
      "Ġ5": 739,
      "ition": 740,
      "Ġat": 741,
      "python": 742,
      "here": 743,
      "heck": 744,
      "Ġdictionary": 745,
      "ies": 746,
      "mo": 747,
      "Ġbase": 748,
      "pet": 749,
      "ule": 750,
      "Ġu": 751,
      "Ġr": 752,
      "nip": 753,
      "nippet": 754,
      "ign": 755,
      "cl": 756,
      "Ġ4": 757,
      "ific": 758,
      "xample": 759,
      "our": 760,
      "append": 761,
      "Ġnew": 762,
      "Ġeach": 763,
      "ses": 764,
      "Ġac": 765,
      "ave": 766,
      "._": 767,
      "Ġprovided": 768,
      "ne": 769,
      "dex": 770,
      "Ġsnippet": 771,
      "par": 772,
      "Ġob": 773,
      "Ġtra": 774,
      "enerate": 775,
      "Ġadd": 776,
      "Ġcur": 777,
      "arr": 778,
      "uct": 779,
      "ile": 780,
      "Ġle": 781,
      "Ġ+=": 782,
      "Ġbo": 783,
      "ive": 784,
      "mand": 785,
      "ĠU": 786,
      "quest": 787,
      "ace": 788,
      "xtract": 789,
      "culate": 790,
      "Ġarray": 791,
      "ssage": 792,
      "fo": 793,
      "]\\": 794,
      "Ġcount": 795,
      "Ġarr": 796,
      "Ġsum": 797,
      "utput": 798,
      "Ġchar": 799,
      "ĠYour": 800,
      "Ġro": 801,
      "`,": 802,
      "Ġper": 803,
      "ry": 804,
      "Ġparame": 805,
      "text": 806,
      "Ġspeci": 807,
      "Ġuser": 808,
      "ters": 809,
      "time": 810,
      "fe": 811,
      "numb": 812,
      "Ġapp": 813,
      "Ġj": 814,
      "Ġelement": 815,
      "com": 816,
      "but": 817,
      "em": 818,
      "wo": 819,
      "Ġcre": 820,
      "),": 821,
      "Ġbased": 822,
      "mport": 823,
      "Ġpass": 824,
      "add": 825,
      "value": 826,
      "cur": 827,
      "ĠIf": 828,
      "Ġall": 829,
      "ĠFalse": 830,
      "gth": 831,
      "ĠTrue": 832,
      "Ġrepresenting": 833,
      "date": 834,
      "Ġprocess": 835,
      "ound": 836,
      "ument": 837,
      "Ġnumbers": 838,
      "ence": 839,
      "url": 840,
      "ard": 841,
      "Ġget": 842,
      "ust": 843,
      "bo": 844,
      "Ġspecified": 845,
      "op": 846,
      "['": 847,
      "Create": 848,
      "Ġinte": 849,
      "ork": 850,
      "ger": 851,
      "ari": 852,
      "Ġen": 853,
      "Ġtwo": 854,
      "Ġcol": 855,
      "Ġhand": 856,
      "Ġlog": 857,
      "Ġspec": 858,
      "Ġimplementing": 859,
      "ms": 860,
      "Ġsy": 861,
      "ap": 862,
      "Ġsub": 863,
      "dict": 864,
      "Ġimplementation": 865,
      "Ġ>": 866,
      "ok": 867,
      "Ġoutput": 868,
      "all": 869,
      "ight": 870,
      "Ġun": 871,
      "ec": 872,
      "rror": 873,
      "ph": 874,
      "Ġtime": 875,
      "Ġtext": 876,
      "ersion": 877,
      "ther": 878,
      "Ġobject": 879,
      "Ġvalues": 880,
      "']": 881,
      "ĠRe": 882,
      "ature": 883,
      "Ġmodel": 884,
      "Ġspecific": 885,
      "eld": 886,
      "Error": 887,
      "Ġup": 888,
      "Ġmod": 889,
      "Ġsort": 890,
      "ang": 891,
      "ise": 892,
      "so": 893,
      "ren": 894,
      "Ġformat": 895,
      "ex": 896,
      "ĠM": 897,
      ".\\\"\\\"\\\"\\": 898,
      "Ġcomp": 899,
      "els": 900,
      "Ġcurrent": 901,
      "Ġhave": 902,
      "Ġpath": 903,
      "col": 904,
      "mplete": 905,
      "Ġcreating": 906,
      "itial": 907,
      "tribut": 908,
      "stem": 909,
      "Ġtest": 910,
      "error": 911,
      "Ġextract": 912,
      "ecut": 913,
      "tal": 914,
      "type": 915,
      "ob": 916,
      "tent": 917,
      "Ġpre": 918,
      "ĠOutput": 919,
      "In": 920,
      "tra": 921,
      "Ġpl": 922,
      "ator": 923,
      "we": 924,
      "atch": 925,
      "qui": 926,
      "Ġcor": 927,
      "ding": 928,
      "input": 929,
      "Ġhe": 930,
      "ich": 931,
      "ĠH": 932,
      "Ġoper": 933,
      "ant": 934,
      "ndom": 935,
      "Ġelif": 936,
      "ff": 937,
      "Ġtotal": 938,
      "rou": 939,
      "Ġ[]": 940,
      "base": 941,
      "args": 942,
      "Ġcreate": 943,
      "Ġ/": 944,
      "Ġcommand": 945,
      "Ġsu": 946,
      "tr": 947,
      "rectory": 948,
      "sion": 949,
      "main": 950,
      "Ġwhich": 951,
      "plit": 952,
      "ĠList": 953,
      "Ġcheck": 954,
      "'s": 955,
      "ho": 956,
      "Ġhas": 957,
      "ast": 958,
      "Ġfind": 959,
      "are": 960,
      "ft": 961,
      "Ġite": 962,
      "lic": 963,
      "Ġstart": 964,
      "ient": 965,
      "ĠG": 966,
      "ps": 967,
      "\\\",": 968,
      "Ġexample": 969,
      "Ġcontaining": 970,
      "pos": 971,
      "====": 972,
      "ev": 973,
      "cript": 974,
      "sh": 975,
      "Ġmessage": 976,
      "Ġparameters": 977,
      "ore": 978,
      "code": 979,
      "Ġcan": 980,
      "gument": 981,
      "rig": 982,
      "ponse": 983,
      "`.": 984,
      "Ġimage": 985,
      "formation": 986,
      "size": 987,
      "read": 988,
      "arch": 989,
      "Ġhandle": 990,
      "----": 991,
      "Ġ10": 992,
      "ĠB": 993,
      "Ġcalculate": 994,
      "ĠR": 995,
      "Ġwe": 996,
      "oc": 997,
      "Ġimport": 998,
      "arget": 999,
      "anag": 1000,
      "Ġ6": 1001,
      "user": 1002,
      "Ġ%": 1003,
      "Ġrequest": 1004,
      "Ġser": 1005,
      "Ġcomplete": 1006,
      "ĠĠĠĠĠĠĠĠĠĠĠĠĠĠĠĠ": 1007,
      "move": 1008,
      "gor": 1009,
      "Ġcharact": 1010,
      "mail": 1011,
      "Ġmethods": 1012,
      "array": 1013,
      "Ġneed": 1014,
      "ill": 1015,
      "Ġvari": 1016,
      "play": 1017,
      "sum": 1018,
      "itle": 1019,
      "Ġgenerate": 1020,
      "Ġexce": 1021,
      "ĠĠĠĠčĊ": 1022,
      "ĠĠčĊ": 1023,
      "son": 1024,
      "Ġvalid": 1025,
      "load": 1026,
      "uple": 1027,
      "test": 1028,
      "class": 1029,
      "][": 1030,
      "ree": 1031,
      "Ġconfig": 1032,
      "py": 1033,
      "Ġrequi": 1034,
      "Ġqu": 1035,
      "cal": 1036,
      "che": 1037,
      "right": 1038,
      "Ġattribut": 1039,
      "ments": 1040,
      "gest": 1041,
      "Ġ8": 1042,
      "Ġsystem": 1043,
      "rst": 1044,
      "Ġinformation": 1045,
      "Ġtype": 1046,
      "Ġmin": 1047,
      "Ġthis": 1048,
      "ustom": 1049,
      "min": 1050,
      "():": 1051,
      "loat": 1052,
      "ie": 1053,
      "led": 1054,
      "index": 1055,
      "result": 1056,
      "Ġend": 1057,
      "des": 1058,
      "Ġperform": 1059,
      "Ġwhere": 1060,
      "order": 1061,
      "cy": 1062,
      "ress": 1063,
      "rame": 1064,
      "ĠĠĠĠĠĠĠĠĠĠĠĠĠĠĠĠĠĠĠ": 1065,
      "log": 1066,
      "info": 1067,
      "ll": 1068,
      "(\\\"": 1069,
      "Ġwhile": 1070,
      "mon": 1071,
      "Ġk": 1072,
      "Ġits": 1073,
      "vert": 1074,
      "clu": 1075,
      "ify": 1076,
      "row": 1077,
      "Ġ_": 1078,
      "Ġinitial": 1079,
      "Ġwords": 1080,
      "Ġerror": 1081,
      "()\\": 1082,
      "Ġproces": 1083,
      "**": 1084,
      "..": 1085,
      "ices": 1086,
      "Ġdis": 1087,
      "rime": 1088,
      "ken": 1089,
      "Ġdes": 1090,
      "cord": 1091,
      "own": 1092,
      "ml": 1093,
      "atus": 1094,
      "number": 1095,
      "Ġmodule": 1096,
      "For": 1097,
      "valid": 1098,
      "max": 1099,
      "Ġother": 1100,
      ").": 1101,
      "Ġpoint": 1102,
      "stance": 1103,
      "alance": 1104,
      "ault": 1105,
      "config": 1106,
      "start": 1107,
      "Ġ{}": 1108,
      "ctions": 1109,
      "uration": 1110,
      "ĠV": 1111,
      "his": 1112,
      "Ġcl": 1113,
      "]:": 1114,
      "process": 1115,
      "Ġscript": 1116,
      "Ġwrite": 1117,
      "Ġab": 1118,
      "Ġpart": 1119,
      "split": 1120,
      "ource": 1121,
      "ique": 1122,
      "ide": 1123,
      "point": 1124,
      "atter": 1125,
      "ON": 1126,
      "Ġargument": 1127,
      "work": 1128,
      "10": 1129,
      "ting": 1130,
      "Ġelements": 1131,
      "ĠIn": 1132,
      "Ġcontains": 1133,
      "Ġstrings": 1134,
      "Ġnode": 1135,
      "Ġmo": 1136,
      "Ġitem": 1137,
      "Ġind": 1138,
      "Ġany": 1139,
      "gorith": 1140,
      "RL": 1141,
      "Ġfre": 1142,
      "anager": 1143,
      "Ġtake": 1144,
      "Ġsorted": 1145,
      "jo": 1146,
      "Ġindex": 1147,
      "sub": 1148,
      "model": 1149,
      "cted": 1150,
      "Ġrandom": 1151,
      "image": 1152,
      "rix": 1153,
      "ages": 1154,
      "ibr": 1155,
      "ild": 1156,
      ")`": 1157,
      "Ġtrans": 1158,
      "numbers": 1159,
      "mpl": 1160,
      "Ġmat": 1161,
      "ency": 1162,
      "ume": 1163,
      "='": 1164,
      "gorithm": 1165,
      "from": 1166,
      "ual": 1167,
      "Ġwill": 1168,
      "ery": 1169,
      "uth": 1170,
      "os": 1171,
      "Ġinter": 1172,
      "ning": 1173,
      "Ġnp": 1174,
      "iter": 1175,
      "est": 1176,
      "Ġwhe": 1177,
      "Ġline": 1178,
      "port": 1179,
      "dent": 1180,
      "place": 1181,
      "Ġ7": 1182,
      "its": 1183,
      "inal": 1184,
      "vice": 1185,
      "Ġinclu": 1186,
      "words": 1187,
      "imum": 1188,
      "ors": 1189,
      "##": 1190,
      "ical": 1191,
      "vent": 1192,
      "Ġdo": 1193,
      "Con": 1194,
      "imul": 1195,
      "nYour": 1196,
      "//": 1197,
      "ures": 1198,
      "Ġresponse": 1199,
      "ĠW": 1200,
      "Ġinteger": 1201,
      "Ġraise": 1202,
      "ackage": 1203,
      "ayer": 1204,
      "Ġdirectory": 1205,
      "Ġtarget": 1206,
      "Ġalgorithm": 1207,
      "Ġpa": 1208,
      "ignature": 1209,
      "abel": 1210,
      "Ġlength": 1211,
      "char": 1212,
      "Ġfirst": 1213,
      "([": 1214,
      "line": 1215,
      "Example": 1216,
      "Ġinteg": 1217,
      "verse": 1218,
      "Ġretri": 1219,
      "```\\": 1220,
      "Ġ<=": 1221,
      "ron": 1222,
      "Ġcontent": 1223,
      "print": 1224,
      "Ġtheir": 1225,
      "Ġwithin": 1226,
      "pre": 1227,
      "join": 1228,
      "cond": 1229,
      "ĠAdd": 1230,
      "ous": 1231,
      "length": 1232,
      "```\"\"\"": 1233,
      "ail": 1234,
      "lean": 1235,
      "Ġversion": 1236,
      "Ġvariable": 1237,
      "item": 1238,
      "av": 1239,
      "ink": 1240,
      "Ġrow": 1241,
      "sing": 1242,
      "cre": 1243,
      "core": 1244,
      "ep": 1245,
      "ĠURL": 1246,
      "raw": 1247,
      "lock": 1248,
      "Ġdataset": 1249,
      "node": 1250,
      "Ġexecut": 1251,
      "verage": 1252,
      "Ġpos": 1253,
      "pen": 1254,
      "ibrary": 1255,
      "Ġgener": 1256,
      "quence": 1257,
      "ĠExample": 1258,
      "Ġso": 1259,
      "yp": 1260,
      "Ġ:": 1261,
      "rid": 1262,
      "Ġfiles": 1263,
      "struct": 1264,
      "\"]": 1265,
      "},": 1266,
      "Ġdif": 1267,
      "Ġdist": 1268,
      "Ġfil": 1269,
      "Ġ9": 1270,
      "Ġdict": 1271,
      "Ġcase": 1272,
      "cket": 1273,
      "ĠReturn": 1274,
      ")`:": 1275,
      "plic": 1276,
      "dir": 1277,
      "Ġgra": 1278,
      "Ġexist": 1279,
      "\\\")\\": 1280,
      "sort": 1281,
      "Ġfloat": 1282,
      "Ġaccount": 1283,
      "igh": 1284,
      "Ġnames": 1285,
      "lication": 1286,
      "Ġcalcul": 1287,
      "feren": 1288,
      "inary": 1289,
      "mpty": 1290,
      "Ġinto": 1291,
      "Ġusage": 1292,
      "Ġcustom": 1293,
      "respon": 1294,
      "pa": 1295,
      "Ġtuple": 1296,
      "posit": 1297,
      "vel": 1298,
      "items": 1299,
      "Ġdatabase": 1300,
      "ptions": 1301,
      "Ġintegers": 1302,
      "message": 1303,
      "Ġunique": 1304,
      "param": 1305,
      "Ġfield": 1306,
      "=\"": 1307,
      "ized": 1308,
      "Ġam": 1309,
      "acci": 1310,
      "onacci": 1311,
      "itional": 1312,
      "Ġused": 1313,
      "Ġsent": 1314,
      "ape": 1315,
      "Ġwork": 1316,
      "ension": 1317,
      "Ġuse": 1318,
      "Ġcorrespon": 1319,
      "12": 1320,
      "Ġ{'": 1321,
      "for": 1322,
      "ug": 1323,
      "nums": 1324,
      "du": 1325,
      "Ġexcept": 1326,
      "duct": 1327,
      "ĠJ": 1328,
      "Ġad": 1329,
      "ines": 1330,
      "ined": 1331,
      "yn": 1332,
      "Ġfound": 1333,
      "ense": 1334,
      "cor": 1335,
      "Ġthen": 1336,
      "())": 1337,
      "Ġens": 1338,
      "ending": 1339,
      "Ġfunctional": 1340,
      "Ġfe": 1341,
      "lot": 1342,
      "version": 1343,
      "pr": 1344,
      "\\\":": 1345,
      "by": 1346,
      "of": 1347,
      "Ġamount": 1348,
      "ĠThis": 1349,
      "Ġmult": 1350,
      "Ġparameter": 1351,
      "PI": 1352,
      "Ġcorresponding": 1353,
      "Ġbet": 1354,
      "ST": 1355,
      "ear": 1356,
      "Ġoperations": 1357,
      "idth": 1358,
      "Ġread": 1359,
      "mb": 1360,
      "Ġconfiguration": 1361,
      "ted": 1362,
      "values": 1363,
      "ache": 1364,
      "Ġ!": 1365,
      "ĠImplement": 1366,
      "Ġlibrary": 1367,
      "ert": 1368,
      "Ġrequire": 1369,
      ")):": 1370,
      "Ġrepresents": 1371,
      "with": 1372,
      "ext": 1373,
      "lower": 1374,
      "Ġorder": 1375,
      "Ġkeys": 1376,
      "Ġ['": 1377,
      "Ġtry": 1378,
      "atures": 1379,
      "ER": 1380,
      "json": 1381,
      "ca": 1382,
      "Ġ!=": 1383,
      "Ġsimul": 1384,
      "ween": 1385,
      "ML": 1386,
      "Ġdisplay": 1387,
      "Ġyou": 1388,
      "Ġbool": 1389,
      "quency": 1390,
      "Ġcharacters": 1391,
      "20": 1392,
      "roup": 1393,
      "Ġos": 1394,
      "Ġprocesses": 1395,
      "Ġz": 1396,
      "ner": 1397,
      "Ġdate": 1398,
      "ĠHT": 1399,
      "title": 1400,
      "Ġout": 1401,
      "Ġattributes": 1402,
      "\\\"\\": 1403,
      "ible": 1404,
      "head": 1405,
      "html": 1406,
      "========": 1407,
      "format": 1408,
      "oice": 1409,
      "ick": 1410,
      "Ġman": 1411,
      "Ġbetween": 1412,
      "ĠEx": 1413,
      "Ġbu": 1414,
      "Ġconvert": 1415,
      "ization": 1416,
      "cription": 1417,
      "Ġcolum": 1418,
      "example": 1419,
      "ference": 1420,
      "comp": 1421,
      "List": 1422,
      "alue": 1423,
      "://": 1424,
      "Return": 1425,
      "Ġsi": 1426,
      "og": 1427,
      "[\"": 1428,
      "Ġweb": 1429,
      "Ġrequirements": 1430,
      "eve": 1431,
      "Ġdefault": 1432,
      "ptim": 1433,
      "Ġstate": 1434,
      "Ġhere": 1435,
      "attern": 1436,
      "IN": 1437,
      "run": 1438,
      "))\\": 1439,
      "owels": 1440,
      "Ġreg": 1441,
      "Ġstore": 1442,
      "Ġlon": 1443,
      "ges": 1444,
      "ix": 1445,
      "Ġlow": 1446,
      "Ġapplication": 1447,
      "pper": 1448,
      "Ġarguments": 1449,
      "Ġstack": 1450,
      "]]": 1451,
      "Ġsize": 1452,
      "Ġsearch": 1453,
      "Ġremove": 1454,
      "Ġonly": 1455,
      "pert": 1456,
      "Ġnums": 1457,
      "wargs": 1458,
      "Ġupdate": 1459,
      "uthor": 1460,
      "element": 1461,
      "Ġopen": 1462,
      "mod": 1463,
      "command": 1464,
      "Ġcall": 1465,
      "Pro": 1466,
      "Ġ}": 1467,
      "balance": 1468,
      "Ġpassword": 1469,
      "ified": 1470,
      "ccur": 1471,
      "les": 1472,
      "case": 1473,
      "ils": 1474,
      "hold": 1475,
      "nection": 1476,
      "Ġprime": 1477,
      "Ġ100": 1478,
      "ell": 1479,
      "state": 1480,
      "ark": 1481,
      "rop": 1482,
      "back": 1483,
      "lename": 1484,
      "Ġav": 1485,
      "Ġ**": 1486,
      "\\\\": 1487,
      "Ġstruct": 1488,
      "\".": 1489,
      "Ġcharacter": 1490,
      "import": 1491,
      "Ġone": 1492,
      "htt": 1493,
      "().": 1494,
      "Ġact": 1495,
      "pass": 1496,
      "Ġtoken": 1497,
      "Ġcalled": 1498,
      "ccess": 1499,
      "ensor": 1500,
      "etwork": 1501,
      "Ġfib": 1502,
      "ĠID": 1503,
      "ĠCon": 1504,
      "ifi": 1505,
      "Ġoperation": 1506,
      "Ġoccur": 1507,
      "Ġmatrix": 1508,
      "Ġtrain": 1509,
      "Ġempty": 1510,
      "[:": 1511,
      "Ġ''": 1512,
      "Ġtemp": 1513,
      "nThe": 1514,
      "Ġent": 1515,
      "Ġmid": 1516,
      "Ġemail": 1517,
      "pected": 1518,
      "mis": 1519,
      "Ġmaximum": 1520,
      "not": 1521,
      "Output": 1522,
      "instance": 1523,
      "Ġcont": 1524,
      "izer": 1525,
      "ars": 1526,
      "cessary": 1527,
      "Ġsignature": 1528,
      "Ġensure": 1529,
      "find": 1530,
      "--------": 1531,
      "ĠYou": 1532,
      "Ġno": 1533,
      "Ġ@": 1534,
      "ble": 1535,
      "ful": 1536,
      "vie": 1537,
      "gh": 1538,
      "aly": 1539,
      "ities": 1540,
      "Data": 1541,
      "arning": 1542,
      "Ġnecessary": 1543,
      "ĠĠĠĠĠĠ": 1544,
      "fre": 1545,
      "ypes": 1546,
      "cores": 1547,
      "sert": 1548,
      "otal": 1549,
      "ics": 1550,
      "olut": 1551,
      "viron": 1552,
      "izes": 1553,
      "Ġindic": 1554,
      "Ġfl": 1555,
      "Co": 1556,
      "trans": 1557,
      "txt": 1558,
      "files": 1559,
      "wise": 1560,
      "Ġdep": 1561,
      "Ġsp": 1562,
      "Ġlogic": 1563,
      "Ġattribute": 1564,
      "Ġass": 1565,
      "root": 1566,
      "AT": 1567,
      "Ġtable": 1568,
      "Ġcorrect": 1569,
      "].": 1570,
      "ĠAn": 1571,
      "Ġpackage": 1572,
      "orld": 1573,
      "content": 1574,
      "Ġstructure": 1575,
      "ler": 1576,
      "cry": 1577,
      "ptional": 1578,
      "ak": 1579,
      "sp": 1580,
      "ain": 1581,
      "Ġgame": 1582,
      "ict": 1583,
      "LE": 1584,
      "SON": 1585,
      "actor": 1586,
      "Ġthan": 1587,
      "let": 1588,
      "parse": 1589,
      "Ġbinary": 1590,
      "status": 1591,
      "book": 1592,
      "Ġserver": 1593,
      "ateg": 1594,
      "pping": 1595,
      "color": 1596,
      "ferent": 1597,
      "Ġ|": 1598,
      "Ġsecond": 1599,
      "Ġcomput": 1600,
      "cording": 1601,
      "')\\": 1602,
      "ves": 1603,
      "Ġmatch": 1604,
      "Ġhead": 1605,
      "Ġfunctionality": 1606,
      "check": 1607,
      "ailable": 1608,
      "Ġ20": 1609,
      "St": 1610,
      "pop": 1611,
      "ative": 1612,
      "tings": 1613,
      "Ġprocessing": 1614,
      "action": 1615,
      "password": 1616,
      "left": 1617,
      "Ġdifferent": 1618,
      "ception": 1619,
      "indow": 1620,
      "request": 1621,
      "ging": 1622,
      "ffic": 1623,
      "email": 1624,
      "task": 1625,
      "ordin": 1626,
      "nect": 1627,
      "dataset": 1628,
      "lete": 1629,
      "Ġrun": 1630,
      "fter": 1631,
      "}\")": 1632,
      "my": 1633,
      "ĠAPI": 1634,
      "train": 1635,
      "Function": 1636,
      "table": 1637,
      "</": 1638,
      "new": 1639,
      "ules": 1640,
      "ello": 1641,
      "Ġinst": 1642,
      "Ġ12": 1643,
      "Ġbook": 1644,
      "Ex": 1645,
      "adata": 1646,
      "Ġtitle": 1647,
      "directory": 1648,
      "ling": 1649,
      "unc": 1650,
      "Ġext": 1651,
      "bu": 1652,
      "lst": 1653,
      "Ġroot": 1654,
      "Ġdiv": 1655,
      "ility": 1656,
      "kwargs": 1657,
      "fix": 1658,
      "ents": 1659,
      "]\"\"\"": 1660,
      "Ġrepresented": 1661,
      "ocument": 1662,
      "Input": 1663,
      "igr": 1664,
      "random": 1665,
      "Ġ\"\"": 1666,
      "Ġcolor": 1667,
      "'\\": 1668,
      "Ġpython": 1669,
      "Ġlst": 1670,
      "Ġlar": 1671,
      "ater": 1672,
      "Ġaccording": 1673,
      "Ġaverage": 1674,
      "Ġworking": 1675,
      "RE": 1676,
      "ays": 1677,
      "mplate": 1678,
      "Ġright": 1679,
      "qual": 1680,
      "Ġrequired": 1681,
      "Ġposition": 1682,
      "tadata": 1683,
      "Ġsto": 1684,
      "next": 1685,
      "Ġ)": 1686,
      "nYou": 1687,
      "plicates": 1688,
      "lect": 1689,
      "rome": 1690,
      "Ġpair": 1691,
      "label": 1692,
      "eps": 1693,
      "Ġallow": 1694,
      "pport": 1695,
      "ĠCreate": 1696,
      "ĠData": 1697,
      "Ġretrieve": 1698,
      "icense": 1699,
      "orch": 1700,
      "mission": 1701,
      "ĠJSON": 1702,
      "vironment": 1703,
      "asses": 1704,
      "Ġgo": 1705,
      "Ġsequence": 1706,
      "tails": 1707,
      "field": 1708,
      "Ġstatus": 1709,
      "ĠEach": 1710,
      "Ġover": 1711,
      "abels": 1712,
      "tes": 1713,
      "Ġident": 1714,
      "ream": 1715,
      "Ġlet": 1716,
      "Ġnamed": 1717,
      "Ġ[]\\": 1718,
      "sta": 1719,
      "Ġ[\"": 1720,
      "Ġfunctions": 1721,
      "alueError": 1722,
      "Ġwhether": 1723,
      "nel": 1724,
      "Ġupd": 1725,
      "dist": 1726,
      "((": 1727,
      "df": 1728,
      "SE": 1729,
      "cies": 1730,
      "dis": 1731,
      "ĠTest": 1732,
      "map": 1733,
      ")]": 1734,
      "Ġreverse": 1735,
      "sy": 1736,
      "Ġsentence": 1737,
      "da": 1738,
      "ess": 1739,
      "Generate": 1740,
      "do": 1741,
      "li": 1742,
      "Ġiter": 1743,
      "ĠAdditional": 1744,
      "names": 1745,
      "Ġfilter": 1746,
      "Ġurl": 1747,
      "Hello": 1748,
      "Ġach": 1749,
      "search": 1750,
      "Ġinstance": 1751,
      "Implement": 1752,
      "token": 1753,
      "Ġform": 1754,
      "Ġwhen": 1755,
      "Ġho": 1756,
      "draw": 1757,
      "Ġthem": 1758,
      "function": 1759,
      "cent": 1760,
      "Manager": 1761,
      "reg": 1762,
      "Ġquery": 1763,
      "vol": 1764,
      "uring": 1765,
      "alind": 1766,
      "ump": 1767,
      "Ġparse": 1768,
      "Ġsimple": 1769,
      "Ġleft": 1770,
      "Ġconstruct": 1771,
      "Ġcond": 1772,
      "riter": 1773,
      "Ġpr": 1774,
      "lose": 1775,
      "ield": 1776,
      "ange": 1777,
      "queue": 1778,
      "Ġexpected": 1779,
      "current": 1780,
      "olution": 1781,
      "Ġstarting": 1782,
      "Ġevent": 1783,
      "ton": 1784,
      "nder": 1785,
      "Ġpres": 1786,
      "total": 1787,
      "encies": 1788,
      "Ġlongest": 1789,
      "rip": 1790,
      "Ġthese": 1791,
      "imit": 1792,
      "ĠHTML": 1793,
      "Ġrequests": 1794,
      "bed": 1795,
      "Ġproject": 1796,
      "ĠInitial": 1797,
      "Ġcons": 1798,
      "ieve": 1799,
      "ven": 1800,
      "[-": 1801,
      "Ar": 1802,
      "Ġfrequency": 1803,
      "Ġotherwise": 1804,
      "Ġmain": 1805,
      "Ġsample": 1806,
      "Ġprocessed": 1807,
      "create": 1808,
      "Ġsuccess": 1809,
      "ward": 1810,
      "Ġresults": 1811,
      "iginal": 1812,
      "alindrome": 1813,
      "gn": 1814,
      "Ġoptim": 1815,
      "Ġnetwork": 1816,
      "ights": 1817,
      "Ġhigh": 1818,
      "TP": 1819,
      "Ġjson": 1820,
      "EN": 1821,
      "Ġframe": 1822,
      "Ġalso": 1823,
      "mit": 1824,
      "ong": 1825,
      "Ġvis": 1826,
      "angu": 1827,
      "aries": 1828,
      "####": 1829,
      "OR": 1830,
      "ssages": 1831,
      "crypt": 1832,
      "fficient": 1833,
      "choice": 1834,
      "}\\": 1835,
      "ash": 1836,
      "Ġdoes": 1837,
      "ential": 1838,
      "bin": 1839,
      "ibonacci": 1840,
      "calculate": 1841,
      "ax": 1842,
      "Ġver": 1843,
      "pression": 1844,
      "issing": 1845,
      "alculate": 1846,
      "rough": 1847,
      "Ġ//": 1848,
      "inter": 1849,
      "Ġbalance": 1850,
      "Ġproduct": 1851,
      "Des": 1852,
      "Ġlast": 1853,
      "Ġisinstance": 1854,
      "ĠIt": 1855,
      "Ġgrid": 1856,
      "ownload": 1857,
      "replace": 1858,
      "iew": 1859,
      "...": 1860,
      "Ġ`__": 1861,
      "account": 1862,
      "Ġadding": 1863,
      "Ġaut": 1864,
      "Ġpoints": 1865,
      "object": 1866,
      "Ġsame": 1867,
      "generate": 1868,
      "Ġsc": 1869,
      "cept": 1870,
      "Ġfreq": 1871,
      "Frame": 1872,
      ",\\": 1873,
      "ĠX": 1874,
      "Ġitems": 1875,
      "Str": 1876,
      "Ġ15": 1877,
      "udent": 1878,
      "prime": 1879,
      "Ġindicating": 1880,
      "Ġnext": 1881,
      "Ġavailable": 1882,
      "Ġachieve": 1883,
      "Ġmy": 1884,
      "ĠValueError": 1885,
      "11": 1886,
      "Ġplayer": 1887,
      "sent": 1888,
      "mal": 1889,
      "Ġtop": 1890,
      "Ġthrough": 1891,
      "Ġ'__": 1892,
      "mages": 1893,
      "Ġdeter": 1894,
      "Ġcommon": 1895,
      "Ġload": 1896,
      "'],": 1897,
      "write": 1898,
      "soci": 1899,
      "method": 1900,
      "ank": 1901,
      "ĠAdditionally": 1902,
      "Ġcondition": 1903,
      "cation": 1904,
      "ha": 1905,
      "Ġsuch": 1906,
      "lis": 1907,
      "stamp": 1908,
      "anguage": 1909,
      "view": 1910,
      "Ġfollows": 1911,
      "hand": 1912,
      "100": 1913,
      "Ġinclude": 1914,
      "ategory": 1915,
      "olean": 1916,
      "Ġaddress": 1917,
      "ĠĠĠĠĠĠĠĠĠĠĠĠĠĠĠĠĠĠĠĠĠĠĠ": 1918,
      "Ġmean": 1919,
      "56": 1920,
      "Ġsing": 1921,
      "cs": 1922,
      "Ġremo": 1923,
      "Ġassoci": 1924,
      "Ġage": 1925,
      "ĠCheck": 1926,
      "ches": 1927,
      "spe": 1928,
      "Ġ('": 1929,
      "ordinates": 1930,
      ".__": 1931,
      "ware": 1932,
      "No": 1933,
      "ww": 1934,
      "ia": 1935,
      "part": 1936,
      "Ġvowels": 1937,
      "Ġafter": 1938,
      "Ġlists": 1939,
      "Ġpattern": 1940,
      "dius": 1941,
      "Ġgraph": 1942,
      "Ġblock": 1943,
      "Ġarea": 1944,
      "Ġcolumn": 1945,
      "valu": 1946,
      "Ġargs": 1947,
      "ready": 1948,
      "ifier": 1949,
      "host": 1950,
      "lection": 1951,
      "update": 1952,
      "DE": 1953,
      "extract": 1954,
      "ME": 1955,
      "ait": 1956,
      "price": 1957,
      "graph": 1958,
      "width": 1959,
      "Ġdistance": 1960,
      "itive": 1961,
      "Ġgre": 1962,
      "ĠK": 1963,
      "aces": 1964,
      "Ġpropert": 1965,
      "arg": 1966,
      "Ġback": 1967,
      "ormal": 1968,
      "Ġclean": 1969,
      "target": 1970,
      "cat": 1971,
      "div": 1972,
      "Ġscore": 1973,
      "query": 1974,
      "AR": 1975,
      "ification": 1976,
      "api": 1977,
      "Ġmanage": 1978,
      "Ġag": 1979,
      "params": 1980,
      "idd": 1981,
      "Ġmissing": 1982,
      "Ġobjects": 1983,
      "fl": 1984,
      "ely": 1985,
      "Ġextracted": 1986,
      "Ġlink": 1987,
      "Ġnon": 1988,
      "fil": 1989,
      "Ġmulti": 1990,
      "umb": 1991,
      "angle": 1992,
      "float": 1993,
      "io": 1994,
      "Ġsingle": 1995,
      "Ġsource": 1996,
      "lib": 1997,
      "sample": 1998,
      "Ġpage": 1999,
      "Ġsupport": 2000,
      "Name": 2001,
      "Ġassociated": 2002,
      "Ġanaly": 2003,
      "Ġalready": 2004,
      "rit": 2005,
      "Ġparser": 2006,
      "Ġ>=": 2007,
      "Ġbut": 2008,
      "face": 2009,
      "group": 2010,
      "ropri": 2011,
      ".,": 2012,
      "https": 2013,
      "Ġappropri": 2014,
      "nter": 2015,
      "ins": 2016,
      "module": 2017,
      "iment": 2018,
      "Ġdescri": 2019,
      "remove": 2020,
      ".\")": 2021,
      "matrix": 2022,
      "ango": 2023,
      "Design": 2024,
      "Ġconnection": 2025,
      "Ġrel": 2026,
      "tered": 2027,
      "ĠDe": 2028,
      "Ġenvironment": 2029,
      "():\\": 2030,
      "ched": 2031,
      "()`": 2032,
      "reak": 2033,
      "db": 2034,
      "IT": 2035,
      "ĠFibonacci": 2036,
      "Ġable": 2037,
      "lder": 2038,
      "ular": 2039,
      "Ġmay": 2040,
      "}'": 2041,
      "Ġaction": 2042,
      "ull": 2043,
      "ĠAss": 2044,
      "cale": 2045,
      "oper": 2046,
      "filename": 2047,
      "Ġprints": 2048,
      "Ġspecifications": 2049,
      "ĠPro": 2050,
      "Ġpresent": 2051,
      "ID": 2052,
      "Ġed": 2053,
      "File": 2054,
      "bove": 2055,
      "Ġsqu": 2056,
      "dep": 2057,
      "iple": 2058,
      "Ġoriginal": 2059,
      "Ġsimulates": 2060,
      "obj": 2061,
      "Ġtraining": 2062,
      "Ġtypes": 2063,
      "Ġabove": 2064,
      "SS": 2065,
      "01": 2066,
      "kens": 2067,
      "Ġdete": 2068,
      "Ġthree": 2069,
      "Ġaccess": 2070,
      "attr": 2071,
      "icle": 2072,
      "Ġlargest": 2073,
      "username": 2074,
      "med": 2075,
      "Ġeven": 2076,
      "ances": 2077,
      "Ġ[[": 2078,
      "pository": 2079,
      "ision": 2080,
      "manager": 2081,
      "return": 2082,
      "colum": 2083,
      "Ġdu": 2084,
      "ana": 2085,
      "batch": 2086,
      "tt": 2087,
      "ero": 2088,
      "lease": 2089,
      "Ġid": 2090,
      "top": 2091,
      "Ġport": 2092,
      "Ġperforms": 2093,
      "Ġ25": 2094,
      "strip": 2095,
      "jango": 2096,
      "Ġseen": 2097,
      "Ġcommands": 2098,
      "shape": 2099,
      "Ġsuccessful": 2100,
      "ody": 2101,
      "Ġlabel": 2102,
      "Ġvarious": 2103,
      "igration": 2104,
      "Type": 2105,
      "lob": 2106,
      "Ġcompon": 2107,
      "ĠFor": 2108,
      "pi": 2109,
      "This": 2110,
      "amb": 2111,
      "An": 2112,
      "loy": 2113,
      "lay": 2114,
      "Ġhel": 2115,
      "call": 2116,
      "ural": 2117,
      "Ġbatch": 2118,
      "mension": 2119,
      "coded": 2120,
      "points": 2121,
      "havi": 2122,
      "Invalid": 2123,
      "score": 2124,
      "De": 2125,
      "Ġboolean": 2126,
      "Ġheight": 2127,
      "ran": 2128,
      "Ġwidth": 2129,
      "AL": 2130,
      "ession": 2131,
      "response": 2132,
      "Ġmodified": 2133,
      "ions": 2134,
      "ĠInitialize": 2135,
      "Ġph": 2136,
      "Ġyear": 2137,
      "execut": 2138,
      "Ġfactor": 2139,
      "description": 2140,
      "su": 2141,
      "ved": 2142,
      "Ġ{\"": 2143,
      "default": 2144,
      "stack": 2145,
      "level": 2146,
      "Ġtag": 2147,
      "pect": 2148,
      "Ġlearning": 2149,
      "ĠCalculate": 2150,
      "Ġdepend": 2151,
      "sq": 2152,
      "hn": 2153,
      "evel": 2154,
      "vari": 2155,
      "Ġdefined": 2156,
      "address": 2157,
      "func": 2158,
      "Ġmer": 2159,
      "ey": 2160,
      "Ġerrors": 2161,
      "Ġregist": 2162,
      "Ġclient": 2163,
      "Par": 2164,
      "Se": 2165,
      "mean": 2166,
      "rences": 2167,
      "Ġtasks": 2168,
      "np": 2169,
      "actions": 2170,
      "the": 2171,
      "Ġsteps": 2172,
      "Ch": 2173,
      "Ġbuild": 2174,
      "mid": 2175,
      "Ġview": 2176,
      "ĠExecut": 2177,
      "igits": 2178,
      "Ġretriev": 2179,
      "Ġtree": 2180,
      "Ġactual": 2181,
      "strings": 2182,
      "havior": 2183,
      "Ġmake": 2184,
      "rate": 2185,
      "fit": 2186,
      "unk": 2187,
      "sequence": 2188,
      "river": 2189,
      "])\\": 2190,
      "Ġappropriate": 2191,
      "bot": 2192,
      "coding": 2193,
      "Al": 2194,
      "no": 2195,
      "Ġbreak": 2196,
      "Ġ-=": 2197,
      "erson": 2198,
      "fore": 2199,
      "Ġmost": 2200,
      "================": 2201,
      "Ġmode": 2202,
      "idx": 2203,
      "Ġvariables": 2204,
      "Ġsettings": 2205,
      "match": 2206,
      "Ġfeatures": 2207,
      "der": 2208,
      "ories": 2209,
      "Ġdescribed": 2210,
      "page": 2211,
      "Ġlogging": 2212,
      "'))": 2213,
      "rc": 2214,
      "hel": 2215,
      "mine": 2216,
      "grid": 2217,
      "ambda": 2218,
      "features": 2219,
      "sc": 2220,
      "Ġboth": 2221,
      "reshold": 2222,
      "package": 2223,
      "Ġdecor": 2224,
      "udi": 2225,
      "ten": 2226,
      "ares": 2227,
      "Res": 2228,
      "Ġyour": 2229,
      "Ġmon": 2230,
      "Ġasyn": 2231,
      "Ġbehavior": 2232,
      "Ġsend": 2233,
      "year": 2234,
      "umer": 2235,
      "Ġdevice": 2236,
      "Ġinvol": 2237,
      "board": 2238,
      "frame": 2239,
      "Ġhandling": 2240,
      "Ġexecute": 2241,
      "Ġassume": 2242,
      "rol": 2243,
      "__':": 2244,
      "Ġequal": 2245,
      "String": 2246,
      "Ġmessages": 2247,
      "Ġdetails": 2248,
      "Ġcalculates": 2249,
      "Ġmultiple": 2250,
      "fib": 2251,
      "Ġmanag": 2252,
      "Ġunit": 2253,
      "Ġsign": 2254,
      "net": 2255,
      "Ġtorch": 2256,
      "Ġapply": 2257,
      "antity": 2258,
      "Ġloop": 2259,
      "Ġexpression": 2260,
      "123": 2261,
      "Ġprice": 2262,
      "Ġplot": 2263,
      "ribut": 2264,
      "aut": 2265,
      "mut": 2266,
      "erature": 2267,
      "ids": 2268,
      "blem": 2269,
      "Ġletter": 2270,
      "```\\\"\\\"\\\"\\": 2271,
      "anc": 2272,
      "ee": 2273,
      "Ġrules": 2274,
      "Ġut": 2275,
      "ake": 2276,
      "Ġcoordinates": 2277,
      "Ġcases": 2278,
      "Ġthere": 2279,
      "idden": 2280,
      "Ġclasses": 2281,
      "Ġfeature": 2282,
      "22": 2283,
      "ĠSt": 2284,
      "assert": 2285,
      "'.": 2286,
      "'])": 2287,
      "Ġlabels": 2288,
      "Ġfields": 2289,
      "Ġprovide": 2290,
      "ĠUn": 2291,
      "33": 2292,
      "Ġassert": 2293,
      "Ġauthor": 2294,
      "chema": 2295,
      "cache": 2296,
      "plot": 2297,
      "ĠSignature": 2298,
      "position": 2299,
      "event": 2300,
      "sess": 2301,
      "height": 2302,
      "Ġcolumns": 2303,
      "Ġfinal": 2304,
      "Ġrespon": 2305,
      ">\\": 2306,
      "tag": 2307,
      "range": 2308,
      "Ġgoal": 2309,
      "Ġplt": 2310,
      "keys": 2311,
      "Ass": 2312,
      "lected": 2313,
      "16": 2314,
      "author": 2315,
      "nWrite": 2316,
      "rand": 2317,
      "other": 2318,
      "igit": 2319,
      "Ġoptions": 2320,
      "Ġdocument": 2321,
      "Ġcorrectly": 2322,
      "link": 2323,
      "Ġalph": 2324,
      "erform": 2325,
      "cd": 2326,
      "pol": 2327,
      "ze": 2328,
      "pack": 2329,
      "far": 2330,
      "15": 2331,
      "Ġsepar": 2332,
      "ategor": 2333,
      "Ġlower": 2334,
      "Ġsplit": 2335,
      "sentence": 2336,
      "Complete": 2337,
      "ists": 2338,
      "ock": 2339,
      "Ġrecord": 2340,
      "Ġvalidate": 2341,
      "ET": 2342,
      "scores": 2343,
      "udio": 2344,
      "roll": 2345,
      "Ġexists": 2346,
      "umpy": 2347,
      "etch": 2348,
      "ged": 2349,
      "}\"": 2350,
      "Ġmove": 2351,
      "Ġpaths": 2352,
      "Field": 2353,
      "Ġcontext": 2354,
      "Ġfo": 2355,
      "ĠY": 2356,
      "Ġparam": 2357,
      "Ġ.": 2358,
      "wait": 2359,
      "Ġgroup": 2360,
      "lines": 2361,
      "Ġlines": 2362,
      "Ġlicense": 2363,
      "Ġlevel": 2364,
      "temp": 2365,
      "elements": 2366,
      "ntic": 2367,
      "Ġpop": 2368,
      "Ġsets": 2369,
      "Ġduring": 2370,
      "Ġshape": 2371,
      "hentic": 2372,
      "Ġevalu": 2373,
      "mbol": 2374,
      "oup": 2375,
      "Ġabs": 2376,
      "argument": 2377,
      "Ġformatted": 2378,
      "itu": 2379,
      "Ġ`_": 2380,
      "counts": 2381,
      "Ġmetadata": 2382,
      "Ġfilename": 2383,
      "CT": 2384,
      "'),": 2385,
      "parent": 2386,
      "source": 2387,
      "mory": 2388,
      "chan": 2389,
      "ohn": 2390,
      "Ġ11": 2391,
      "Ġlanguage": 2392,
      "Ġcurr": 2393,
      "uper": 2394,
      "})": 2395,
      "Ġusername": 2396,
      "Ġinitializes": 2397,
      "32": 2398,
      "nFor": 2399,
      "ĠSet": 2400,
      "ĠReturns": 2401,
      "ng": 2402,
      "Fix": 2403,
      "holder": 2404,
      "atterns": 2405,
      "Ġproblem": 2406,
      "ceiv": 2407,
      "Ġsession": 2408,
      "fill": 2409,
      "client": 2410,
      "Ġabout": 2411,
      "achine": 2412,
      "Ġrou": 2413,
      "Ġinvolves": 2414,
      "Ġpairs": 2415,
      "ftware": 2416,
      "ertain": 2417,
      "hest": 2418,
      "Ġgreater": 2419,
      "AN": 2420,
      "mary": 2421,
      "ĠDataFrame": 2422,
      "olve": 2423,
      "stat": 2424,
      "Ġincludes": 2425,
      "ming": 2426,
      "server": 2427,
      "ndef": 2428,
      "Ġexception": 2429,
      "evelop": 2430,
      "Not": 2431,
      "QL": 2432,
      "{'": 2433,
      "Ġdetermine": 2434,
      "Ġminimum": 2435,
      "ability": 2436,
      "Ġhash": 2437,
      "Ġloss": 2438,
      "gative": 2439,
      "Ġcertain": 2440,
      "ited": 2441,
      "ventory": 2442,
      "Ġscores": 2443,
      "swith": 2444,
      "box": 2445,
      "\\\",\\": 2446,
      "AB": 2447,
      "ector": 2448,
      "ighest": 2449,
      "Ġwrit": 2450,
      "Ġpy": 2451,
      "filter": 2452,
      "Ġ30": 2453,
      "go": 2454,
      "first": 2455,
      "curs": 2456,
      "Ġdecorator": 2457,
      "itor": 2458,
      "Ġtemplate": 2459,
      "Ġdictionaries": 2460,
      "\"{": 2461,
      "Ġrepository": 2462,
      "ĠĠĠĠĠĠĠĠčĊ": 2463,
      "dian": 2464,
      "mode": 2465,
      "Ġmust": 2466,
      "iled": 2467,
      "Ġwindow": 2468,
      "Ġusers": 2469,
      "paths": 2470,
      ":-": 2471,
      "ower": 2472,
      "mploy": 2473,
      "Ġdivis": 2474,
      "ose": 2475,
      "und": 2476,
      "ighb": 2477,
      "Ġcost": 2478,
      "diction": 2479,
      "Ġconst": 2480,
      "Ġvalidation": 2481,
      "Ġdatetime": 2482,
      "`.\\": 2483,
      "Ġreference": 2484,
      "ĠCo": 2485,
      "block": 2486,
      "ont": 2487,
      "vowels": 2488,
      "cle": 2489,
      "Ġgenerated": 2490,
      "mark": 2491,
      "Ġmapping": 2492,
      "Ġ(`": 2493,
      "64": 2494,
      "Ġjob": 2495,
      "Ġparsed": 2496,
      "umber": 2497,
      "sted": 2498,
      "Ġdelete": 2499,
      "last": 2500,
      "ĠExecuting": 2501,
      "ĠQ": 2502,
      "Ġlayer": 2503,
      "Ġpri": 2504,
      "Ġmore": 2505,
      "Ġchecks": 2506,
      "itude": 2507,
      "ider": 2508,
      "ĠAr": 2509,
      "use": 2510,
      "ref": 2511,
      "Ġreplace": 2512,
      "000": 2513,
      "25": 2514,
      "imil": 2515,
      "distance": 2516,
      "RO": 2517,
      "rel": 2518,
      "Ġimages": 2519,
      "http": 2520,
      "Ġfibs": 2521,
      "riteria": 2522,
      "Ġmark": 2523,
      "average": 2524,
      "Test": 2525,
      "bug": 2526,
      "(),": 2527,
      "send": 2528,
      "Ġflag": 2529,
      "ian": 2530,
      "sis": 2531,
      "]:\\": 2532,
      "ources": 2533,
      "Ġservice": 2534,
      "save": 2535,
      "Ġstudent": 2536,
      "product": 2537,
      "ush": 2538,
      "ĉĉ": 2539,
      "Ġinputs": 2540,
      "ayload": 2541,
      "Ġtuples": 2542,
      "ome": 2543,
      "Ġdescription": 2544,
      "ĠHTTP": 2545,
      "Ġstat": 2546,
      "Ġkeyword": 2547,
      "Ġlimit": 2548,
      "Dict": 2549,
      "ences": 2550,
      "Given": 2551,
      "imilar": 2552,
      "pattern": 2553,
      "sorted": 2554,
      "Ġupdated": 2555,
      "ffer": 2556,
      "cending": 2557,
      "Ġqueue": 2558,
      "xy": 2559,
      "Ġ'/": 2560,
      "ĠOptional": 2561,
      "ply": 2562,
      "pped": 2563,
      "duplicates": 2564,
      "ving": 2565,
      "round": 2566,
      "Ġfiltered": 2567,
      "Ġcache": 2568,
      "ards": 2569,
      "Ġseries": 2570,
      "inst": 2571,
      "inte": 2572,
      "Ġnodes": 2573,
      "ute": 2574,
      "Ġcopy": 2575,
      "off": 2576,
      "Ġgenerates": 2577,
      "----------------": 2578,
      "Ġax": 2579,
      "Develop": 2580,
      "Ġpalindrome": 2581,
      "ĠDjango": 2582,
      "Ġconditions": 2583,
      "Ġpol": 2584,
      "Ġdel": 2585,
      "Ġ\\\"\\\"": 2586,
      "Ġter": 2587,
      "ĠException": 2588,
      "Ġupper": 2589,
      "Ġrespect": 2590,
      "Ġrate": 2591,
      "Ġsys": 2592,
      "gress": 2593,
      "Un": 2594,
      "Ġcv": 2595,
      "NA": 2596,
      "open": 2597,
      "Ġ...": 2598,
      "ination": 2599,
      "monstr": 2600,
      "formed": 2601,
      "Ġsuper": 2602,
      "aded": 2603,
      "Ac": 2604,
      "Ġdemonstr": 2605,
      "Ġextracts": 2606,
      "Ġpredict": 2607,
      "freq": 2608,
      "SI": 2609,
      "ĠFl": 2610,
      "66": 2611,
      "als": 2612,
      "ipel": 2613,
      "crypted": 2614,
      "CH": 2615,
      "Ġthey": 2616,
      "Ġ'{": 2617,
      "ets": 2618,
      "Ġdf": 2619,
      "img": 2620,
      "rection": 2621,
      "Ġstored": 2622,
      "ideo": 2623,
      "30": 2624,
      "\"))": 2625,
      "radius": 2626,
      "Ġ`<": 2627,
      "Ġ(\"": 2628,
      "Ġhost": 2629,
      "asure": 2630,
      "dif": 2631,
      "Ġfibonacci": 2632,
      "enu": 2633,
      "\"\"\"\"": 2634,
      "Ġcalculated": 2635,
      "come": 2636,
      "results": 2637,
      "charact": 2638,
      "Enter": 2639,
      "orage": 2640,
      "Ġbytes": 2641,
      "close": 2642,
      "down": 2643,
      "Ġcounts": 2644,
      "Ser": 2645,
      "direct": 2646,
      "Ġtool": 2647,
      "gen": 2648,
      "Ġ\")": 2649,
      "day": 2650,
      "Ġconnect": 2651,
      "atform": 2652,
      "ĠWorld": 2653,
      "__`": 2654,
      "19": 2655,
      "sw": 2656,
      "Ġdp": 2657,
      "versed": 2658,
      "Ġhelp": 2659,
      "iss": 2660,
      "grams": 2661,
      "Assume": 2662,
      "variable": 2663,
      "':\\": 2664,
      ":\",": 2665,
      "Ġcir": 2666,
      "Ġcell": 2667,
      "Ġcategory": 2668,
      "cost": 2669,
      "amount": 2670,
      "csv": 2671,
      "Ġpositive": 2672,
      "Ġconstructor": 2673,
      "frequency": 2674,
      "cimal": 2675,
      "Ġcriteria": 2676,
      "tract": 2677,
      "Ġmanager": 2678,
      "Ġobtain": 2679,
      "squ": 2680,
      "ernel": 2681,
      "Ġindices": 2682,
      "]`": 2683,
      "sl": 2684,
      "Process": 2685,
      "metadata": 2686,
      "Ġuses": 2687,
      "Ġexecution": 2688,
      "Ġsubstring": 2689,
      "Ġexisting": 2690,
      "Ġoptional": 2691,
      "Ġrepresentation": 2692,
      "CO": 2693,
      "UT": 2694,
      "Ġdimension": 2695,
      "ipeline": 2696,
      "Ġchoice": 2697,
      "script": 2698,
      "tact": 2699,
      "MA": 2700,
      "ppe": 2701,
      "Ġrows": 2702,
      "site": 2703,
      "local": 2704,
      "Ġmath": 2705,
      "Ġfactorial": 2706,
      "common": 2707,
      "Ġtimestamp": 2708,
      "parame": 2709,
      "âĶ": 2710,
      "99": 2711,
      "Ġweight": 2712,
      "Ġwithout": 2713,
      "Ġodd": 2714,
      "ĠAny": 2715,
      "regist": 2716,
      "ulti": 2717,
      "[::-": 2718,
      "loss": 2719,
      "Ġcomple": 2720,
      "section": 2721,
      "Ġ200": 2722,
      "Ġ\"__": 2723,
      "Ġsave": 2724,
      "alary": 2725,
      "Ġquick": 2726,
      "]))": 2727,
      "stru": 2728,
      "John": 2729,
      "ailed": 2730,
      "Ġpack": 2731,
      "gre": 2732,
      "Ġ50": 2733,
      "Ġparent": 2734,
      "Ġduplicates": 2735,
      "post": 2736,
      "User": 2737,
      "ness": 2738,
      "Ġaccept": 2739,
      "be": 2740,
      "pdate": 2741,
      "Ġoccurrences": 2742,
      "Ġcap": 2743,
      "Ġ\",": 2744,
      "Ġful": 2745,
      "Ġcomponents": 2746,
      "Ġdownload": 2747,
      "Ġ16": 2748,
      "Key": 2749,
      "Ġstand": 2750,
      "ulation": 2751,
      "even": 2752,
      "Ġhandles": 2753,
      "session": 2754,
      "rt": 2755,
      "Ġassign": 2756,
      "Ġmachine": 2757,
      "To": 2758,
      "Ġsolution": 2759,
      "ired": 2760,
      "Ġnormal": 2761,
      "ckets": 2762,
      "Ġ'''": 2763,
      ".\"": 2764,
      "ital": 2765,
      "Ġart": 2766,
      "Node": 2767,
      "unique": 2768,
      "Ġinteract": 2769,
      "ift": 2770,
      "nExample": 2771,
      "tex": 2772,
      "Ġmigration": 2773,
      "Ġincluding": 2774,
      "Ġoff": 2775,
      "Ġtrack": 2776,
      "otential": 2777,
      "device": 2778,
      "Ġextension": 2779,
      "Ġtri": 2780,
      "Sub": 2781,
      "connect": 2782,
      "options": 2783,
      "50": 2784,
      "Ġwithdraw": 2785,
      "upper": 2786,
      "layer": 2787,
      "repo": 2788,
      "Ġdest": 2789,
      "var": 2790,
      "Tra": 2791,
      "md": 2792,
      "Ġprovides": 2793,
      "rest": 2794,
      "Ġmanagement": 2795,
      "Ġstop": 2796,
      "propert": 2797,
      "Ġdirect": 2798,
      "Ġdependencies": 2799,
      "ĠDef": 2800,
      "Ġlogger": 2801,
      "location": 2802,
      "template": 2803,
      "quent": 2804,
      "cret": 2805,
      "delete": 2806,
      "hash": 2807,
      "ĠAd": 2808,
      "=\\\"": 2809,
      "Ġbefore": 2810,
      "dim": 2811,
      "Ġtags": 2812,
      "Ġ--": 2813,
      "asic": 2814,
      "Ġdistribut": 2815,
      "depend": 2816,
      "',\\": 2817,
      "parser": 2818,
      "area": 2819,
      "Ġparts": 2820,
      "Ġhighest": 2821,
      "Ġunder": 2822,
      "########": 2823,
      "vers": 2824,
      "idget": 2825,
      "ross": 2826,
      "Ġpotential": 2827,
      "Ġ'.": 2828,
      "Ġbound": 2829,
      "ĠTra": 2830,
      "Ġ{\\": 2831,
      "ES": 2832,
      "Ġ{}\\": 2833,
      "Exception": 2834,
      "Account": 2835,
      "Ġreport": 2836,
      "FI": 2837,
      "Ġpost": 2838,
      "nsure": 2839,
      "Model": 2840,
      "lev": 2841,
      "Request": 2842,
      "Ġpub": 2843,
      "cip": 2844,
      "idual": 2845,
      "Ġincre": 2846,
      "ĠIter": 2847,
      "side": 2848,
      "enerator": 2849,
      "Ġinterface": 2850,
      "ĠApp": 2851,
      "ĠUse": 2852,
      "abc": 2853,
      "Ġenumer": 2854,
      "build": 2855,
      "copy": 2856,
      "ĠĠĠĠĠĠĠĠĠĠĠĠĠĠĠĠĠĠĠĠĠĠĠĠĠĠĠĠĠĠĠĠ": 2857,
      "dictions": 2858,
      "14": 2859,
      "Ġbl": 2860,
      "LI": 2861,
      "bytes": 2862,
      "Note": 2863,
      "'}": 2864,
      "uous": 2865,
      "requi": 2866,
      "ĠPerform": 2867,
      "LO": 2868,
      "Ġadded": 2869,
      "Ġsetup": 2870,
      "execute": 2871,
      "player": 2872,
      "cap": 2873,
      "record": 2874,
      "pub": 2875,
      "Ġmask": 2876,
      "Ġtensor": 2877,
      "ĠDict": 2878,
      "Ġframework": 2879,
      "Ġstream": 2880,
      "Ġbeen": 2881,
      "Ġcreated": 2882,
      "ivot": 2883,
      "vices": 2884,
      "Ġappe": 2885,
      "Ġfunctionalities": 2886,
      "ĠFlask": 2887,
      "unct": 2888,
      "game": 2889,
      "unds": 2890,
      "env": 2891,
      "Ġsuccessfully": 2892,
      "caten": 2893,
      "vious": 2894,
      "ĠPrint": 2895,
      "books": 2896,
      "objects": 2897,
      "lish": 2898,
      "ings": 2899,
      "ways": 2900,
      "system": 2901,
      "Ġproperty": 2902,
      "Add": 2903,
      "ED": 2904,
      "any": 2905,
      "Ġsoftware": 2906,
      "ius": 2907,
      "sets": 2908,
      "tree": 2909,
      "Ġproper": 2910,
      "ively": 2911,
      "__\":": 2912,
      "Ġlocal": 2913,
      "Ġcompute": 2914,
      "Ġpermission": 2915,
      "Ġmap": 2916,
      "Ġproperties": 2917,
      "OST": 2918,
      "Col": 2919,
      "ING": 2920,
      "Ġign": 2921,
      "oad": 2922,
      "Ġvideo": 2923,
      "settings": 2924,
      "Ġstandard": 2925,
      "Ġremain": 2926,
      "Ġgen": 2927,
      "Ġcontrol": 2928,
      "loc": 2929,
      "www": 2930,
      "cls": 2931,
      "Ġserial": 2932,
      "\\\":\\": 2933,
      "types": 2934,
      "uff": 2935,
      "Ġchan": 2936,
      "apple": 2937,
      "mployee": 2938,
      "body": 2939,
      "std": 2940,
      "show": 2941,
      "serial": 2942,
      "Ġplace": 2943,
      "Ġstep": 2944,
      "validate": 2945,
      ":]": 2946,
      "80": 2947,
      "try": 2948,
      "Ġlay": 2949,
      "hello": 2950,
      "org": 2951,
      "ĠExtract": 2952,
      "Ġtransform": 2953,
      "Ġadhere": 2954,
      "lambda": 2955,
      "('/": 2956,
      "bar": 2957,
      "Ġmodules": 2958,
      "Ġcontin": 2959,
      "Comp": 2960,
      "Ġauthentic": 2961,
      "socket": 2962,
      "Ġdomain": 2963,
      "Ġfunds": 2964,
      "Ġthread": 2965,
      "Ġsav": 2966,
      "Ġcomment": 2967,
      "Ġposs": 2968,
      "extension": 2969,
      "column": 2970,
      "Ġbutton": 2971,
      "]\\\"\\\"\\\"\\": 2972,
      "lon": 2973,
      "Ġreversed": 2974,
      "Ġobj": 2975,
      "'):": 2976,
      "(*": 2977,
      "ias": 2978,
      "license": 2979,
      "Time": 2980,
      "ants": 2981,
      "\"],": 2982,
      "startswith": 2983,
      "anges": 2984,
      "exp": 2985,
      "datetime": 2986,
      "Ġenumerate": 2987,
      "labels": 2988,
      "Ġreceiv": 2989,
      "Ġthreshold": 2990,
      "Ġfulfill": 2991,
      "SV": 2992,
      "Ġarrays": 2993,
      "Ġboard": 2994,
      "display": 2995,
      "sg": 2996,
      "alph": 2997,
      "over": 2998,
      "Ġactions": 2999,
      "uming": 3000,
      "istory": 3001,
      "Cl": 3002,
      "mask": 3003,
      "fer": 3004,
      "Ġcombin": 3005,
      "****": 3006,
      "ended": 3007,
      "bl": 3008,
      "Ġdele": 3009,
      "ĠCall": 3010,
      "Py": 3011,
      "custom": 3012,
      "Ġinitialize": 3013,
      "Ġtesting": 3014,
      "Ġadditional": 3015,
      "alanc": 3016,
      "78": 3017,
      "Ġactiv": 3018,
      "apt": 3019,
      "scale": 3020,
      "Ġprob": 3021,
      "hed": 3022,
      "Ġprev": 3023,
      "ethod": 3024,
      "details": 3025,
      "Bo": 3026,
      "alid": 3027,
      "Ġdesired": 3028,
      "hes": 3029,
      "ĠPy": 3030,
      "Ġexp": 3031,
      "Ġrespons": 3032,
      "cision": 3033,
      "ither": 3034,
      "Ġbot": 3035,
      "Ġ::": 3036,
      "()`:": 3037,
      "Ġ40": 3038,
      "vide": 3039,
      "ĠIP": 3040,
      "Bu": 3041,
      "ek": 3042,
      "window": 3043,
      "tocol": 3044,
      "Ġencoding": 3045,
      "Ġim": 3046,
      "connection": 3047,
      "ered": 3048,
      "Ġidentifier": 3049,
      "Array": 3050,
      "Ġnumer": 3051,
      "Ġmonth": 3052,
      "HT": 3053,
      "Ġq": 3054,
      "acy": 3055,
      "Ġlowercase": 3056,
      "Ġsk": 3057,
      "Ġinvalid": 3058,
      "Ġvisited": 3059,
      "Ġroute": 3060,
      "cii": 3061,
      "Sum": 3062,
      "tokens": 3063,
      "Ġpermut": 3064,
      "Ġheaders": 3065,
      "folder": 3066,
      "AD": 3067,
      "Ġresource": 3068,
      "Ġbra": 3069,
      "Ġvector": 3070,
      "ynam": 3071,
      "Ġsymbol": 3072,
      "zer": 3073,
      "ĠUpdate": 3074,
      "Ġutil": 3075,
      "ctor": 3076,
      ">`": 3077,
      "Ġtokens": 3078,
      "ĠSQL": 3079,
      "commands": 3080,
      "Config": 3081,
      "feature": 3082,
      "yle": 3083,
      "Ġinfo": 3084,
      "cessed": 3085,
      "logger": 3086,
      "Id": 3087,
      "Ġtimes": 3088,
      "Ġcategor": 3089,
      "uster": 3090,
      "Ġ]": 3091,
      "tribute": 3092,
      "elsius": 3093,
      "ĠDriver": 3094,
      "second": 3095,
      "ĠConvert": 3096,
      "Ġequ": 3097,
      "ividual": 3098,
      "Ġsocket": 3099,
      "]])": 3100,
      "Ġclose": 3101,
      "ĠRemove": 3102,
      "ION": 3103,
      "ĠNode": 3104,
      "Ġ1000": 3105,
      "Ġwra": 3106,
      "processing": 3107,
      "pg": 3108,
      "Ġ</": 3109,
      "Ġefficient": 3110,
      "Ġcompare": 3111,
      "Ġnumpy": 3112,
      "Ġana": 3113,
      "ĠAssuming": 3114,
      "istics": 3115,
      "tric": 3116,
      "Ġsimilar": 3117,
      "job": 3118,
      "Ġweights": 3119,
      "Ġinstall": 3120,
      "Ġselected": 3121,
      "']\\": 3122,
      "home": 3123,
      "headers": 3124,
      "property": 3125,
      "Ġresponsible": 3126,
      "vis": 3127,
      "lem": 3128,
      "').": 3129,
      "ared": 3130,
      "pred": 3131,
      "raint": 3132,
      "Ġ``": 3133,
      "Ġbeing": 3134,
      "Ġsquare": 3135,
      "Ġ''.": 3136,
      "Ġautom": 3137,
      "Ġwas": 3138,
      "Ġsubprocess": 3139,
      "route": 3140,
      "Ġsome": 3141,
      "lobal": 3142,
      "Ġtemperature": 3143,
      "[\\\"": 3144,
      "til": 3145,
      "nal": 3146,
      "Ġ},": 3147,
      "models": 3148,
      "Ġlocation": 3149,
      "Ġdb": 3150,
      "24": 3151,
      "Ġrender": 3152,
      "Ġletters": 3153,
      "Ġprefix": 3154,
      "essage": 3155,
      "cont": 3156,
      "())\\": 3157,
      "NAME": 3158,
      "Form": 3159,
      "Ġmemory": 3160,
      "''": 3161,
      "Ġneural": 3162,
      "Ġ?": 3163,
      "web": 3164,
      "pu": 3165,
      "Ġless": 3166,
      "Ġnested": 3167,
      "weights": 3168,
      "ically": 3169,
      "stars": 3170,
      "Ġperson": 3171,
      "mt": 3172,
      "Ġpossible": 3173,
      "encode": 3174,
      "Ġbooks": 3175,
      "IO": 3176,
      "ah": 3177,
      "binary": 3178,
      "eb": 3179,
      "rows": 3180,
      "IL": 3181,
      "az": 3182,
      "ĠGet": 3183,
      "Code": 3184,
      "Ġplay": 3185,
      "Ġzip": 3186,
      "oint": 3187,
      "Ġentry": 3188,
      "Ġsetting": 3189,
      "weight": 3190,
      "sec": 3191,
      "Ġfetch": 3192,
      "fields": 3193,
      "sa": 3194,
      "report": 3195,
      "context": 3196,
      "lat": 3197,
      "Ġround": 3198,
      "ux": 3199,
      "seq": 3200,
      "tempt": 3201,
      "keep": 3202,
      "Ġmodels": 3203,
      "sql": 3204,
      "sor": 3205,
      "Ġendpoint": 3206,
      "losed": 3207,
      "Ġcollection": 3208,
      "Ġmerge": 3209,
      "limit": 3210,
      "sertion": 3211,
      "true": 3212,
      "}:": 3213,
      "ead": 3214,
      "abet": 3215,
      "ĠTuple": 3216,
      "palindrome": 3217,
      "CE": 3218,
      "bose": 3219,
      "Ġday": 3220,
      "ender": 3221,
      "Ġmatches": 3222,
      "Ġidentify": 3223,
      "Ġradius": 3224,
      "Ġworld": 3225,
      "handler": 3226,
      "empty": 3227,
      "Ġsw": 3228,
      "Ġneeds": 3229,
      "tml": 3230,
      "gy": 3231,
      "ike": 3232,
      "pace": 3233,
      "ystem": 3234,
      "gment": 3235,
      "Ġalways": 3236,
      ")):\\": 3237,
      "nels": 3238,
      "sign": 3239,
      "lest": 3240,
      "Ġchild": 3241,
      "Ġexecuted": 3242,
      "etri": 3243,
      "Hand": 3244,
      "domain": 3245,
      "stract": 3246,
      "timestamp": 3247,
      "Ġbox": 3248,
      "substring": 3249,
      "randint": 3250,
      "Set": 3251,
      "Info": 3252,
      "Ġsoup": 3253,
      "Ġanother": 3254,
      "ĠFile": 3255,
      "columns": 3256,
      "levant": 3257,
      "ours": 3258,
      ">>": 3259,
      "Ġschema": 3260,
      "Ġpivot": 3261,
      "ane": 3262,
      "flow": 3263,
      "ascii": 3264,
      "olume": 3265,
      "App": 3266,
      "Tuple": 3267,
      "Ġfunc": 3268,
      "Ġalong": 3269,
      "Ġdifference": 3270,
      "button": 3271,
      "mer": 3272,
      "Ġprodu": 3273,
      "45": 3274,
      "Ġdefine": 3275,
      "Ġquantity": 3276,
      "Ġspace": 3277,
      "Ġvisual": 3278,
      "ĠAdded": 3279,
      "man": 3280,
      "Ġscen": 3281,
      "bit": 3282,
      "nn": 3283,
      "Ġpartial": 3284,
      "Com": 3285,
      "step": 3286,
      "space": 3287,
      "Ġdraw": 3288,
      "ĠReplace": 3289,
      "document": 3290,
      "ression": 3291,
      "ĠUnion": 3292,
      "Ġest": 3293,
      "Ġsimulate": 3294,
      "Ġarg": 3295,
      "Ġsolve": 3296,
      ")-": 3297,
      "Ġexceptions": 3298,
      "cho": 3299,
      "Ġadj": 3300,
      "izing": 3301,
      "doc": 3302,
      "hell": 3303,
      "Ġleast": 3304,
      "],\\": 3305,
      "tasks": 3306,
      "mallest": 3307,
      "Ġproperly": 3308,
      "RI": 3309,
      "YY": 3310,
      "digits": 3311,
      "Ġcent": 3312,
      "MP": 3313,
      "anana": 3314,
      "vas": 3315,
      "Ġasync": 3316,
      "Ġmanages": 3317,
      "mbed": 3318,
      "cc": 3319,
      "ever": 3320,
      "Ġawait": 3321,
      "Ġang": 3322,
      "Ġhtml": 3323,
      "Ġdeposit": 3324,
      "Ġinsert": 3325,
      "ĠCSV": 3326,
      "ĠComp": 3327,
      "issors": 3328,
      "indices": 3329,
      "tributes": 3330,
      "Ġlong": 3331,
      "ds": 3332,
      "Ġbest": 3333,
      "Ġwell": 3334,
      "13": 3335,
      "Ġrot": 3336,
      "Ġoption": 3337,
      "utf": 3338,
      "Value": 3339,
      "ourse": 3340,
      "Ġcallback": 3341,
      "layers": 3342,
      "Ġremaining": 3343,
      "At": 3344,
      "alled": 3345,
      "andas": 3346,
      "images": 3347,
      "now": 3348,
      "90": 3349,
      "pair": 3350,
      "ration": 3351,
      "auth": 3352,
      "Ġsentiment": 3353,
      "Ġshow": 3354,
      "\"),": 3355,
      "Ġrelated": 3356,
      "Ġdetect": 3357,
      "stream": 3358,
      "Number": 3359,
      "fg": 3360,
      "Ġrelevant": 3361,
      "Ġfix": 3362,
      "Ġ[\\\"": 3363,
      "card": 3364,
      "Ġ&": 3365,
      "child": 3366,
      "ĠLicense": 3367,
      "pose": 3368,
      "urls": 3369,
      "gine": 3370,
      "zip": 3371,
      "Ġeither": 3372,
      "ĠCode": 3373,
      "eded": 3374,
      "ĠType": 3375,
      "initial": 3376,
      "factor": 3377,
      "active": 3378,
      "alanced": 3379,
      "Ġnegative": 3380,
      "rm": 3381,
      "compl": 3382,
      "unctu": 3383,
      "lar": 3384,
      "Ġdetermin": 3385,
      "Ġprevious": 3386,
      "gan": 3387,
      "ird": 3388,
      "ync": 3389,
      "}\\\")\\": 3390,
      "sv": 3391,
      "Ġwould": 3392,
      "dient": 3393,
      "OT": 3394,
      "Ġyield": 3395,
      "centage": 3396,
      "ĠPl": 3397,
      "Parser": 3398,
      "ru": 3399,
      "oken": 3400,
      "ew": 3401,
      "ĠĠĠĠĠĠĠĠĠ": 3402,
      "Log": 3403,
      "category": 3404,
      "ost": 3405,
      "reatest": 3406,
      "CK": 3407,
      "tuple": 3408,
      "Ġmedian": 3409,
      "Ġcomb": 3410,
      "Base": 3411,
      "ensity": 3412,
      "ankAccount": 3413,
      "ik": 3414,
      "Ġbel": 3415,
      "correct": 3416,
      "setup": 3417,
      "Ġselect": 3418,
      "eval": 3419,
      "Ġnn": 3420,
      "ĠRetri": 3421,
      "reverse": 3422,
      "Ġdigits": 3423,
      "plicate": 3424,
      "Ġcomputer": 3425,
      "samples": 3426,
      "Ġsa": 3427,
      "atten": 3428,
      "Ġlinear": 3429,
      "icles": 3430,
      "can": 3431,
      "Ġfill": 3432,
      "redential": 3433,
      "ĠURLs": 3434,
      "Ġtf": 3435,
      "={": 3436,
      "ength": 3437,
      "Ġhandler": 3438,
      "download": 3439,
      "Ġtransaction": 3440,
      "spec": 3441,
      "ites": 3442,
      "Ġmeasure": 3443,
      "decode": 3444,
      "ĠNum": 3445,
      "ority": 3446,
      "stop": 3447,
      "Ġmanip": 3448,
      "Class": 3449,
      "Ġhtt": 3450,
      "poch": 3451,
      "ĠIterate": 3452,
      "heses": 3453,
      "Dataset": 3454,
      "Ġforward": 3455,
      "Ġran": 3456,
      "Ġaccur": 3457,
      "\\\")": 3458,
      "nprint": 3459,
      "Ġrect": 3460,
      "/{": 3461,
      "Found": 3462,
      "uid": 3463,
      "Ġsl": 3464,
      "longest": 3465,
      "\"])": 3466,
      "Ġensuring": 3467,
      "Ġdefinit": 3468,
      "ĠHand": 3469,
      "trics": 3470,
      "ĠNumPy": 3471,
      "project": 3472,
      "exists": 3473,
      "transform": 3474,
      "inf": 3475,
      "abled": 3476,
      "DI": 3477,
      "Ġrobot": 3478,
      "parameters": 3479,
      "unctuation": 3480,
      "Ġ\"/": 3481,
      "jpg": 3482,
      "456": 3483,
      "axis": 3484,
      "PU": 3485,
      "oe": 3486,
      "Ġplatform": 3487,
      "predict": 3488,
      "Ġ13": 3489,
      "Ġparams": 3490,
      "itch": 3491,
      "msg": 3492,
      "Mod": 3493,
      "unit": 3494,
      "dump": 3495,
      "way": 3496,
      "Ġinher": 3497,
      "ENT": 3498,
      "ahren": 3499,
      "Ġzero": 3500,
      "256": 3501,
      "Ġduration": 3502,
      "pri": 3503,
      "iguous": 3504,
      "Ġrunning": 3505,
      "Ġtk": 3506,
      "periment": 3507,
      "\">": 3508,
      "coder": 3509,
      "Ġimplemented": 3510,
      "database": 3511,
      "sk": 3512,
      "Ġdigit": 3513,
      "Ġinterval": 3514,
      "diff": 3515,
      "Ġpix": 3516,
      "heit": 3517,
      "cial": 3518,
      "Ġtransl": 3519,
      "hidden": 3520,
      "Ġdesign": 3521,
      "del": 3522,
      "Ġhidden": 3523,
      "ground": 3524,
      "Ġtrue": 3525,
      "apply": 3526,
      "roups": 3527,
      "Sort": 3528,
      "Ġneighb": 3529,
      "packages": 3530,
      "dev": 3531,
      "convert": 3532,
      "Ġcontents": 3533,
      "energy": 3534,
      "Ġside": 3535,
      "Ġkwargs": 3536,
      "18": 3537,
      "cast": 3538,
      "Ġgreatest": 3539,
      "change": 3540,
      "ahrenheit": 3541,
      "Ġcls": 3542,
      "Find": 3543,
      "Ġanagrams": 3544,
      "ls": 3545,
      "ĠRes": 3546,
      "igrations": 3547,
      "Ġwriting": 3548,
      "Ġsquares": 3549,
      "ndarray": 3550,
      "Task": 3551,
      "xml": 3552,
      "Ġconcaten": 3553,
      "Text": 3554,
      "ĠĠĠĠĠĠĠĠĠĠĠĠĠĠĠĠĠĠĠĠĠĠĠĠĠĠĠ": 3555,
      "Ġbasic": 3556,
      "Ġpredictions": 3557,
      "Path": 3558,
      "Table": 3559,
      "assed": 3560,
      "efficient": 3561,
      "ithub": 3562,
      "sqrt": 3563,
      "Ġonce": 3564,
      "imer": 3565,
      "Ġheader": 3566,
      "Ġrepl": 3567,
      "ĠCh": 3568,
      "ae": 3569,
      "ĠImplementation": 3570,
      "ately": 3571,
      "store": 3572,
      "Ġchunk": 3573,
      "debug": 3574,
      "compon": 3575,
      "cu": 3576,
      "messages": 3577,
      "Ġprogress": 3578,
      "service": 3579,
      "loop": 3580,
      "Ġedge": 3581,
      "ula": 3582,
      "ĠPar": 3583,
      "UN": 3584,
      "ĠDis": 3585,
      "Ġaccompl": 3586,
      "Ġindividual": 3587,
      "Ġaccomplis": 3588,
      "letters": 3589,
      "parts": 3590,
      "Ġupdates": 3591,
      "ĠDefine": 3592,
      "URL": 3593,
      "Ġsched": 3594,
      "make": 3595,
      "callback": 3596,
      "install": 3597,
      "Custom": 3598,
      "Ġobtained": 3599,
      "agent": 3600,
      "ĠSimul": 3601,
      "patterns": 3602,
      "Ġcursor": 3603,
      "0000": 3604,
      "iod": 3605,
      "operations": 3606,
      "creen": 3607,
      "acity": 3608,
      "Ġloc": 3609,
      "ĠGenerate": 3610,
      "Ġseconds": 3611,
      "ulate": 3612,
      "td": 3613,
      "Ġprogramming": 3614,
      "prefix": 3615,
      "Ġdimensions": 3616,
      "Image": 3617,
      "insert": 3618,
      "student": 3619,
      "entry": 3620,
      "classes": 3621,
      "aw": 3622,
      "Ġanalysis": 3623,
      "Element": 3624,
      "AG": 3625,
      "MM": 3626,
      "Ġ')": 3627,
      "Ġencrypted": 3628,
      "================================": 3629,
      "Ġdown": 3630,
      "Ġpower": 3631,
      "prob": 3632,
      "ĠFunction": 3633,
      "tc": 3634,
      "lists": 3635,
      "Check": 3636,
      "ĠStr": 3637,
      "Ġlinked": 3638,
      "ĠInput": 3639,
      "nodes": 3640,
      "Ġaxis": 3641,
      "Ġsubarray": 3642,
      ":`": 3643,
      "ries": 3644,
      "Ġspecial": 3645,
      "Ġperformance": 3646,
      "chain": 3647,
      "cker": 3648,
      "Ġappend": 3649,
      "Ġcreation": 3650,
      "Ġretrieves": 3651,
      "Ġdirection": 3652,
      "Ġmodify": 3653,
      "âĶĢ": 3654,
      "Ġstock": 3655,
      "40": 3656,
      "Ġattempt": 3657,
      "Ġsignal": 3658,
      "nclass": 3659,
      "Ġpatterns": 3660,
      "access": 3661,
      "200": 3662,
      "wh": 3663,
      "Ġpipeline": 3664,
      "Ġencoded": 3665,
      "Ġgenerator": 3666,
      "Ġpayload": 3667,
      "most": 3668,
      "ĠRead": 3669,
      "chars": 3670,
      "operation": 3671,
      "ather": 3672,
      "Ġmultiply": 3673,
      "ubble": 3674,
      "Ġmerged": 3675,
      "Ġpackages": 3676,
      "SC": 3677,
      "inner": 3678,
      "grade": 3679,
      "ube": 3680,
      "Returns": 3681,
      "Ġmanaging": 3682,
      "bound": 3683,
      "(-": 3684,
      "bject": 3685,
      "Alice": 3686,
      "ĠSe": 3687,
      "aced": 3688,
      "Char": 3689,
      "redentials": 3690,
      "fs": 3691,
      "atio": 3692,
      "Ġdays": 3693,
      "digit": 3694,
      "Ġchanges": 3695,
      "Ġappear": 3696,
      "sage": 3697,
      "Ġembed": 3698,
      "tem": 3699,
      "letter": 3700,
      "}.": 3701,
      "Message": 3702,
      "Ġbody": 3703,
      "Ġkeep": 3704,
      "UI": 3705,
      "Ġchange": 3706,
      "Ġorgan": 3707,
      "Ġcontinue": 3708,
      "fact": 3709,
      "UL": 3710,
      "Ġoutputs": 3711,
      "Ġaudio": 3712,
      "gex": 3713,
      "Ġ',": 3714,
      "Ġdecimal": 3715,
      "ipher": 3716,
      "ferences": 3717,
      "ugin": 3718,
      "TE": 3719,
      "75": 3720,
      "Ġpur": 3721,
      "nOutput": 3722,
      "urations": 3723,
      "caling": 3724,
      "swer": 3725,
      "Processor": 3726,
      "Ġbrackets": 3727,
      "Ġscenari": 3728,
      "leep": 3729,
      "Ġcard": 3730,
      "resses": 3731,
      "Ġspaces": 3732,
      "atest": 3733,
      "Ġpd": 3734,
      "Ġseparated": 3735,
      "::": 3736,
      "defined": 3737,
      "Ġ\".": 3738,
      "processed": 3739,
      "Ġrule": 3740,
      "register": 3741,
      "23": 3742,
      "US": 3743,
      "Ġsimpl": 3744,
      "Ġ}\\": 3745,
      "olute": 3746,
      "If": 3747,
      "Ġfull": 3748,
      "Ġconn": 3749,
      "=[": 3750,
      "Ġregular": 3751,
      "Ġignore": 3752,
      "cursive": 3753,
      "Ġinitialized": 3754,
      "nown": 3755,
      "Ġapi": 3756,
      "rency": 3757,
      "dest": 3758,
      "Handler": 3759,
      "fibs": 3760,
      "chunk": 3761,
      "Ġadds": 3762,
      "Ġdestination": 3763,
      "Ġcomponent": 3764,
      "fibonacci": 3765,
      "(['": 3766,
      "city": 3767,
      "Ġreturned": 3768,
      "Ġ`[": 3769,
      "Ġkernel": 3770,
      "NotFound": 3771,
      "Ġreads": 3772,
      "]],": 3773,
      "Ġanalyze": 3774,
      "Ġpredicted": 3775,
      "oud": 3776,
      "Ġphone": 3777,
      "Ġimg": 3778,
      "Ġstorage": 3779,
      "ases": 3780,
      "Th": 3781,
      "loaded": 3782,
      "Ġannot": 3783,
      "Line": 3784,
      "odd": 3785,
      "plication": 3786,
      "ql": 3787,
      "Ġroom": 3788,
      "ud": 3789,
      "aris": 3790,
      "icy": 3791,
      "handle": 3792,
      "Ġfail": 3793,
      "Ġascending": 3794,
      "Ġimported": 3795,
      "ocity": 3796,
      "Ġextra": 3797,
      "Ġvolume": 3798,
      "Ġoptimizer": 3799,
      "ĠRetrieve": 3800,
      "king": 3801,
      "Ġvert": 3802,
      "adding": 3803,
      "Ġ'-": 3804,
      "Ġge": 3805,
      "Ġregister": 3806,
      "characters": 3807,
      "ĠName": 3808,
      "Client": 3809,
      "mber": 3810,
      "PE": 3811,
      "based": 3812,
      "-%": 3813,
      "Ġbank": 3814,
      "Ġtransactions": 3815,
      "paper": 3816,
      "2022": 3817,
      "DO": 3818,
      "Construct": 3819,
      "Ġinstances": 3820,
      "]+": 3821,
      "]]:": 3822,
      "Ġdatasets": 3823,
      "arm": 3824,
      "mapping": 3825,
      "dictionary": 3826,
      "Ġagent": 3827,
      "tensor": 3828,
      "steps": 3829,
      "ats": 3830,
      "Ġ`--": 3831,
      "Ġoperator": 3832,
      "]`,": 3833,
      "dle": 3834,
      "ensitive": 3835,
      "struction": 3836,
      "DF": 3837,
      "Ġallowed": 3838,
      "Ġfact": 3839,
      "Ġ[(": 3840,
      "ĠImage": 3841,
      "ranch": 3842,
      "uffle": 3843,
      "ocab": 3844,
      "cryption": 3845,
      "Ġcho": 3846,
      "Ġcustomer": 3847,
      "Ġsimulation": 3848,
      "tom": 3849,
      "sole": 3850,
      "Ġconsists": 3851,
      "nsu": 3852,
      "ifiers": 3853,
      "ategy": 3854,
      "af": 3855,
      "Ġ32": 3856,
      "\"):": 3857,
      "Ġauthentication": 3858,
      "release": 3859,
      "().__": 3860,
      "cel": 3861,
      "ĠCount": 3862,
      "Ġfont": 3863,
      "uss": 3864,
      "tags": 3865,
      "volume": 3866,
      "Ġuppercase": 3867,
      "HE": 3868,
      "]):": 3869,
      ")))": 3870,
      "Python": 3871,
      "hen": 3872,
      "Ġ>>>": 3873,
      "(\\": 3874,
      "Ġtyp": 3875,
      "Ġbar": 3876,
      "ĠSort": 3877,
      "occur": 3878,
      "banana": 3879,
      "snippet": 3880,
      "eries": 3881,
      "Ġclassify": 3882,
      "exit": 3883,
      "Ġ$": 3884,
      "alog": 3885,
      "ĠEnsure": 3886,
      "ĠUser": 3887,
      "ĠPlace": 3888,
      "mall": 3889,
      "ĠGit": 3890,
      "17": 3891,
      "comm": 3892,
      "fra": 3893,
      "quencies": 3894,
      "Ġenc": 3895,
      "contain": 3896,
      "header": 3897,
      "sys": 3898,
      "Ġsimplified": 3899,
      "Ġcomm": 3900,
      "optim": 3901,
      "inventory": 3902,
      "Ġinventory": 3903,
      "integer": 3904,
      "Ġrespectively": 3905,
      "'t": 3906,
      "Equal": 3907,
      "Count": 3908,
      "ral": 3909,
      "ĠNo": 3910,
      "Ġbyte": 3911,
      "Ġ60": 3912,
      "jor": 3913,
      "Ġalphabet": 3914,
      "Ġsamples": 3915,
      "utils": 3916,
      "thing": 3917,
      "dimension": 3918,
      "embed": 3919,
      "Ġmsg": 3920,
      "eds": 3921,
      "ogle": 3922,
      "Ġmiddle": 3923,
      "Ġdivisor": 3924,
      "Ġlat": 3925,
      "quantity": 3926,
      "Ġ..": 3927,
      "room": 3928,
      "Ġsubtract": 3929,
      "Ġverify": 3930,
      "ĠOpen": 3931,
      "ĠIDs": 3932,
      "video": 3933,
      "lear": 3934,
      "analy": 3935,
      "resource": 3936,
      "Ġcommit": 3937,
      "unic": 3938,
      "ĠHandle": 3939,
      "Ġsummary": 3940,
      "Ġconstraint": 3941,
      "roller": 3942,
      "Ġremote": 3943,
      "ride": 3944,
      "ĠPlaceholder": 3945,
      "Sh": 3946,
      "abs": 3947,
      "En": 3948,
      "Ġallows": 3949,
      "src": 3950,
      "Ġstars": 3951,
      "lied": 3952,
      "Ġpassed": 3953,
      "RA": 3954,
      "Ġraw": 3955,
      "CON": 3956,
      "\\\"]\\": 3957,
      "Ġrecords": 3958,
      "60": 3959,
      "nFunction": 3960,
      "ilities": 3961,
      "ols": 3962,
      "Ġ[\\": 3963,
      "Ġevaluate": 3964,
      "Ġ255": 3965,
      "DB": 3966,
      "vector": 3967,
      "Ġprompt": 3968,
      "Ġconversion": 3969,
      "Ġexc": 3970,
      "Ġtimeout": 3971,
      "two": 3972,
      "att": 3973,
      "Ġ14": 3974,
      "Ġbrow": 3975,
      "Ġparsing": 3976,
      "Search": 3977,
      "'},": 3978,
      "Ġprices": 3979,
      "Ġactivation": 3980,
      "ince": 3981,
      "chron": 3982,
      "commit": 3983,
      "threshold": 3984,
      "pk": 3985,
      "\\\".\\": 3986,
      "secut": 3987,
      "cher": 3988,
      "ĠAl": 3989,
      "Ġreal": 3990,
      "Ġchannel": 3991,
      "TO": 3992,
      ".')": 3993,
      "Ġrev": 3994,
      "plan": 3995,
      "multi": 3996,
      "tk": 3997,
      "cogn": 3998,
      "ordinate": 3999,
      "imiter": 4000,
      "Ġspecify": 4001,
      "github": 4002,
      "Ġscra": 4003,
      "NotFoundError": 4004,
      "Ġpermutations": 4005,
      "role": 4006,
      "uess": 4007,
      "Ġlayers": 4008,
      "FA": 4009,
      "Qu": 4010,
      "Ġfollowed": 4011,
      "ster": 4012,
      "Ġbalanced": 4013,
      "ident": 4014,
      "very": 4015,
      "duration": 4016,
      "resh": 4017,
      "=(": 4018,
      "ced": 4019,
      "}')": 4020,
      "Ġlike": 4021,
      "Ġbelow": 4022,
      "secret": 4023,
      "({": 4024,
      "days": 4025,
      "alpha": 4026,
      "Ġdefinition": 4027,
      "ĠArgs": 4028,
      "alle": 4029,
      "Ġgcd": 4030,
      "Ġcalculation": 4031,
      "rot": 4032,
      "Trans": 4033,
      "System": 4034,
      "ining": 4035,
      "iful": 4036,
      "rs": 4037,
      "torch": 4038,
      "ĠCustom": 4039,
      "Ġattr": 4040,
      "character": 4041,
      "atches": 4042,
      "neighb": 4043,
      "modules": 4044,
      "Ġreceived": 4045,
      "secutive": 4046,
      "login": 4047,
      "Ġdiff": 4048,
      "Ġresulting": 4049,
      "buffer": 4050,
      "Length": 4051,
      "Ġcity": 4052,
      "expression": 4053,
      "autiful": 4054,
      "Ġdistribution": 4055,
      "nap": 4056,
      "norm": 4057,
      "phone": 4058,
      "Ġchecking": 4059,
      "scri": 4060,
      "arison": 4061,
      "iou": 4062,
      "ives": 4063,
      "ffect": 4064,
      "Build": 4065,
      "Ġ18": 4066,
      "Ġsmallest": 4067,
      "nections": 4068,
      "ĠAssume": 4069,
      "Ġfit": 4070,
      "Ġrai": 4071,
      "Ġ\\\",": 4072,
      "Ġden": 4073,
      "ĠMethod": 4074,
      "Ġdivisible": 4075,
      "Ġsection": 4076,
      "ĠMo": 4077,
      "non": 4078,
      "Ġow": 4079,
      "Ġneeded": 4080,
      "Ġ\\\\": 4081,
      "Ġdemonstrates": 4082,
      "dependencies": 4083,
      "Calculate": 4084,
      "const": 4085,
      "rence": 4086,
      "rank": 4087,
      "patch": 4088,
      "Ġformula": 4089,
      "ords": 4090,
      "ĠHow": 4091,
      "Ġsat": 4092,
      "ĠBe": 4093,
      "Ġ80": 4094,
      "Ġgrade": 4095,
      "ocker": 4096,
      "Of": 4097,
      "uture": 4098,
      "UR": 4099,
      "utes": 4100,
      "Ġretrieved": 4101,
      "ier": 4102,
      "Ġmenu": 4103,
      "amer": 4104,
      "Ġseparate": 4105,
      "Ġpermissions": 4106,
      "less": 4107,
      "schema": 4108,
      "annot": 4109,
      "ĠFind": 4110,
      "Ġcipher": 4111,
      "Ġdecoded": 4112,
      "ussian": 4113,
      "({'": 4114,
      "Ġcounter": 4115,
      "avg": 4116,
      "Ġiterate": 4117,
      "Ġglobal": 4118,
      "largest": 4119,
      "font": 4120,
      "full": 4121,
      "memory": 4122,
      "force": 4123,
      "inct": 4124,
      "Ġ17": 4125,
      "Ġdepth": 4126,
      "Ġefficiently": 4127,
      ")\"\"\"": 4128,
      "orrow": 4129,
      "Ġimplements": 4130,
      "vate": 4131,
      "Ġpandas": 4132,
      "cio": 4133,
      "Ġbuffer": 4134,
      "Ġuntil": 4135,
      "Ġrole": 4136,
      "FF": 4137,
      "Iter": 4138,
      "alt": 4139,
      "So": 4140,
      "Ġcapital": 4141,
      "generator": 4142,
      "apping": 4143,
      "Where": 4144,
      "ily": 4145,
      "month": 4146,
      "users": 4147,
      "aml": 4148,
      "Ġregion": 4149,
      "Ġoccurred": 4150,
      "Ġentity": 4151,
      "CA": 4152,
      "`.\"\"\"": 4153,
      "Ġord": 4154,
      "Ġspeed": 4155,
      "temperature": 4156,
      "Ġdirectories": 4157,
      "21": 4158,
      "na": 4159,
      "Ad": 4160,
      "gin": 4161,
      "zz": 4162,
      "Ġimports": 4163,
      "Ġavg": 4164,
      "DAT": 4165,
      "ention": 4166,
      "uter": 4167,
      "bool": 4168,
      "tail": 4169,
      "iases": 4170,
      "Ġnumerical": 4171,
      "allel": 4172,
      "ason": 4173,
      "Ġsalary": 4174,
      "Ġcomments": 4175,
      "TH": 4176,
      "static": 4177,
      "Ġwebsite": 4178,
      "Ġcopyright": 4179,
      "=['": 4180,
      "ĠProcess": 4181,
      "oun": 4182,
      "ĠSpe": 4183,
      "numpy": 4184,
      "ags": 4185,
      "history": 4186,
      "eta": 4187,
      "ĠXML": 4188,
      "Ġangle": 4189,
      "has": 4190,
      "assertEqual": 4191,
      "EX": 4192,
      "FILE": 4193,
      "Ġinit": 4194,
      "permission": 4195,
      "normal": 4196,
      "world": 4197,
      "Valid": 4198,
      "car": 4199,
      "dot": 4200,
      "acc": 4201,
      "Ġincrement": 4202,
      "ffix": 4203,
      "gon": 4204,
      "terms": 4205,
      "),\\": 4206,
      "available": 4207,
      "Ġcontiguous": 4208,
      "Args": 4209,
      "Ġagain": 4210,
      "Ġemployee": 4211,
      "Ġtests": 4212,
      "asing": 4213,
      "Ġcombinations": 4214,
      "azy": 4215,
      "ech": 4216,
      "Ġbubble": 4217,
      "Ġtransformation": 4218,
      "_{": 4219,
      "Ġquant": 4220,
      "Ġdoc": 4221,
      "Ġmovie": 4222,
      "ĠString": 4223,
      "Event": 4224,
      "prices": 4225,
      "transactions": 4226,
      "Ġremoved": 4227,
      "Ġjsonify": 4228,
      "dete": 4229,
      "ayment": 4230,
      "fies": 4231,
      "AC": 4232,
      "sig": 4233,
      "ĠDoe": 4234,
      "iration": 4235,
      "Ġapplied": 4236,
      "withdraw": 4237,
      "Ġfailed": 4238,
      "contact": 4239,
      "Ġ90": 4240,
      "Ġadmin": 4241,
      "scissors": 4242,
      "Ġaccomplishes": 4243,
      ":%": 4244,
      "greg": 4245,
      "oring": 4246,
      "imple": 4247,
      "ĠĠĠĠĠĠĠĠĠĠĠĠĠĠĠĠĠĠĠĠĠĠĠĠ": 4248,
      "drop": 4249,
      "Ġoptimization": 4250,
      "Ġrespective": 4251,
      "Case": 4252,
      "GB": 4253,
      "Ġdistances": 4254,
      ")[": 4255,
      "ATH": 4256,
      "Ġstatistics": 4257,
      "itions": 4258,
      "Ġperformed": 4259,
      "mm": 4260,
      "sleep": 4261,
      "Ġ19": 4262,
      "anged": 4263,
      "network": 4264,
      "only": 4265,
      "ĠIN": 4266,
      "ibraries": 4267,
      "channel": 4268,
      "ynamic": 4269,
      "TI": 4270,
      "alf": 4271,
      "tein": 4272,
      "!\"": 4273,
      "Item": 4274,
      "ĠHowever": 4275,
      "hip": 4276,
      "nInput": 4277,
      "ĠDocker": 4278,
      "ĠRE": 4279,
      "Run": 4280,
      "repr": 4281,
      "lick": 4282,
      "Ġstores": 4283,
      "Ġoptimize": 4284,
      "Ġsorting": 4285,
      "cv": 4286,
      "Ġduplicate": 4287,
      ".\\\")\\": 4288,
      "SH": 4289,
      "Ġexit": 4290,
      "Ġwrapper": 4291,
      "Hub": 4292,
      "]),": 4293,
      "findall": 4294,
      "aussian": 4295,
      "utton": 4296,
      "anagram": 4297,
      "aeiou": 4298,
      "Object": 4299,
      "ĠCol": 4300,
      "cular": 4301,
      "Ġcategories": 4302,
      "55": 4303,
      "Soup": 4304,
      "ĠĠĠĠĠĠčĊ": 4305,
      "Ġwarning": 4306,
      "Ġroll": 4307,
      "amera": 4308,
      "air": 4309,
      "ts": 4310,
      "zero": 4311,
      "Ġfixed": 4312,
      "negative": 4313,
      "quences": 4314,
      "Ġ{\\\"": 4315,
      "Ġconsider": 4316,
      "MS": 4317,
      "OS": 4318,
      "Ġhex": 4319,
      "Ġinitialization": 4320,
      "Ġcluster": 4321,
      "Ġstatement": 4322,
      "Any": 4323,
      "Ġevaluation": 4324,
      "Ġshell": 4325,
      "ĠNumber": 4326,
      "ĠLoad": 4327,
      "Ġpositions": 4328,
      "Ġmonitor": 4329,
      "Ġ```": 4330,
      "Ġfolder": 4331,
      "Tensor": 4332,
      "Ġprofile": 4333,
      "ĠBase": 4334,
      "Ġflatten": 4335,
      "Bob": 4336,
      "ceive": 4337,
      "Reg": 4338,
      "ote": 4339,
      "Ġgray": 4340,
      "Ġremoving": 4341,
      "Ġupload": 4342,
      "Response": 4343,
      "arrow": 4344,
      "cope": 4345,
      "bn": 4346,
      "atural": 4347,
      "grad": 4348,
      "Ġinner": 4349,
      "apsed": 4350,
      "Ġ`(": 4351,
      "acing": 4352,
      "long": 4353,
      "ygon": 4354,
      "thread": 4355,
      "abilities": 4356,
      "tep": 4357,
      "like": 4358,
      "profit": 4359,
      "ectors": 4360,
      "ĠUsage": 4361,
      "Ġmatching": 4362,
      "opt": 4363,
      "medi": 4364,
      "Ġdiscount": 4365,
      "autifulSoup": 4366,
      "Ġmention": 4367,
      "Ġmade": 4368,
      "conv": 4369,
      "Ġabsolute": 4370,
      "omial": 4371,
      "argv": 4372,
      "Ġshift": 4373,
      "ilt": 4374,
      "curity": 4375,
      "positories": 4376,
      "Ġproducts": 4377,
      "hicle": 4378,
      "salary": 4379,
      "Ġcart": 4380,
      "Ġetc": 4381,
      "Read": 4382,
      "Ġcannot": 4383,
      "Stream": 4384,
      "Ġtyping": 4385,
      "gments": 4386,
      "Ġmock": 4387,
      "ĠRun": 4388,
      "old": 4389,
      "ĠTo": 4390,
      "Ġrank": 4391,
      "Ġlambda": 4392,
      "Ġsimilarity": 4393,
      "canvas": 4394,
      "Ġcalls": 4395,
      "training": 4396,
      "Ġevents": 4397,
      "AE": 4398,
      "Use": 4399,
      "Ġconsist": 4400,
      "Ġtriangle": 4401,
      "original": 4402,
      "ressed": 4403,
      "heap": 4404,
      "Ġold": 4405,
      "wra": 4406,
      "Ġcodes": 4407,
      "transaction": 4408,
      "Ġaccordingly": 4409,
      "categor": 4410,
      "__':\\": 4411,
      "rock": 4412,
      "Ġdemonstrate": 4413,
      "Ġsaved": 4414,
      "parentheses": 4415,
      "Or": 4416,
      "Ġop": 4417,
      "Ġcontainer": 4418,
      "opy": 4419,
      "zeros": 4420,
      "Ġpixel": 4421,
      "GET": 4422,
      "losing": 4423,
      "ism": 4424,
      "tore": 4425,
      "Ġcreates": 4426,
      "Ġfinds": 4427,
      "'{": 4428,
      "`)": 4429,
      "Ġreset": 4430,
      "iling": 4431,
      "Ġinstalled": 4432,
      "Ġdetected": 4433,
      "ish": 4434,
      "Ġpercentage": 4435,
      "Ġcomparison": 4436,
      "ĠBo": 4437,
      "Ġanalyz": 4438,
      "ifact": 4439,
      "arest": 4440,
      "structions": 4441,
      "Total": 4442,
      "Ġcar": 4443,
      "Ġaddresses": 4444,
      "Ġlinks": 4445,
      "umeric": 4446,
      "Ġlev": 4447,
      "track": 4448,
      "payload": 4449,
      "Ġfast": 4450,
      "Ġunits": 4451,
      "ĠDisplay": 4452,
      "istic": 4453,
      "depth": 4454,
      "Ġprobability": 4455,
      "ones": 4456,
      "Ġstd": 4457,
      "Ġoffset": 4458,
      "idered": 4459,
      "Ġconsidered": 4460,
      "igin": 4461,
      "occurrences": 4462,
      ":.": 4463,
      "andid": 4464,
      "ĠKey": 4465,
      "Call": 4466,
      "ai": 4467,
      "directories": 4468,
      "ouse": 4469,
      "NN": 4470,
      "migration": 4471,
      "Ġprimes": 4472,
      "By": 4473,
      "Ġfour": 4474,
      "ĠSplit": 4475,
      "offset": 4476,
      "circ": 4477,
      "Ġprediction": 4478,
      "dt": 4479,
      "pare": 4480,
      "Ġscale": 4481,
      "Ġincluded": 4482,
      "Ġupdating": 4483,
      "ĠBeautifulSoup": 4484,
      ")+": 4485,
      "PA": 4486,
      "math": 4487,
      "Ġsol": 4488,
      "[:,": 4489,
      "audio": 4490,
      "select": 4491,
      "configure": 4492,
      "extend": 4493,
      "################": 4494,
      "profile": 4495,
      "iterable": 4496,
      "Ġgradient": 4497,
      "Ġmetrics": 4498,
      "ĠAt": 4499,
      "Ġresources": 4500,
      "coming": 4501,
      "accounts": 4502,
      "Ġassertion": 4503,
      "complete": 4504,
      "\\\".": 4505,
      "verter": 4506,
      "inder": 4507,
      "'].": 4508,
      "isode": 4509,
      "rule": 4510,
      "Ġcapt": 4511,
      "ouble": 4512,
      "Ġmechan": 4513,
      "Ġapplying": 4514,
      "requires": 4515,
      "Ġmeet": 4516,
      "okie": 4517,
      "ameter": 4518,
      "SO": 4519,
      "yper": 4520,
      "Ġ=>": 4521,
      "activ": 4522,
      "square": 4523,
      "Ġdrop": 4524,
      "Ġprov": 4525,
      "question": 4526,
      "fetch": 4527,
      "gramming": 4528,
      "Execut": 4529,
      "Ġflo": 4530,
      "Ġcoefficient": 4531,
      "Ġcontact": 4532,
      "Cont": 4533,
      "squares": 4534,
      "Ġinteracts": 4535,
      "css": 4536,
      "Ġstates": 4537,
      "Max": 4538,
      "tx": 4539,
      "hex": 4540,
      "Ġloaded": 4541,
      "Index": 4542,
      "shot": 4543,
      "Ġsql": 4544,
      "stand": 4545,
      "Ġref": 4546,
      "Ġchat": 4547,
      "Ġgeneration": 4548,
      "*(": 4549,
      "Ġsatis": 4550,
      "deposit": 4551,
      "Ġnth": 4552,
      "Ġevery": 4553,
      "ntax": 4554,
      "Ġsecret": 4555,
      "cursor": 4556,
      "confi": 4557,
      "ABLE": 4558,
      "ĠApply": 4559,
      "Ġproduce": 4560,
      "Te": 4561,
      "attributes": 4562,
      "1000": 4563,
      "Def": 4564,
      "BU": 4565,
      "Ġlook": 4566,
      "DataFrame": 4567,
      "Ġway": 4568,
      "Ġreading": 4569,
      "New": 4570,
      "loads": 4571,
      "Ġverbose": 4572,
      "POST": 4573,
      "ograph": 4574,
      "Ġiss": 4575,
      "ickle": 4576,
      "Ġarticle": 4577,
      "--------------------------------": 4578,
      "mtp": 4579,
      "Ġ24": 4580,
      "Ġclosest": 4581,
      "85": 4582,
      "oid": 4583,
      "Ġredu": 4584,
      "Ġrepe": 4585,
      "ĠSub": 4586,
      "Ġjo": 4587,
      "Failed": 4588,
      "util": 4589,
      "Ġcircle": 4590,
      "Generator": 4591,
      "Ġcredentials": 4592,
      "Ġpadding": 4593,
      "ĠSimulate": 4594,
      "WS": 4595,
      "Ġenergy": 4596,
      "errors": 4597,
      "Ġprotocol": 4598,
      "Ġvel": 4599,
      "irt": 4600,
      "Ġconfigure": 4601,
      "Ensure": 4602,
      "vars": 4603,
      "Tree": 4604,
      "{\\": 4605,
      "coordinates": 4606,
      "Ġinterest": 4607,
      "tests": 4608,
      "Ġutilize": 4609,
      "Ġvertices": 4610,
      "Ġfrequent": 4611,
      "Ġconnected": 4612,
      "Ġrelease": 4613,
      "anumeric": 4614,
      "Color": 4615,
      "Ġtaken": 4616,
      ":\")": 4617,
      "Perform": 4618,
      "ogram": 4619,
      "pus": 4620,
      "Ġgenerating": 4621,
      "Ġconverted": 4622,
      "signal": 4623,
      "IP": 4624,
      "mi": 4625,
      "ifications": 4626,
      "Ġperiod": 4627,
      "ĠCl": 4628,
      "NO": 4629,
      "usic": 4630,
      "stdout": 4631,
      ".*": 4632,
      "Inter": 4633,
      "View": 4634,
      "menu": 4635,
      "ĠZ": 4636,
      "Ġcompany": 4637,
      "codes": 4638,
      "span": 4639,
      "Ġcenter": 4640,
      "Get": 4641,
      "imation": 4642,
      "Ġenter": 4643,
      "65": 4644,
      "Ġincoming": 4645,
      "mag": 4646,
      "Ġrout": 4647,
      "Ġheap": 4648,
      "rase": 4649,
      "FO": 4650,
      "velop": 4651,
      "used": 4652,
      "clus": 4653,
      "comment": 4654,
      "Ġasyncio": 4655,
      "05": 4656,
      "Ġturn": 4657,
      "Ġdescending": 4658,
      "Ġfig": 4659,
      "dered": 4660,
      "Ġretrieving": 4661,
      "IC": 4662,
      "png": 4663,
      "Ġ,": 4664,
      ").\\": 4665,
      "option": 4666,
      "Ġparses": 4667,
      "ĠGET": 4668,
      "avig": 4669,
      "Logger": 4670,
      "pat": 4671,
      "zone": 4672,
      "Ġtwe": 4673,
      "Ġcross": 4674,
      "Ġengine": 4675,
      "inputs": 4676,
      "views": 4677,
      "ĠGitHub": 4678,
      "BankAccount": 4679,
      "kernel": 4680,
      "pages": 4681,
      "Ġdot": 4682,
      "ui": 4683,
      "ĠNot": 4684,
      "Ġdivide": 4685,
      "Ed": 4686,
      "Flow": 4687,
      "ied": 4688,
      "ortest": 4689,
      "ĠLog": 4690,
      "VER": 4691,
      "outer": 4692,
      "otes": 4693,
      "high": 4694,
      "Ġpunctuation": 4695,
      "isal": 4696,
      "andom": 4697,
      "cols": 4698,
      "Ġconfigurations": 4699,
      "Ġrectangle": 4700,
      "Pos": 4701,
      "`\\": 4702,
      "Ġdtype": 4703,
      "EY": 4704,
      "clude": 4705,
      "Ġlarger": 4706,
      "Ġblue": 4707,
      "CD": 4708,
      "Ġsmall": 4709,
      "Ġpush": 4710,
      "Ġfrequencies": 4711,
      "datasets": 4712,
      "Ġvertex": 4713,
      "02": 4714,
      "AM": 4715,
      "Ġimp": 4716,
      "Ġdetection": 4717,
      "Ġalpha": 4718,
      "Net": 4719,
      "\\\"]": 4720,
      "Ġdistinct": 4721,
      "MO": 4722,
      "Ġ\"\".": 4723,
      "nsufficient": 4724,
      "!\")": 4725,
      ")/": 4726,
      "Ġtrig": 4727,
      "('-": 4728,
      "Ġsegment": 4729,
      "isalnum": 4730,
      "ASE": 4731,
      "Ġds": 4732,
      "ĠEn": 4733,
      "Ġaddition": 4734,
      "Reverse": 4735,
      "frequent": 4736,
      "auto": 4737,
      "ored": 4738,
      "Ġdependency": 4739,
      "********": 4740,
      "gate": 4741,
      "ire": 4742,
      "difference": 4743,
      "HTTP": 4744,
      "Ġreplaced": 4745,
      "validation": 4746,
      ")}": 4747,
      "Optim": 4748,
      "border": 4749,
      "nimport": 4750,
      "ĠConstruct": 4751,
      "Ġauth": 4752,
      "Ġreward": 4753,
      "Ġlengths": 4754,
      "Ġretrieval": 4755,
      "Ġidx": 4756,
      "requests": 4757,
      "chronous": 4758,
      "heet": 4759,
      "seconds": 4760,
      "components": 4761,
      "Token": 4762,
      "uler": 4763,
      "\").": 4764,
      "Ġexecuting": 4765,
      "State": 4766,
      "pad": 4767,
      "Ġconfi": 4768,
      "Ġmet": 4769,
      "Ġmultiplication": 4770,
      "Ġpriority": 4771,
      "Ġrepo": 4772,
      "Ġstyle": 4773,
      "Ġaccuracy": 4774,
      "Socket": 4775,
      "unch": 4776,
      "itespace": 4777,
      "Ġedit": 4778,
      "Ġwritten": 4779,
      "Ġadjac": 4780,
      "git": 4781,
      "Ġcolors": 4782,
      "Ġpages": 4783,
      "peri": 4784,
      "Ġsec": 4785,
      "timeout": 4786,
      "cipient": 4787,
      "pd": 4788,
      "Ġfin": 4789,
      "Ġelem": 4790,
      "Ġdebug": 4791,
      "34": 4792,
      "LU": 4793,
      "Ġca": 4794,
      "umul": 4795,
      "Ġarch": 4796,
      "Mo": 4797,
      "ench": 4798,
      "expected": 4799,
      "Button": 4800,
      "ropy": 4801,
      "{}": 4802,
      "Ġmigrations": 4803,
      "Ġgroups": 4804,
      "imeter": 4805,
      "Ġmechanism": 4806,
      "attribute": 4807,
      "Ġwin": 4808,
      "Ġvectors": 4809,
      "ĠPOST": 4810,
      "logging": 4811,
      "divis": 4812,
      "87": 4813,
      "rices": 4814,
      "ber": 4815,
      "ĠWrite": 4816,
      "LECT": 4817,
      "versal": 4818,
      "Result": 4819,
      "\\\"\\\"\\": 4820,
      "corner": 4821,
      "interval": 4822,
      "speed": 4823,
      ")]\\": 4824,
      "ade": 4825,
      "ys": 4826,
      "Ġbit": 4827,
      "ĠCom": 4828,
      "Ġbounding": 4829,
      "Ġinv": 4830,
      "Ġsever": 4831,
      "Ġstarts": 4832,
      "crement": 4833,
      "Ġshown": 4834,
      "Ġterm": 4835,
      "TER": 4836,
      "Ġactive": 4837,
      "gb": 4838,
      "gener": 4839,
      "oriz": 4840,
      "ava": 4841,
      "versions": 4842,
      "(?": 4843,
      "environ": 4844,
      "Ġwait": 4845,
      "ĠText": 4846,
      "Ġparallel": 4847,
      "Ġmentioned": 4848,
      "Ġprofit": 4849,
      "Ġtokenizer": 4850,
      "Ġembedding": 4851,
      "raph": 4852,
      "ĠTensor": 4853,
      "admin": 4854,
      "counter": 4855,
      "Ġtermin": 4856,
      "Torch": 4857,
      "structure": 4858,
      "Ġdevelop": 4859,
      "records": 4860,
      "cell": 4861,
      "Ġselection": 4862,
      "Ġbackend": 4863,
      "ker": 4864,
      "Ġhow": 4865,
      "('.": 4866,
      "Ġdocuments": 4867,
      "`):": 4868,
      "fn": 4869,
      "Ġscreen": 4870,
      "article": 4871,
      "apes": 4872,
      "Ġsupported": 4873,
      "DD": 4874,
      "SL": 4875,
      "Ġdevices": 4876,
      "']['": 4877,
      "ĠGUI": 4878,
      "Ġwidget": 4879,
      "\\\"\\\"\\\"\\\"\\": 4880,
      "Ġconverts": 4881,
      "ival": 4882,
      "Ġtransformed": 4883,
      "caled": 4884,
      "37": 4885,
      "clean": 4886,
      "sync": 4887,
      "ality": 4888,
      "arguments": 4889,
      "]['": 4890,
      "rea": 4891,
      "icon": 4892,
      "Ġpredefined": 4893,
      "Ġpublic": 4894,
      "fc": 4895,
      "Ġlibraries": 4896,
      "Ġedges": 4897,
      "Server": 4898,
      "Fe": 4899,
      "ifies": 4900,
      "Ġcorner": 4901,
      "success": 4902,
      "orizon": 4903,
      "API": 4904,
      "Ġredirect": 4905,
      "else": 4906,
      "Ġcompleted": 4907,
      "Ġdog": 4908,
      "CV": 4909,
      "Web": 4910,
      "tf": 4911,
      "Ġcourse": 4912,
      "Ġanswer": 4913,
      "Ġintersection": 4914,
      "extra": 4915,
      "Ġconsecutive": 4916,
      "Ġpad": 4917,
      "arn": 4918,
      "},\\": 4919,
      "ometry": 4920,
      "Ġswap": 4921,
      "anti": 4922,
      "Ġcalculating": 4923,
      "ĠPyTorch": 4924,
      "gers": 4925,
      "Ġentries": 4926,
      "variables": 4927,
      "Ġconnections": 4928,
      "Ġcombined": 4929,
      "ans": 4930,
      "Ġhist": 4931,
      "endswith": 4932,
      "Ġdecode": 4933,
      "ators": 4934,
      "stats": 4935,
      "IOU": 4936,
      "ĠSh": 4937,
      "light": 4938,
      "Ġcards": 4939,
      "imate": 4940,
      "Ġlogs": 4941,
      "cheme": 4942,
      "Ġrelations": 4943,
      "public": 4944,
      "bra": 4945,
      "Ġdisplayed": 4946,
      "\\\"{": 4947,
      "Ġatt": 4948,
      "Ġchannels": 4949,
      "Ġlayout": 4950,
      "AEIOU": 4951,
      "pdf": 4952,
      "retri": 4953,
      "ĠFileNotFoundError": 4954,
      "Di": 4955,
      "EL": 4956,
      "Ġpatch": 4957,
      "Ġlatest": 4958,
      "verbose": 4959,
      "6666": 4960,
      "Ġinherits": 4961,
      "adj": 4962,
      "Ġcsv": 4963,
      "Ġpe": 4964,
      "term": 4965,
      "emon": 4966,
      "ORD": 4967,
      "napshot": 4968,
      "aeiouAEIOU": 4969,
      "?\"\"\"": 4970,
      "Oper": 4971,
      "lr": 4972,
      "person": 4973,
      "icro": 4974,
      "Ġ'<": 4975,
      "progress": 4976,
      "Ġappro": 4977,
      "valuate": 4978,
      ":\\\",": 4979,
      "encoding": 4980,
      "Ġrecursive": 4981,
      "Ġdt": 4982,
      "positive": 4983,
      "Ġstructured": 4984,
      "ĠDataset": 4985,
      "Version": 4986,
      "symbol": 4987,
      "Method": 4988,
      "lers": 4989,
      "Ġve": 4990,
      "Ġhours": 4991,
      "conf": 4992,
      "ĠValid": 4993,
      "Ġpopulation": 4994,
      "mult": 4995,
      "widget": 4996,
      "Ġtre": 4997,
      "Ġsubset": 4998,
      "ULT": 4999,
      "Pass": 5000,
      "omin": 5001,
      "combin": 5002,
      "ĠWhen": 5003,
      "ĠQu": 5004,
      "PATH": 5005,
      "language": 5006,
      "yaml": 5007,
      "Ġsig": 5008,
      "serv": 5009,
      "addr": 5010,
      "Ġhold": 5011,
      "Ġfloating": 5012,
      "Ġlogin": 5013,
      "Ġlevels": 5014,
      "Fibonacci": 5015,
      "Ġrest": 5016,
      "Ġ((": 5017,
      "perform": 5018,
      "some": 5019,
      "simul": 5020,
      "']:": 5021,
      "Ġquicksort": 5022,
      "Lo": 5023,
      "cmd": 5024,
      "iddle": 5025,
      "SA": 5026,
      "cfg": 5027,
      "storage": 5028,
      "alcul": 5029,
      "([[": 5030,
      "Ġbackground": 5031,
      "Tk": 5032,
      "dtype": 5033,
      "ally": 5034,
      "Ġ\"))": 5035,
      "Ġepoch": 5036,
      "âĶĢâĶĢ": 5037,
      "(',": 5038,
      "gg": 5039,
      "84": 5040,
      "inger": 5041,
      "classmethod": 5042,
      "Ġgoes": 5043,
      "Linear": 5044,
      "KEY": 5045,
      "met": 5046,
      "iding": 5047,
      "ibility": 5048,
      "ĠDi": 5049,
      "Ġdetermines": 5050,
      "optional": 5051,
      "Ġcomplex": 5052,
      "ipped": 5053,
      "tle": 5054,
      "ĠPath": 5055,
      "amily": 5056,
      "cause": 5057,
      "tz": 5058,
      "chor": 5059,
      "blue": 5060,
      "pag": 5061,
      "major": 5062,
      "Ġexperiment": 5063,
      "\",\"": 5064,
      "Ġtraverse": 5065,
      "execution": 5066,
      "environment": 5067,
      "Ġutility": 5068,
      "192": 5069,
      "Ġconstraints": 5070,
      "IS": 5071,
      "final": 5072,
      "sched": 5073,
      "real": 5074,
      "ĠĠĠĠĠĠĠĠĠĠ": 5075,
      "Ġhttps": 5076,
      "irtual": 5077,
      "Que": 5078,
      "Content": 5079,
      "rules": 5080,
      "Ġ\\(": 5081,
      "Connection": 5082,
      "ertific": 5083,
      "Ġoccurrence": 5084,
      "ĠInitializes": 5085,
      "Ġtopic": 5086,
      "UP": 5087,
      "known": 5088,
      "Ġ\"_": 5089,
      "Ġatom": 5090,
      "Ġlead": 5091,
      "trained": 5092,
      "Ġ\"\\": 5093,
      "Ġschedule": 5094,
      "ĠĠĠčĊ": 5095,
      "Ġfeed": 5096,
      "dimensional": 5097,
      "Ġbuilt": 5098,
      "ABC": 5099,
      "Ġattempts": 5100,
      "itut": 5101,
      "nested": 5102,
      "Can": 5103,
      "Using": 5104,
      "dog": 5105,
      "Ġsince": 5106,
      "semb": 5107,
      "Ġrecogn": 5108,
      "assign": 5109,
      "Argument": 5110,
      "World": 5111,
      "Ġsensor": 5112,
      "Ġclick": 5113,
      "Ġbin": 5114,
      "','": 5115,
      "press": 5116,
      "Ġindent": 5117,
      "Ġlarge": 5118,
      "Ġiterations": 5119,
      "volution": 5120,
      "Ġmut": 5121,
      "')`": 5122,
      "ĠOR": 5123,
      "pairs": 5124,
      "ulates": 5125,
      "writer": 5126,
      "Ġfore": 5127,
      "Ġ`'": 5128,
      "Ġstrategy": 5129,
      "platform": 5130,
      "ople": 5131,
      "ĠWeb": 5132,
      "ĠCO": 5133,
      "Ġprecision": 5134,
      "Ġbuy": 5135,
      "lisher": 5136,
      "Ġutilizes": 5137,
      "SER": 5138,
      "library": 5139,
      "your": 5140,
      "Ġoccurs": 5141,
      "lished": 5142,
      "Ġeffect": 5143,
      "Ġminutes": 5144,
      "relation": 5145,
      "delta": 5146,
      "style": 5147,
      "Ġnatural": 5148,
      "Ġgrayscale": 5149,
      "Ġinsp": 5150,
      "insensitive": 5151,
      "ucl": 5152,
      "ĠLo": 5153,
      "Ġextend": 5154,
      "Per": 5155,
      "Ġast": 5156,
      "Ġpred": 5157,
      "ĠAfter": 5158,
      "Ġpreprocessing": 5159,
      "parameter": 5160,
      "/<": 5161,
      "Int": 5162,
      "]}": 5163,
      "ernal": 5164,
      "ele": 5165,
      "where": 5166,
      "ameters": 5167,
      "Ġ500": 5168,
      "DIR": 5169,
      "}/": 5170,
      "ttp": 5171,
      "Ġconstant": 5172,
      "ynomial": 5173,
      "123456": 5174,
      "Ġâ": 5175,
      "Ġctx": 5176,
      "pear": 5177,
      "../": 5178,
      "ĠSample": 5179,
      "Ġplan": 5180,
      "Ġcalling": 5181,
      "required": 5182,
      "Ġraised": 5183,
      "Pre": 5184,
      "scaling": 5185,
      "ĠSave": 5186,
      "fully": 5187,
      "Insufficient": 5188,
      "Ġcast": 5189,
      "infos": 5190,
      "Ġnormalized": 5191,
      "Edit": 5192,
      "edge": 5193,
      "Ġregistration": 5194,
      "70": 5195,
      "Su": 5196,
      "Ġvelocity": 5197,
      "PO": 5198,
      "por": 5199,
      "Ġseed": 5200,
      "ĠMy": 5201,
      "Ġiteration": 5202,
      ")**": 5203,
      "equ": 5204,
      "Ġenv": 5205,
      "Ġblocks": 5206,
      "Ġdistributed": 5207,
      "Book": 5208,
      "engine": 5209,
      "Ġwriter": 5210,
      "imal": 5211,
      "168": 5212,
      "Ġsending": 5213,
      "sha": 5214,
      "Ġassignment": 5215,
      "Ġreach": 5216,
      "allow": 5217,
      "children": 5218,
      "Ġinspiration": 5219,
      "push": 5220,
      "rb": 5221,
      "Ġpi": 5222,
      "metric": 5223,
      "Ġ`/": 5224,
      "__()": 5225,
      "Ġindicates": 5226,
      "Ġcombination": 5227,
      "dumps": 5228,
      "><": 5229,
      "Ġbecause": 5230,
      "currency": 5231,
      "Ġ\\\"\\\".": 5232,
      "Email": 5233,
      "epoch": 5234,
      "ĠPre": 5235,
      "Ġencryption": 5236,
      "ĠMod": 5237,
      "Ġregistered": 5238,
      "Ġsite": 5239,
      "moid": 5240,
      "times": 5241,
      "Ġassigned": 5242,
      "staticmethod": 5243,
      "orizontal": 5244,
      "cf": 5245,
      "Ġpie": 5246,
      "Ġconsole": 5247,
      "application": 5248,
      "ĠAN": 5249,
      "Ġ*=": 5250,
      "ensh": 5251,
      "embedding": 5252,
      "ratio": 5253,
      "xx": 5254,
      "learning": 5255,
      "formatted": 5256,
      "attrs": 5257,
      "Ġ\\\"\\\"\\": 5258,
      "stac": 5259,
      "meta": 5260,
      "Ġclassifier": 5261,
      "rightness": 5262,
      "primes": 5263,
      "Ġloading": 5264,
      "Ġnavig": 5265,
      "Ġ22": 5266,
      "ĠSer": 5267,
      "ĠOther": 5268,
      "Ġadjust": 5269,
      "Ġannotations": 5270,
      "How": 5271,
      "states": 5272,
      "Ġkeywords": 5273,
      "ĠĠĠĠĠĠĠĠĠĠĠĠĠĠĠĠĠĠĠĠĠĠĠĠĠĠĠĠĠĠĠ": 5274,
      "Ġfilters": 5275,
      "36": 5276,
      "elcome": 5277,
      "oto": 5278,
      "Inte": 5279,
      "AS": 5280,
      "Point": 5281,
      "itect": 5282,
      "events": 5283,
      "Ġexceeds": 5284,
      "idean": 5285,
      "Ġaggreg": 5286,
      "Ġfox": 5287,
      "uclidean": 5288,
      "+=": 5289,
      "My": 5290,
      "Pl": 5291,
      "ners": 5292,
      "ĠUsed": 5293,
      "Ġversions": 5294,
      "compile": 5295,
      "ancel": 5296,
      "products": 5297,
      "Ġsecure": 5298,
      "Ġshortest": 5299,
      "resources": 5300,
      "Dist": 5301,
      "cards": 5302,
      "Ġasynchronous": 5303,
      "channels": 5304,
      "Ġplaceholder": 5305,
      "Label": 5306,
      "PT": 5307,
      "ipping": 5308,
      "Ġip": 5309,
      "Ġ'',": 5310,
      "etic": 5311,
      "Ġapplic": 5312,
      "plotlib": 5313,
      "Cur": 5314,
      "Dis": 5315,
      "Ġ'--": 5316,
      ")),": 5317,
      "umbers": 5318,
      "ony": 5319,
      "usage": 5320,
      "week": 5321,
      "condition": 5322,
      "ailability": 5323,
      "transl": 5324,
      "255": 5325,
      "Ġdeleted": 5326,
      "ĠFinal": 5327,
      "Ġacc": 5328,
      "Ġencrypt": 5329,
      "links": 5330,
      "comes": 5331,
      "err": 5332,
      "seed": 5333,
      "??": 5334,
      "selected": 5335,
      "Ġproxy": 5336,
      "numer": 5337,
      "Ġchars": 5338,
      "Ġencode": 5339,
      "Ġpartic": 5340,
      "pported": 5341,
      "nComplete": 5342,
      "ĠTO": 5343,
      "viation": 5344,
      "Ġenable": 5345,
      "Ġdefaults": 5346,
      "Ġrelative": 5347,
      "vertex": 5348,
      "irth": 5349,
      "][\"": 5350,
      "Ġappears": 5351,
      "cuit": 5352,
      "urther": 5353,
      "Ġans": 5354,
      "click": 5355,
      "Ġ400": 5356,
      "Ġjump": 5357,
      "Ġenclosed": 5358,
      "andidate": 5359,
      "SQL": 5360,
      "agraph": 5361,
      "bre": 5362,
      "ĠâĶ": 5363,
      "Ġfalse": 5364,
      "Ġ26": 5365,
      "ĠStep": 5366,
      "Ġpreprocess": 5367,
      "bucket": 5368,
      "Ġ\"\"))": 5369,
      "documents": 5370,
      "Multi": 5371,
      "Ġvar": 5372,
      "Status": 5373,
      "All": 5374,
      "Block": 5375,
      "Ġ`['": 5376,
      "Ġformats": 5377,
      "Ġverification": 5378,
      "Module": 5379,
      "brow": 5380,
      "percent": 5381,
      "linear": 5382,
      "ITE": 5383,
      "He": 5384,
      "Ġred": 5385,
      "uri": 5386,
      "Ġsentences": 5387,
      "opyright": 5388,
      "AML": 5389,
      "Prime": 5390,
      "power": 5391,
      "Ġchr": 5392,
      "summary": 5393,
      "Ġbottom": 5394,
      "Ġfactors": 5395,
      "PRO": 5396,
      "cing": 5397,
      "wd": 5398,
      "Ġcleaned": 5399,
      "Resource": 5400,
      "rating": 5401,
      "Ġcat": 5402,
      "async": 5403,
      "Ġhistory": 5404,
      "proc": 5405,
      "moves": 5406,
      "backend": 5407,
      "ĠTypeError": 5408,
      "Ġcapture": 5409,
      "IG": 5410,
      "aint": 5411,
      "bind": 5412,
      "ctx": 5413,
      "Ġgu": 5414,
      "Ġ(-": 5415,
      "Ġ(\\\"": 5416,
      "Ġcalc": 5417,
      "Ġargparse": 5418,
      "itecture": 5419,
      ").__": 5420,
      "mbers": 5421,
      "ĠToken": 5422,
      "curr": 5423,
      "Ġequival": 5424,
      "container": 5425,
      "Sample": 5426,
      "pipeline": 5427,
      "ĠEng": 5428,
      "'])\\": 5429,
      "Ġinterpol": 5430,
      "Ġinternal": 5431,
      "Ġcalculator": 5432,
      "lap": 5433,
      "Ġguess": 5434,
      "mpling": 5435,
      "Ġbucket": 5436,
      "Ġalphanumeric": 5437,
      "cart": 5438,
      "dat": 5439,
      "lie": 5440,
      "Ġclosing": 5441,
      "Ġmember": 5442,
      "ams": 5443,
      "Ġmole": 5444,
      "hour": 5445,
      "Ġclassification": 5446,
      "Ġ123": 5447,
      "Ġbegin": 5448,
      "FT": 5449,
      "fin": 5450,
      ">',": 5451,
      "ees": 5452,
      "glet": 5453,
      "eriv": 5454,
      "Ġsequences": 5455,
      "ĠAdds": 5456,
      "mployees": 5457,
      "Ġscenario": 5458,
      "Title": 5459,
      "strong": 5460,
      "forward": 5461,
      "derr": 5462,
      "dients": 5463,
      "Ġ\\\"__": 5464,
      "Ġweek": 5465,
      "HO": 5466,
      "Ġshuffle": 5467,
      "Ġ21": 5468,
      "}{": 5469,
      "Ġsubmission": 5470,
      "calar": 5471,
      "Auth": 5472,
      "Ġpool": 5473,
      "indows": 5474,
      "Ġcommunic": 5475,
      "Ent": 5476,
      "exception": 5477,
      "Incorrect": 5478,
      "theme": 5479,
      "Ġinherit": 5480,
      "Ġscenarios": 5481,
      ":])": 5482,
      ">\"": 5483,
      "warning": 5484,
      "regex": 5485,
      "changed": 5486,
      "created": 5487,
      "Ġhome": 5488,
      "Ġinstallation": 5489,
      "74": 5490,
      "cpu": 5491,
      "uel": 5492,
      "orange": 5493,
      "Ġborrow": 5494,
      "ĠAc": 5495,
      "movie": 5496,
      "predictions": 5497,
      "ATE": 5498,
      "win": 5499,
      "Ġmaint": 5500,
      "Ġqueries": 5501,
      "Ġinstead": 5502,
      "invalid": 5503,
      "stitut": 5504,
      "Ġmot": 5505,
      "ĠTree": 5506,
      "endpoint": 5507,
      "('\\": 5508,
      "Ġintended": 5509,
      "ĠCompute": 5510,
      "Ġlocated": 5511,
      "Ġhref": 5512,
      "')[": 5513,
      "Ġaccounts": 5514,
      "Ġdisplays": 5515,
      "ĠTrans": 5516,
      "\"[": 5517,
      "branch": 5518,
      "Ġ'\\": 5519,
      "collection": 5520,
      "distribut": 5521,
      "3333": 5522,
      "categories": 5523,
      "ValueError": 5524,
      "separ": 5525,
      "Ġdouble": 5526,
      "License": 5527,
      "Ġ[-": 5528,
      "ĠIns": 5529,
      "pool": 5530,
      "Ġconstructed": 5531,
      "topic": 5532,
      "xyz": 5533,
      "MI": 5534,
      "solution": 5535,
      "uuid": 5536,
      "ename": 5537,
      "missing": 5538,
      "faces": 5539,
      "gpu": 5540,
      "ATION": 5541,
      "ROM": 5542,
      "Ġmarks": 5543,
      "SION": 5544,
      "95": 5545,
      "Ġplugin": 5546,
      "Ġperforming": 5547,
      "examples": 5548,
      "elem": 5549,
      "median": 5550,
      "Ġmetric": 5551,
      "Ġdim": 5552,
      "ĠTensorFlow": 5553,
      "lies": 5554,
      "Ġunittest": 5555,
      "CS": 5556,
      "ctors": 5557,
      "ĠBankAccount": 5558,
      "Ġmoves": 5559,
      "tick": 5560,
      "Ġreturning": 5561,
      "Ġdefines": 5562,
      "SELECT": 5563,
      "Ġhttp": 5564,
      "reset": 5565,
      "logs": 5566,
      "Ġmagn": 5567,
      "Ġnl": 5568,
      "Ġsubclass": 5569,
      "gt": 5570,
      "Âł": 5571,
      "reward": 5572,
      "Ġopt": 5573,
      "Product": 5574,
      "google": 5575,
      "Spe": 5576,
      "]*": 5577,
      "ugment": 5578,
      "oader": 5579,
      "Ġvirtual": 5580,
      "series": 5581,
      "ĠReg": 5582,
      "Ġdisplaying": 5583,
      "Ġunderstand": 5584,
      "Ġneighbor": 5585,
      "nfrom": 5586,
      "rict": 5587,
      "Ġgetattr": 5588,
      "'^": 5589,
      "(_": 5590,
      "fy": 5591,
      "Ġface": 5592,
      "mote": 5593,
      "Ġmovement": 5594,
      "TestCase": 5595,
      "Ġpolicy": 5596,
      "Ġdeletion": 5597,
      "Ġcy": 5598,
      "Attribute": 5599,
      "nded": 5600,
      "Ġfra": 5601,
      "Ġthird": 5602,
      "Analy": 5603,
      "ĠYAML": 5604,
      "aunch": 5605,
      "Ġinsertion": 5606,
      "()]": 5607,
      "docker": 5608,
      "YPE": 5609,
      "mith": 5610,
      "similar": 5611,
      "Ġsuffix": 5612,
      "cluded": 5613,
      "([\"": 5614,
      "Command": 5615,
      "bs": 5616,
      "pc": 5617,
      "ene": 5618,
      "Ġrock": 5619,
      "Head": 5620,
      "XX": 5621,
      "Ġclear": 5622,
      "Ġpress": 5623,
      "Ġ[],": 5624,
      "Ġexamples": 5625,
      "heads": 5626,
      "rain": 5627,
      "Ġ\"<": 5628,
      "shift": 5629,
      "Ġnamespace": 5630,
      "capital": 5631,
      "Size": 5632,
      "ij": 5633,
      "Ġeval": 5634,
      "population": 5635,
      "safe": 5636,
      "Val": 5637,
      "Ġlight": 5638,
      "aming": 5639,
      "shards": 5640,
      "eq": 5641,
      "Ġcells": 5642,
      "bstract": 5643,
      "ivity": 5644,
      "serialize": 5645,
      "hemat": 5646,
      "Ġ\"-": 5647,
      "Ġnearest": 5648,
      "Ġprivate": 5649,
      ".\",": 5650,
      "mical": 5651,
      "Ġche": 5652,
      "ilter": 5653,
      "ĠIS": 5654,
      "Ġsuit": 5655,
      "subarray": 5656,
      ":]:": 5657,
      "pin": 5658,
      "Ġhyp": 5659,
      "('--": 5660,
      "Ġ85": 5661,
      "unittest": 5662,
      "Ġthose": 5663,
      "aging": 5664,
      "\"},": 5665,
      "Ġcollect": 5666,
      "hook": 5667,
      "ĠGPU": 5668,
      "uppercase": 5669,
      "Ġestab": 5670,
      "umulative": 5671,
      "gender": 5672,
      "Ġsur": 5673,
      "alth": 5674,
      "artment": 5675,
      "Context": 5676,
      "END": 5677,
      "500": 5678,
      "88": 5679,
      ":',": 5680,
      "encoded": 5681,
      "Ġfurther": 5682,
      "ĠImport": 5683,
      "Ġindicate": 5684,
      "Ġtables": 5685,
      "}/{": 5686,
      "Ġstar": 5687,
      "Ġcheckpoint": 5688,
      "Ġremoves": 5689,
      "clear": 5690,
      "Gener": 5691,
      "ĠTask": 5692,
      "Ġdeep": 5693,
      "Ġcurrently": 5694,
      "Mat": 5695,
      "scription": 5696,
      "[:-": 5697,
      "Ġextensions": 5698,
      "ĠREST": 5699,
      "byte": 5700,
      "center": 5701,
      "Ġbrown": 5702,
      "irst": 5703,
      "[(": 5704,
      "groups": 5705,
      "Ġratio": 5706,
      "evice": 5707,
      "Le": 5708,
      "migrations": 5709,
      "Ġdice": 5710,
      "units": 5711,
      "Ġdecrypted": 5712,
      "Ġformatting": 5713,
      "ĠVersion": 5714,
      "inked": 5715,
      "35": 5716,
      "PL": 5717,
      "umn": 5718,
      "ĠTime": 5719,
      "Ġpaper": 5720,
      "cp": 5721,
      "Ġret": 5722,
      "Ġrecipient": 5723,
      "Ġ`-": 5724,
      "ariable": 5725,
      "ERR": 5726,
      "Ġsymbols": 5727,
      "'\"\"\"": 5728,
      "+)": 5729,
      "nImplement": 5730,
      "ano": 5731,
      "__\\\":\\": 5732,
      "Ġrequested": 5733,
      "[[": 5734,
      "riend": 5735,
      "cesses": 5736,
      "7890": 5737,
      "pix": 5738,
      "Ġwhitespace": 5739,
      "cluster": 5740,
      "control": 5741,
      "Ġextraction": 5742,
      "Date": 5743,
      "entity": 5744,
      "Ġvocab": 5745,
      "Ġsubject": 5746,
      "Ġability": 5747,
      "Ġreplacement": 5748,
      "Ġskip": 5749,
      "ium": 5750,
      "vocab": 5751,
      "Ġ'*": 5752,
      "isdigit": 5753,
      "Ġdec": 5754,
      "permut": 5755,
      "Ġ300": 5756,
      "Ġenabled": 5757,
      "Ġvalidates": 5758,
      "relu": 5759,
      "Area": 5760,
      "Loc": 5761,
      "MB": 5762,
      "Ġwins": 5763,
      "acro": 5764,
      "Ġdir": 5765,
      "Ġalign": 5766,
      "Ġ'''\\": 5767,
      "Ġentities": 5768,
      "Ġchain": 5769,
      "Ġframes": 5770,
      "(\":": 5771,
      "aching": 5772,
      "Ġshows": 5773,
      "II": 5774,
      "Player": 5775,
      "Ġpat": 5776,
      "Ġhyper": 5777,
      "oney": 5778,
      "uggest": 5779,
      "ĠConfig": 5780,
      "ORT": 5781,
      "Ġpolygon": 5782,
      "dependency": 5783,
      "ĠSpec": 5784,
      "Ġrelationship": 5785,
      "sers": 5786,
      "ĠĠĠĠĠĠĠĠĠĠĠĠĠ": 5787,
      "outputs": 5788,
      "Ġflags": 5789,
      "Ġregex": 5790,
      "Ġ23": 5791,
      "Ġitself": 5792,
      "park": 5793,
      "spect": 5794,
      "033": 5795,
      "CP": 5796,
      "HA": 5797,
      "Ġinstructions": 5798,
      "Ġep": 5799,
      "erois": 5800,
      "98": 5801,
      "And": 5802,
      "nAssume": 5803,
      "zA": 5804,
      "Ġrecomm": 5805,
      "Ġreceive": 5806,
      "Ġdriver": 5807,
      "interest": 5808,
      "upload": 5809,
      "(\"\\": 5810,
      "Ġhasattr": 5811,
      "Ġfilled": 5812,
      "rd": 5813,
      "receiv": 5814,
      "uman": 5815,
      "termin": 5816,
      "Ġprobabilities": 5817,
      ">,": 5818,
      "Author": 5819,
      "short": 5820,
      "Ġexistence": 5821,
      "Ġholder": 5822,
      "CHE": 5823,
      "COL": 5824,
      "grees": 5825,
      "ĠCounter": 5826,
      "rat": 5827,
      "render": 5828,
      "Ġnow": 5829,
      "ational": 5830,
      "circle": 5831,
      "ĠĠĠĠĠĠĠĠĠĠĠĠčĊ": 5832,
      "fold": 5833,
      "\"]\"\"\"": 5834,
      "iness": 5835,
      "Ġdeploy": 5836,
      "Num": 5837,
      "none": 5838,
      "oted": 5839,
      "dia": 5840,
      "upd": 5841,
      "ĠSw": 5842,
      "Ġrequires": 5843,
      "Ġ_,": 5844,
      "lowercase": 5845,
      "compute": 5846,
      "sender": 5847,
      "Ġchoices": 5848,
      "Password": 5849,
      "Word": 5850,
      "lin": 5851,
      "null": 5852,
      "Ġpag": 5853,
      "Ġstoring": 5854,
      "Ġapplies": 5855,
      "Union": 5856,
      "Ġleading": 5857,
      "mar": 5858,
      "alk": 5859,
      "Ġderiv": 5860,
      "Ġsyntax": 5861,
      "Ġviews": 5862,
      "Ġautomate": 5863,
      "}\\\"\\": 5864,
      "Reader": 5865,
      "Ġtick": 5866,
      "Ġsrc": 5867,
      "Ġcoordinate": 5868,
      "angles": 5869,
      "reader": 5870,
      "Ġworker": 5871,
      "Ne": 5872,
      "Up": 5873,
      "contents": 5874,
      "checkpoint": 5875,
      "Ġdivision": 5876,
      "Ġstudents": 5877,
      "driver": 5878,
      "uses": 5879,
      "Ġgender": 5880,
      "Ġtax": 5881,
      "usters": 5882,
      "ĠMain": 5883,
      "Serial": 5884,
      "Ġdesigned": 5885,
      "repository": 5886,
      "Record": 5887,
      "mplates": 5888,
      "Stack": 5889,
      "=-": 5890,
      "gree": 5891,
      "erial": 5892,
      "Ġicon": 5893,
      "roid": 5894,
      "Ġlazy": 5895,
      "Ġshort": 5896,
      "ĠPlease": 5897,
      "Ġdiag": 5898,
      "Ġmathemat": 5899,
      "Ġweighted": 5900,
      "Ġchatbot": 5901,
      "42": 5902,
      "ips": 5903,
      "Ġsorts": 5904,
      "Ġrandomly": 5905,
      "lots": 5906,
      "component": 5907,
      "Ġnull": 5908,
      "Ġmaking": 5909,
      "country": 5910,
      "Ġtrailing": 5911,
      "iterations": 5912,
      "ĠStart": 5913,
      "clusive": 5914,
      "ingerprint": 5915,
      "UD": 5916,
      "ertion": 5917,
      "pto": 5918,
      "presents": 5919,
      "OK": 5920,
      "Ġund": 5921,
      "aves": 5922,
      "Ġoptimized": 5923,
      "Ġstatic": 5924,
      "ĠDefault": 5925,
      "Ġtranslation": 5926,
      "Queue": 5927,
      "CF": 5928,
      "NG": 5929,
      "Var": 5930,
      "ric": 5931,
      "rove": 5932,
      "ĠSo": 5933,
      "Ġmatrices": 5934,
      "Ġequivalent": 5935,
      "celsius": 5936,
      "measure": 5937,
      "metrics": 5938,
      "(\"--": 5939,
      "Ġcountry": 5940,
      "Ġcols": 5941,
      "Ġcircuit": 5942,
      "Query": 5943,
      "Ġmonitoring": 5944,
      "iev": 5945,
      "usr": 5946,
      "Ġnote": 5947,
      "Ġconstants": 5948,
      "punctuation": 5949,
      "enses": 5950,
      "Ġhour": 5951,
      "Ġalter": 5952,
      "ĠDE": 5953,
      "ĠCallable": 5954,
      "specific": 5955,
      "BUG": 5956,
      "Div": 5957,
      "reference": 5958,
      "optimizer": 5959,
      "ertificate": 5960,
      "ArgumentParser": 5961,
      ");": 5962,
      "44": 5963,
      "WORD": 5964,
      "Ġsubmit": 5965,
      "weather": 5966,
      "ĠGaussian": 5967,
      "ĠRed": 5968,
      "owner": 5969,
      "Ġreader": 5970,
      "Ġmultipl": 5971,
      "merge": 5972,
      "ĠCON": 5973,
      "ĠVer": 5974,
      "ports": 5975,
      "ĠWe": 5976,
      "Ġfiltering": 5977,
      "End": 5978,
      "keyword": 5979,
      "Ġ\\)": 5980,
      "single": 5981,
      "Ġhello": 5982,
      "ssl": 5983,
      ":**": 5984,
      "RAN": 5985,
      "stage": 5986,
      "ĠFROM": 5987,
      "destination": 5988,
      "LS": 5989,
      "VE": 5990,
      "Ġacross": 5991,
      "Ġdisk": 5992,
      "Ġpartition": 5993,
      "running": 5994,
      "twe": 5995,
      "yles": 5996,
      "Ġsubstrings": 5997,
      "Ġachiev": 5998,
      "flag": 5999,
      "Ġthreading": 6000,
      "FAULT": 6001,
      ",-": 6002,
      "amp": 6003,
      "Ġsyn": 6004,
      "factorial": 6005,
      ">`:": 6006,
      "Top": 6007,
      "hat": 6008,
      "Ġcamera": 6009,
      "raise": 6010,
      "Ġ'#": 6011,
      "tools": 6012,
      "Ġscrape": 6013,
      "Optimize": 6014,
      "Ġvehicle": 6015,
      "combinations": 6016,
      "Ġelapsed": 6017,
      "']}": 6018,
      "experiment": 6019,
      "ront": 6020,
      "iform": 6021,
      "prev": 6022,
      "Ġopening": 6023,
      "Ġes": 6024,
      "alias": 6025,
      "Ġ64": 6026,
      "Ġbuilding": 6027,
      "planation": 6028,
      "retrieve": 6029,
      "UB": 6030,
      "bird": 6031,
      "orders": 6032,
      "digest": 6033,
      "Ġplaces": 6034,
      "Ġvisualization": 6035,
      "'):\\": 6036,
      "Aut": 6037,
      "Ġ150": 6038,
      "localhost": 6039,
      "choices": 6040,
      "ĠRGB": 6041,
      "authentic": 6042,
      "ĠYork": 6043,
      "Map": 6044,
      "ZE": 6045,
      "onal": 6046,
      "Ġrepositories": 6047,
      "ĠRepresents": 6048,
      "Ġmathematical": 6049,
      "Ġquestion": 6050,
      "Ġclosed": 6051,
      "urtle": 6052,
      "jectory": 6053,
      "Ġintegr": 6054,
      "MAIL": 6055,
      "Ġpermutation": 6056,
      "Ġequation": 6057,
      "Ġmaintain": 6058,
      "Ġexpressions": 6059,
      "Ġautomat": 6060,
      "ĠInvalid": 6061,
      "Ġbranch": 6062,
      "poses": 6063,
      "ĠVector": 6064,
      "Ġexternal": 6065,
      "ĠExecute": 6066,
      "Iterable": 6067,
      "\".\"\"\"": 6068,
      "(__": 6069,
      "tre": 6070,
      "')]": 6071,
      "Ġterms": 6072,
      "ĠColor": 6073,
      "this": 6074,
      "amma": 6075,
      "enter": 6076,
      "strument": 6077,
      "ĠCre": 6078,
      "96": 6079,
      "PC": 6080,
      "SM": 6081,
      "stra": 6082,
      "region": 6083,
      "Mon": 6084,
      "href": 6085,
      "sound": 6086,
      "Ġ):": 6087,
      "edit": 6088,
      "three": 6089,
      "ĠCelsius": 6090,
      "Ġgreet": 6091,
      ".*?": 6092,
      "Ġbeginning": 6093,
      "global": 6094,
      "Ġdefining": 6095,
      "Ġabstract": 6096,
      "Ġrotate": 6097,
      "best": 6098,
      "Ġcaching": 6099,
      "Ġsecurity": 6100,
      "Ġresponses": 6101,
      "cos": 6102,
      "protocol": 6103,
      "Service": 6104,
      "Ġnormalize": 6105,
      "Box": 6106,
      "udy": 6107,
      "Dep": 6108,
      "bas": 6109,
      "itter": 6110,
      "Ġtitles": 6111,
      "customer": 6112,
      "Ġlongitude": 6113,
      "$',": 6114,
      ">'": 6115,
      "Ġinside": 6116,
      "master": 6117,
      "xture": 6118,
      "tool": 6119,
      "Ġtrained": 6120,
      "lex": 6121,
      "Ġborder": 6122,
      "Ġdynam": 6123,
      "usiness": 6124,
      "Ġinstanti": 6125,
      "Ġcompletion": 6126,
      "help": 6127,
      "Numbers": 6128,
      "cated": 6129,
      "Ġorigin": 6130,
      "soft": 6131,
      "Ġdepartment": 6132,
      "Ġwithdrawal": 6133,
      "Ġanalyzes": 6134,
      "></": 6135,
      "CRE": 6136,
      "Widget": 6137,
      "oth": 6138,
      "answer": 6139,
      "usion": 6140,
      "Ġcompressed": 6141,
      "scroll": 6142,
      "ring": 6143,
      "si": 6144,
      "Ġcelsius": 6145,
      "Ġ'%": 6146,
      "construct": 6147,
      "filtered": 6148,
      "atom": 6149,
      "Ġlive": 6150,
      "Ġmoving": 6151,
      "Ġsaving": 6152,
      "Ġboxes": 6153,
      "Be": 6154,
      "django": 6155,
      "ãĥ": 6156,
      "rections": 6157,
      "Ġwant": 6158,
      "Ġblog": 6159,
      "Ġobstac": 6160,
      "Ġlogged": 6161,
      "Ġappropriately": 6162,
      "layout": 6163,
      "Ġdfs": 6164,
      "ba": 6165,
      "hours": 6166,
      "Ġfuture": 6167,
      "colors": 6168,
      "ftime": 6169,
      "orient": 6170,
      "mesh": 6171,
      "Ġdates": 6172,
      "ĠClass": 6173,
      "Ġtransfer": 6174,
      "Ġcomputing": 6175,
      "Ġneighbors": 6176,
      "Ġpurpose": 6177,
      ">=": 6178,
      "middle": 6179,
      "atial": 6180,
      "vectors": 6181,
      "grades": 6182,
      "Ġlock": 6183,
      "ĠLanguage": 6184,
      "Ġbrowser": 6185,
      "encrypt": 6186,
      "Ġcraw": 6187,
      "Ġpayment": 6188,
      "Ġgate": 6189,
      "sock": 6190,
      "conds": 6191,
      "holders": 6192,
      "sentiment": 6193,
      "Ġvisualize": 6194,
      "writ": 6195,
      "Ġ45": 6196,
      "enchmark": 6197,
      "Page": 6198,
      "px": 6199,
      "roman": 6200,
      "Ġzone": 6201,
      "Apple": 6202,
      "Ro": 6203,
      "Ġnotification": 6204,
      "Ġyears": 6205,
      "Ġsender": 6206,
      "Ġcommunication": 6207,
      ")//": 6208,
      "Ġtimer": 6209,
      "vies": 6210,
      "ĠLine": 6211,
      "export": 6212,
      "ĠArray": 6213,
      "Ġlatitude": 6214,
      "04": 6215,
      "rl": 6216,
      "tol": 6217,
      "devices": 6218,
      "Ġscan": 6219,
      "Ġseveral": 6220,
      "With": 6221,
      "sd": 6222,
      "reed": 6223,
      "strftime": 6224,
      "Ġtech": 6225,
      "(':": 6226,
      "Do": 6227,
      "()[": 6228,
      "ĠCSS": 6229,
      "Ġsock": 6230,
      "Ġregression": 6231,
      "Ġavoid": 6232,
      "umpt": 6233,
      "lections": 6234,
      "---": 6235,
      "Ġemails": 6236,
      "SIZE": 6237,
      "Modify": 6238,
      "ĠParse": 6239,
      "similarity": 6240,
      "Ġepisode": 6241,
      "tod": 6242,
      "verify": 6243,
      "ĠModel": 6244,
      "Ġiterable": 6245,
      "Ġhelper": 6246,
      "AGE": 6247,
      "PS": 6248,
      "nake": 6249,
      "Ġmanipulation": 6250,
      "bits": 6251,
      "lapping": 6252,
      "Ġinstruction": 6253,
      "Ġteam": 6254,
      "Ġcloud": 6255,
      "Ġexecutable": 6256,
      "JSON": 6257,
      "highest": 6258,
      "Ġdeviation": 6259,
      "Ġ35": 6260,
      "Database": 6261,
      "Ġaccepts": 6262,
      "Ġaccurately": 6263,
      "On": 6264,
      "course": 6265,
      "Ġscaling": 6266,
      "leg": 6267,
      "ĠStore": 6268,
      "Ġ\\\")\\": 6269,
      "precision": 6270,
      "\"][\"": 6271,
      "Fo": 6272,
      "incip": 6273,
      "Ġ'')": 6274,
      "Ġspecifies": 6275,
      "ĠGo": 6276,
      "Ġintervals": 6277,
      "CI": 6278,
      "Please": 6279,
      "QU": 6280,
      "Ġconvolution": 6281,
      "Ġmedia": 6282,
      "imize": 6283,
      "Ġobjective": 6284,
      "ĠHello": 6285,
      "submit": 6286,
      "ĠConnect": 6287,
      "Start": 6288,
      "Ġassertions": 6289,
      "Eng": 6290,
      "dence": 6291,
      "hist": 6292,
      "coordinate": 6293,
      "igen": 6294,
      "ĠAWS": 6295,
      "exc": 6296,
      "john": 6297,
      "Ġartifact": 6298,
      "neighbors": 6299,
      "Ġ`@": 6300,
      "ensors": 6301,
      "exce": 6302,
      "router": 6303,
      "Ġcanvas": 6304,
      "bg": 6305,
      "pache": 6306,
      "(\"/": 6307,
      "Ġwhose": 6308,
      "osition": 6309,
      "Ġlowest": 6310,
      "Ġblob": 6311,
      "Ġinterpre": 6312,
      "Implemented": 6313,
      "Ġrotation": 6314,
      "Ġspecifying": 6315,
      ",\"": 6316,
      "EMAIL": 6317,
      "UC": 6318,
      "js": 6319,
      "stock": 6320,
      "proxy": 6321,
      "ĠFahrenheit": 6322,
      "percentage": 6323,
      "minor": 6324,
      "ALL": 6325,
      "Ġmonthly": 6326,
      "Ġadjacent": 6327,
      "03": 6328,
      "employee": 6329,
      "appear": 6330,
      "Ġignored": 6331,
      "extensions": 6332,
      "cuda": 6333,
      "abstract": 6334,
      "Ġexport": 6335,
      "redu": 6336,
      "Ġsubstitut": 6337,
      "Ġexpand": 6338,
      "students": 6339,
      "Ġwarnings": 6340,
      "brackets": 6341,
      "FS": 6342,
      "LP": 6343,
      "Mode": 6344,
      "cross": 6345,
      "Ġeps": 6346,
      "namespace": 6347,
      "Ġiterates": 6348,
      "'],\\": 6349,
      "Ġcircular": 6350,
      "aintext": 6351,
      "Game": 6352,
      "[^": 6353,
      "evaluate": 6354,
      "kit": 6355,
      "Parameters": 6356,
      "Ġpygame": 6357,
      "Ġpyglet": 6358,
      "Ġcapacity": 6359,
      "Ġplayers": 6360,
      "HER": 6361,
      "]]\\": 6362,
      "gcd": 6363,
      "Ġtab": 6364,
      "Ġflow": 6365,
      "gorithms": 6366,
      "Ġnet": 6367,
      "Ġ({": 6368,
      "conn": 6369,
      "owel": 6370,
      "logits": 6371,
      "creasing": 6372,
      "Ġconverting": 6373,
      "Ġjoin": 6374,
      "Ġtrigger": 6375,
      "Document": 6376,
      "From": 6377,
      "Is": 6378,
      "repe": 6379,
      "Ġcumulative": 6380,
      "ĠError": 6381,
      "ĠValue": 6382,
      "Ġauto": 6383,
      "expand": 6384,
      "ĠSpecific": 6385,
      "false": 6386,
      "gent": 6387,
      "Ġwater": 6388,
      "mock": 6389,
      "shuffle": 6390,
      "INFO": 6391,
      "Explanation": 6392,
      "Ġfails": 6393,
      "Ġholds": 6394,
      "ĠEnglish": 6395,
      "cm": 6396,
      "member": 6397,
      "ĠAs": 6398,
      "trip": 6399,
      "77": 6400,
      "zen": 6401,
      "ãĤ": 6402,
      "instances": 6403,
      "caps": 6404,
      "exceptions": 6405,
      "sin": 6406,
      "reet": 6407,
      "entropy": 6408,
      "ĠĠĠĠĠĠĠĠĠĠĠĠ": 6409,
      "Ġexpon": 6410,
      "Ġ{}\".": 6411,
      "Ġworks": 6412,
      "Ġstatements": 6413,
      "Alter": 6414,
      "Ġdelimiter": 6415,
      "Ġrendering": 6416,
      "Level": 6417,
      "MIT": 6418,
      "fahrenheit": 6419,
      "ancial": 6420,
      "cases": 6421,
      "Ġdecorated": 6422,
      "Ġquantum": 6423,
      ")`.": 6424,
      "ox": 6425,
      "Ġstage": 6426,
      "hood": 6427,
      "128": 6428,
      "ALU": 6429,
      "!')": 6430,
      "?,": 6431,
      "}}": 6432,
      "ĠPost": 6433,
      "Ġfold": 6434,
      "Ġtkinter": 6435,
      "Min": 6436,
      "hesis": 6437,
      "rectangle": 6438,
      "Ġiterator": 6439,
      "blocks": 6440,
      "Ġflattened": 6441,
      "Group": 6442,
      "vec": 6443,
      "Ġrating": 6444,
      "Ġcurve": 6445,
      "Ġjoint": 6446,
      "Ġvalidated": 6447,
      "Ġtargets": 6448,
      "ridge": 6449,
      "velocity": 6450,
      "Ġmany": 6451,
      "Ġstructures": 6452,
      "Ġpixels": 6453,
      "Ġsatisfy": 6454,
      "Ġissues": 6455,
      "Ġarchitecture": 6456,
      "adecimal": 6457,
      "AI": 6458,
      "Layer": 6459,
      "dm": 6460,
      "cer": 6461,
      "cancel": 6462,
      "rout": 6463,
      "aclass": 6464,
      "ĠJohn": 6465,
      "compare": 6466,
      "Ġparticular": 6467,
      "Go": 6468,
      "NS": 6469,
      "Ġmusic": 6470,
      "izz": 6471,
      "Ġcombine": 6472,
      "TT": 6473,
      "Ġmed": 6474,
      "olver": 6475,
      "Ġspeech": 6476,
      "ĠOF": 6477,
      "questions": 6478,
      "ĠMove": 6479,
      ")`,": 6480,
      "Device": 6481,
      "ummy": 6482,
      "quential": 6483,
      "listen": 6484,
      "clar": 6485,
      "Ġmanner": 6486,
      "Ġcomputes": 6487,
      "policy": 6488,
      "Ġfilenames": 6489,
      "catenate": 6490,
      "DP": 6491,
      "dr": 6492,
      "dst": 6493,
      "half": 6494,
      "vl": 6495,
      "atible": 6496,
      "proj": 6497,
      "Ġavailability": 6498,
      "Ġsupports": 6499,
      "yy": 6500,
      "Ġ]\\": 6501,
      "Ġsci": 6502,
      "Ġ34": 6503,
      "Ġchecked": 6504,
      "Ġowner": 6505,
      "dp": 6506,
      "den": 6507,
      "mak": 6508,
      "vered": 6509,
      "Ġexperi": 6510,
      "Ġchart": 6511,
      "Ġ\\\"/": 6512,
      "Ġparticle": 6513,
      "Ġconcatenated": 6514,
      "Ġorganization": 6515,
      "Red": 6516,
      "Random": 6517,
      "Ġslow": 6518,
      "Ġbits": 6519,
      "iles": 6520,
      "Ġsubdirectories": 6521,
      "exist": 6522,
      "DEF": 6523,
      "Attributes": 6524,
      "au": 6525,
      "lined": 6526,
      "screen": 6527,
      "ptime": 6528,
      "Ġintensity": 6529,
      "angular": 6530,
      "functions": 6531,
      "frames": 6532,
      "connected": 6533,
      "Thread": 6534,
      "Ġsmaller": 6535,
      "Ġwave": 6536,
      "Ġdecomp": 6537,
      "aster": 6538,
      "INE": 6539,
      "Ġ\"\")": 6540,
      "Ġgreen": 6541,
      "latest": 6542,
      "dec": 6543,
      "Ġbias": 6544,
      "Ġdynamic": 6545,
      "Ġanchor": 6546,
      "ĠĠĠĠĠĠĠĠĠĠčĊ": 6547,
      "Ġ28": 6548,
      "ĠNew": 6549,
      "actual": 6550,
      "rength": 6551,
      "sumer": 6552,
      "Ġgrace": 6553,
      "docs": 6554,
      "Ġele": 6555,
      "ĠPDF": 6556,
      "Ġdecision": 6557,
      "]))\\": 6558,
      "Ġtraversal": 6559,
      "Ġwere": 6560,
      "Ġentire": 6561,
      "MAX": 6562,
      "jobs": 6563,
      "Ġmaps": 6564,
      "Ġtrace": 6565,
      "timeError": 6566,
      "loader": 6567,
      "subprocess": 6568,
      "Ġoptimal": 6569,
      "Ġnormalization": 6570,
      "Ġfilling": 6571,
      "Order": 6572,
      "ERROR": 6573,
      "Back": 6574,
      "It": 6575,
      "tmp": 6576,
      "orary": 6577,
      "arity": 6578,
      "Ġband": 6579,
      "__.": 6580,
      "eter": 6581,
      "Ġdegrees": 6582,
      "tand": 6583,
      "keywords": 6584,
      "Ġobserv": 6585,
      "ĠMake": 6586,
      "ĠGe": 6587,
      "Ġconstructs": 6588,
      "789": 6589,
      "Ġjumps": 6590,
      "nCreate": 6591,
      "scope": 6592,
      "Ġmill": 6593,
      "quet": 6594,
      "Programming": 6595,
      "Ġ128": 6596,
      "ongo": 6597,
      "Ġtimestamps": 6598,
      "direction": 6599,
      "Ġsubsequence": 6600,
      "Ġsends": 6601,
      "86": 6602,
      "Ġtrip": 6603,
      "Ġprinting": 6604,
      "getitem": 6605,
      "Ġalias": 6606,
      "ops": 6607,
      "precated": 6608,
      "HTML": 6609,
      "pending": 6610,
      "Ġfinding": 6611,
      "Ġconditional": 6612,
      "YYYY": 6613,
      "MODE": 6614,
      ">\",": 6615,
      ">`,": 6616,
      "uby": 6617,
      "ĠLinked": 6618,
      "Ġperimeter": 6619,
      "ĠJava": 6620,
      "Ġoutlined": 6621,
      "Ġarticles": 6622,
      "Ġplaceholders": 6623,
      "Ġtransforms": 6624,
      "schedule": 6625,
      ".\\\"\\": 6626,
      "izers": 6627,
      "ĠOr": 6628,
      "clip": 6629,
      "ached": 6630,
      "disk": 6631,
      "tokenizer": 6632,
      "configs": 6633,
      "ios": 6634,
      "Ġpickle": 6635,
      "()))": 6636,
      "'))\\": 6637,
      "ĠBu": 6638,
      "Ġconfigured": 6639,
      "ĠHttp": 6640,
      "hostname": 6641,
      "USER": 6642,
      "Regist": 6643,
      "browser": 6644,
      "\"]:": 6645,
      "({\"": 6646,
      "edges": 6647,
      "isbn": 6648,
      "ĠĠĠĠĠĠĠĠĠĠĠĠĠĠĠĠĠĠĠĠ": 6649,
      "Ġendpoints": 6650,
      "127": 6651,
      "Ġurls": 6652,
      "Ġsquared": 6653,
      "Ġdirectly": 6654,
      "Computer": 6655,
      "ĠSpecifically": 6656,
      "Ġgracefully": 6657,
      "tn": 6658,
      "Ġren": 6659,
      "Ġdone": 6660,
      "Ġexact": 6661,
      "))]": 6662,
      "dicts": 6663,
      "Ġproviding": 6664,
      "lm": 6665,
      "rozen": 6666,
      "Ġ`\"": 6667,
      "ctionary": 6668,
      "icode": 6669,
      "Ġ[('": 6670,
      "abe": 6671,
      "matches": 6672,
      "Ġstarted": 6673,
      "ugins": 6674,
      "buf": 6675,
      "Ġrounded": 6676,
      "VI": 6677,
      "Ġ36": 6678,
      "Ġ<<": 6679,
      "Convert": 6680,
      "initialize": 6681,
      "identifier": 6682,
      "Action": 6683,
      "Store": 6684,
      "Ġbeh": 6685,
      "Ġsegments": 6686,
      "parsed": 6687,
      "Ġsubscri": 6688,
      "staur": 6689,
      "squared": 6690,
      "pkg": 6691,
      "permissions": 6692,
      "smtp": 6693,
      "tar": 6694,
      "Ġrecur": 6695,
      "ĠForm": 6696,
      "ĠOn": 6697,
      "Ġconcatenate": 6698,
      "Ġdownloaded": 6699,
      "factory": 6700,
      "equal": 6701,
      "Ġdue": 6702,
      "ĠAnd": 6703,
      "Ġpassing": 6704,
      "LETE": 6705,
      "DEBUG": 6706,
      "neighbor": 6707,
      "PORT": 6708,
      "ktop": 6709,
      "Ġincomplete": 6710,
      "mainder": 6711,
      "crimin": 6712,
      "green": 6713,
      "emonstr": 6714,
      "Fact": 6715,
      "Link": 6716,
      "Words": 6717,
      "Welcome": 6718,
      "aiter": 6719,
      "ny": 6720,
      "opping": 6721,
      "Ġcube": 6722,
      "ĠSu": 6723,
      "foo": 6724,
      "vertices": 6725,
      "ENSE": 6726,
      "Ġbanking": 6727,
      "Admin": 6728,
      "Ġcoefficients": 6729,
      "Binary": 6730,
      "Tag": 6731,
      "recursive": 6732,
      "eration": 6733,
      "Ġmesh": 6734,
      "Ġaliases": 6735,
      "Ġcomma": 6736,
      "Ġtracking": 6737,
      "ĠTraverse": 6738,
      "Script": 6739,
      "WH": 6740,
      "shell": 6741,
      "Ġdat": 6742,
      "Ġ'+": 6743,
      "Ġ\\\")": 6744,
      "emory": 6745,
      "expr": 6746,
      "ĠGener": 6747,
      "dians": 6748,
      "28": 6749,
      "iler": 6750,
      "setting": 6751,
      "irs": 6752,
      "arry": 6753,
      "ĠMulti": 6754,
      "Ext": 6755,
      "Ġdon": 6756,
      "Ġ\"{": 6757,
      "Ġvariance": 6758,
      "Ġdescript": 6759,
      "vention": 6760,
      "Ġphrase": 6761,
      "Ġfulfills": 6762,
      "Format": 6763,
      "ierarch": 6764,
      "ĠFinally": 6765,
      "ĠTODO": 6766,
      "Ġnltk": 6767,
      "abeled": 6768,
      "/',": 6769,
      "27": 6770,
      "Session": 6771,
      "Ġaugment": 6772,
      "isupper": 6773,
      "capacity": 6774,
      "Ġdeleting": 6775,
      "Ġpurposes": 6776,
      "appearance": 6777,
      "remote": 6778,
      "entities": 6779,
      "emails": 6780,
      "multiply": 6781,
      "ountered": 6782,
      "boolean": 6783,
      "Ġsubse": 6784,
      "arrays": 6785,
      "previous": 6786,
      "Ġruns": 6787,
      "Fl": 6788,
      "Suggest": 6789,
      "dates": 6790,
      "ef": 6791,
      "tup": 6792,
      "Ġprinted": 6793,
      "Ġmajor": 6794,
      "Ġweather": 6795,
      "boxes": 6796,
      "Ġserialized": 6797,
      "ĠValidate": 6798,
      "29": 6799,
      "uzz": 6800,
      "Ġpresence": 6801,
      "ImplementedError": 6802,
      "UID": 6803,
      "cape": 6804,
      "sizes": 6805,
      "udo": 6806,
      "algorithm": 6807,
      "strptime": 6808,
      "ĠCTk": 6809,
      "Ġmodification": 6810,
      "iseconds": 6811,
      "logy": 6812,
      "Ġinteraction": 6813,
      "Ġstreaming": 6814,
      "Ġcontinuous": 6815,
      "Ġfigure": 6816,
      "ĉčĊ": 6817,
      "strategy": 6818,
      "ĠMock": 6819,
      "lengths": 6820,
      "sentences": 6821,
      "ĠAppend": 6822,
      "separated": 6823,
      "Bl": 6824,
      "ool": 6825,
      "ĠFound": 6826,
      "configuration": 6827,
      "attery": 6828,
      "tokenize": 6829,
      "Ġscissors": 6830,
      "Ġpolynomial": 6831,
      "Ġswitch": 6832,
      "Charlie": 6833,
      "adjac": 6834,
      ")])": 6835,
      "])):": 6836,
      "feed": 6837,
      "crete": 6838,
      "flags": 6839,
      "tandard": 6840,
      "allen": 6841,
      "Ġ\"--": 6842,
      "Ġflip": 6843,
      "argin": 6844,
      "copyright": 6845,
      "Ġthreads": 6846,
      "Integer": 6847,
      "(**": 6848,
      "We": 6849,
      "dice": 6850,
      "Ġcmd": 6851,
      "Ġann": 6852,
      "subscri": 6853,
      "Ġsides": 6854,
      "Struct": 6855,
      "Ġincreasing": 6856,
      "require": 6857,
      "simulate": 6858,
      ").\"\"\"": 6859,
      "67": 6860,
      "Post": 6861,
      "wn": 6862,
      "Ġsound": 6863,
      "ough": 6864,
      "icate": 6865,
      "__)": 6866,
      "Ġmeta": 6867,
      "()}": 6868,
      "Ġdirections": 6869,
      "iples": 6870,
      "emy": 6871,
      "argparse": 6872,
      "abcdef": 6873,
      "predicted": 6874,
      "Matrix": 6875,
      "aa": 6876,
      "lim": 6877,
      "nor": 6878,
      "Ġhorizontal": 6879,
      "Ġlex": 6880,
      "Connect": 6881,
      "Ġcomputed": 6882,
      "distances": 6883,
      "slug": 6884,
      "Ġagainst": 6885,
      "Extract": 6886,
      "stderr": 6887,
      "Ġresized": 6888,
      "'),\\": 6889,
      "Ġsums": 6890,
      "ĠBinary": 6891,
      "Ġrouter": 6892,
      "Ġestablish": 6893,
      "Sa": 6894,
      "fast": 6895,
      "mul": 6896,
      "Ġdensity": 6897,
      "ĠPerson": 6898,
      "Ġparagraph": 6899,
      "listdir": 6900,
      "Ġsignals": 6901,
      "priority": 6902,
      "ominator": 6903,
      "Ġpiece": 6904,
      "Graph": 6905,
      "paces": 6906,
      "rev": 6907,
      "Ġbug": 6908,
      "aily": 6909,
      "Ġmanipulate": 6910,
      "Controller": 6911,
      "Ġtweet": 6912,
      "Ġpatient": 6913,
      "Ġcookie": 6914,
      "isalpha": 6915,
      "positions": 6916,
      "Ġencountered": 6917,
      "48": 6918,
      "clock": 6919,
      "simple": 6920,
      "wb": 6921,
      "Ġcould": 6922,
      "Conv": 6923,
      ".'": 6924,
      "roy": 6925,
      "Ġmass": 6926,
      "ĠĠĠĠĠĠĠĠĠĠĠĠĠĠ": 6927,
      "ĠCPU": 6928,
      "'][": 6929,
      "Ġcompound": 6930,
      "ĠGiven": 6931,
      "ĠIndex": 6932,
      "INT": 6933,
      "modified": 6934,
      "Ġproduces": 6935,
      "Ġdrawing": 6936,
      "analysis": 6937,
      "31": 6938,
      "CM": 6939,
      "Cre": 6940,
      "Download": 6941,
      "witter": 6942,
      "Ġsources": 6943,
      "aring": 6944,
      "ulse": 6945,
      "coefficient": 6946,
      "Ġshapes": 6947,
      "gray": 6948,
      "phrase": 6949,
      "collect": 6950,
      "Ġcontroller": 6951,
      "Ġcomputation": 6952,
      "Change": 6953,
      "Ġdelta": 6954,
      "CharField": 6955,
      "Ġhexadecimal": 6956,
      "incipal": 6957,
      "Library": 6958,
      "ulated": 6959,
      "ĠCLI": 6960,
      "shard": 6961,
      "ometric": 6962,
      "CESS": 6963,
      "Part": 6964,
      "_(": 6965,
      "mot": 6966,
      "nNote": 6967,
      "tab": 6968,
      "plain": 6969,
      "calcul": 6970,
      "runner": 6971,
      "Ġrespond": 6972,
      "Ġdetermined": 6973,
      "Ġattack": 6974,
      "Ġinverse": 6975,
      "ifest": 6976,
      "Ġ%(": 6977,
      "Methods": 6978,
      "Engine": 6979,
      "mstrong": 6980,
      "Ġturtle": 6981,
      "processes": 6982,
      "ĠEuclidean": 6983,
      "Ġgenetic": 6984,
      "Ġdenoted": 6985,
      "Me": 6986,
      "NING": 6987,
      "Update": 6988,
      "Ġsizes": 6989,
      "Ġcoverage": 6990,
      "accur": 6991,
      "maz": 6992,
      "ilon": 6993,
      "ĠMessage": 6994,
      "Ġextracting": 6995,
      "worker": 6996,
      "spaces": 6997,
      "flict": 6998,
      "LIC": 6999,
      "-{": 7000,
      "Age": 7001,
      "dc": 7002,
      "origin": 7003,
      "Ġretry": 7004,
      "Ġinser": 7005,
      "period": 7006,
      "\")`": 7007,
      "001": 7008,
      "licenses": 7009,
      "chemy": 7010,
      "background": 7011,
      "1111": 7012,
      "updated": 7013,
      "WT": 7014,
      "Ġdelay": 7015,
      "ĠInd": 7016,
      "...\")": 7017,
      "flatten": 7018,
      "vm": 7019,
      "req": 7020,
      "orrent": 7021,
      "Ġdy": 7022,
      "Ġmis": 7023,
      "Ġresolution": 7024,
      "Ġwho": 7025,
      "ĠDemonstr": 7026,
      "without": 7027,
      "Ġcallable": 7028,
      "tuples": 7029,
      "SCII": 7030,
      "Pol": 7031,
      "Source": 7032,
      "Writer": 7033,
      "}\"\"\"": 7034,
      "Ġ`{": 7035,
      "Ġ\"%": 7036,
      "gether": 7037,
      "visual": 7038,
      "capitalize": 7039,
      "kes": 7040,
      "ping": 7041,
      "Ġ],": 7042,
      "Ġcalculations": 7043,
      "compress": 7044,
      "SET": 7045,
      "}'.": 7046,
      "Ġestim": 7047,
      "reshape": 7048,
      "Ġnorm": 7049,
      "']\"\"\"": 7050,
      "ĠMark": 7051,
      "Ġcorrectness": 7052,
      "Ġcached": 7053,
      "Ġpartially": 7054,
      "rupt": 7055,
      "Ġmeasurement": 7056,
      "ĠAccept": 7057,
      "Access": 7058,
      "sses": 7059,
      "ylabel": 7060,
      "repositories": 7061,
      "Ġdjango": 7062,
      "olid": 7063,
      "Ġencaps": 7064,
      "interface": 7065,
      "Ġmylist": 7066,
      "Ġmeaning": 7067,
      "Average": 7068,
      "wer": 7069,
      "Ġ)\\": 7070,
      "rott": 7071,
      "oter": 7072,
      "ĠSV": 7073,
      "ĠSHA": 7074,
      "variance": 7075,
      "'<": 7076,
      "basic": 7077,
      "gr": 7078,
      "Ġbind": 7079,
      "hover": 7080,
      "caler": 7081,
      "subject": 7082,
      "discount": 7083,
      "ĠResponse": 7084,
      "Ġdynamically": 7085,
      "la": 7086,
      "orn": 7087,
      "Ġlr": 7088,
      "Ġ':": 7089,
      "Ġseq": 7090,
      "ignore": 7091,
      "Ġquotes": 7092,
      "9999": 7093,
      "Ġsaves": 7094,
      "alphabet": 7095,
      "Ġlocations": 7096,
      "'})": 7097,
      "/'": 7098,
      "79": 7099,
      "Rect": 7100,
      "cule": 7101,
      "smallest": 7102,
      "Ġtz": 7103,
      "ernet": 7104,
      "Ġshif": 7105,
      "ĠPlot": 7106,
      "Ġsuite": 7107,
      "ERS": 7108,
      "Ġsimulating": 7109,
      "Ġflat": 7110,
      "buy": 7111,
      "ĠOpenCV": 7112,
      "Ġunders": 7113,
      "walk": 7114,
      "align": 7115,
      "Ġdump": 7116,
      "Ġ'').": 7117,
      "olved": 7118,
      "bos": 7119,
      "Ġbuilder": 7120,
      "helper": 7121,
      "Ġfinally": 7122,
      "Ġroutes": 7123,
      "300": 7124,
      ":]:\\": 7125,
      "mount": 7126,
      "members": 7127,
      "uest": 7128,
      "apache": 7129,
      "ĠMax": 7130,
      "cluding": 7131,
      "Ġtransition": 7132,
      "cursively": 7133,
      "ĠTreeNode": 7134,
      "ithmet": 7135,
      "ything": 7136,
      "joint": 7137,
      "Ġblack": 7138,
      "detect": 7139,
      "ithmetic": 7140,
      "LA": 7141,
      "rer": 7142,
      "Ġrem": 7143,
      "Ġrear": 7144,
      "ished": 7145,
      "Ġdisable": 7146,
      "ashboard": 7147,
      "Ġloads": 7148,
      "Ġissue": 7149,
      "Ġreduce": 7150,
      "Ġhistogram": 7151,
      "Analyzer": 7152,
      "HERE": 7153,
      "\"\\": 7154,
      "Ġscheme": 7155,
      "Ġtogether": 7156,
      "ilation": 7157,
      "ĠInter": 7158,
      "ĠCalcul": 7159,
      "ĠOS": 7160,
      "Ġending": 7161,
      "Ġmatplotlib": 7162,
      "={'": 7163,
      "Open": 7164,
      "fect": 7165,
      "treturn": 7166,
      "vin": 7167,
      "inv": 7168,
      "resize": 7169,
      "trace": 7170,
      "Ġparentheses": 7171,
      "WHITE": 7172,
      ")\",": 7173,
      "echo": 7174,
      "Ġ),": 7175,
      "Ġfall": 7176,
      "ellow": 7177,
      "ĠSend": 7178,
      "Ġleg": 7179,
      "Ġpercent": 7180,
      "]:`": 7181,
      "]]\"\"\"": 7182,
      "Validator": 7183,
      "Ġembeddings": 7184,
      "Ġguide": 7185,
      "Serializer": 7186,
      ">{": 7187,
      "NU": 7188,
      "Row": 7189,
      "gmail": 7190,
      "xlabel": 7191,
      "esar": 7192,
      "Ġorient": 7193,
      "antic": 7194,
      "ĠRuby": 7195,
      "Ġblockchain": 7196,
      "greater": 7197,
      "Address": 7198,
      "Ġiniti": 7199,
      "ĠSwap": 7200,
      "GE": 7201,
      "segment": 7202,
      "Ġhalf": 7203,
      "ĠNe": 7204,
      "Ġnewline": 7205,
      "Ġsublist": 7206,
      "offsets": 7207,
      "accuracy": 7208,
      "LD": 7209,
      "bon": 7210,
      "found": 7211,
      "Ġfake": 7212,
      "icates": 7213,
      "Ġcos": 7214,
      "Ġreser": 7215,
      "ĠStop": 7216,
      "triangle": 7217,
      "Ġquality": 7218,
      "handlers": 7219,
      "Ġauthenticate": 7220,
      "sat": 7221,
      "Ġmeas": 7222,
      "Ġdecoding": 7223,
      "ĠEmail": 7224,
      "earning": 7225,
      "suffix": 7226,
      "integers": 7227,
      "Ġnumeric": 7228,
      "skip": 7229,
      "annotations": 7230,
      "Ġmagnitude": 7231,
      "Ġautomatically": 7232,
      "Qt": 7233,
      "bb": 7234,
      "gz": 7235,
      "oom": 7236,
      "signature": 7237,
      "atched": 7238,
      "\\\"))": 7239,
      "cov": 7240,
      "Ġcurrency": 7241,
      "processor": 7242,
      "episode": 7243,
      "Ġ//=": 7244,
      "ITY": 7245,
      "note": 7246,
      "Ġjobs": 7247,
      "Sorted": 7248,
      "enshtein": 7249,
      "]',": 7250,
      "cla": 7251,
      "Ġgrad": 7252,
      "PASS": 7253,
      "eng": 7254,
      "seudo": 7255,
      "produ": 7256,
      "ĠInst": 7257,
      "Ġraises": 7258,
      "Ġtechn": 7259,
      "fp": 7260,
      "pickle": 7261,
      "edirs": 7262,
      "Ġspect": 7263,
      "completed": 7264,
      "Ġserializer": 7265,
      "learn": 7266,
      "Running": 7267,
      "divisor": 7268,
      "Ġtheta": 7269,
      "Ġmoney": 7270,
      "ĠAll": 7271,
      "Ġmaze": 7272,
      "imshow": 7273,
      "Ġtrajectory": 7274,
      "Ġperm": 7275,
      "Ġsubnet": 7276,
      "Profile": 7277,
      "Ġloader": 7278,
      "Ġbackup": 7279,
      "Ġhashlib": 7280,
      "Ġ},\\": 7281,
      "Operation": 7282,
      "ggle": 7283,
      "makedirs": 7284,
      "'`,": 7285,
      "`),": 7286,
      "iqu": 7287,
      "nan": 7288,
      "Ġ27": 7289,
      "Ġtrade": 7290,
      "Define": 7291,
      "Ġsurface": 7292,
      "Dif": 7293,
      "ks": 7294,
      "}\".": 7295,
      "Ġ`[\"": 7296,
      "Ġmess": 7297,
      "filters": 7298,
      "Ġfailure": 7299,
      "ĠClient": 7300,
      "ĠâĢ": 7301,
      "As": 7302,
      "Ġcry": 7303,
      "maps": 7304,
      "related": 7305,
      "'`": 7306,
      "Car": 7307,
      "Fore": 7308,
      "Job": 7309,
      "Ġcoin": 7310,
      "('%": 7311,
      "cloud": 7312,
      "Ġ70": 7313,
      "cipher": 7314,
      "Ġtweets": 7315,
      "Ġhuman": 7316,
      "Ġquot": 7317,
      "leton": 7318,
      "Ġprimary": 7319,
      "gene": 7320,
      "Ġstdout": 7321,
      "################################": 7322,
      "Ġrecommend": 7323,
      "Pa": 7324,
      "br": 7325,
      "Ġair": 7326,
      "orig": 7327,
      "quit": 7328,
      "ĠAI": 7329,
      "ĠSystem": 7330,
      "Ġtaking": 7331,
      "Ġappended": 7332,
      "\"].": 7333,
      "Ġpacket": 7334,
      "organ": 7335,
      "ĠOtherwise": 7336,
      "Ġexactly": 7337,
      "HI": 7338,
      "})\\": 7339,
      "alert": 7340,
      "Ġdr": 7341,
      "Ġmeets": 7342,
      "Ġanimation": 7343,
      "Ġservices": 7344,
      "workers": 7345,
      "Ġaccessible": 7346,
      "anagrams": 7347,
      "ĠRegist": 7348,
      "NI": 7349,
      "bank": 7350,
      "rice": 7351,
      "Ġouter": 7352,
      "detail": 7353,
      "Ġdx": 7354,
      "uniform": 7355,
      "Ġselling": 7356,
      "calc": 7357,
      "Ġends": 7358,
      "charge": 7359,
      "PIO": 7360,
      "Ġtokenize": 7361,
      "lectron": 7362,
      "doe": 7363,
      "Ġpopulate": 7364,
      "properties": 7365,
      "Ġown": 7366,
      "Factory": 7367,
      "!'": 7368,
      "Draw": 7369,
      "reversed": 7370,
      "Ġ65": 7371,
      "subset": 7372,
      "Ġdifferences": 7373,
      "Ġcorrected": 7374,
      "Ġforecast": 7375,
      "Network": 7376,
      "Split": 7377,
      "bias": 7378,
      "closed": 7379,
      "sources": 7380,
      "quote": 7381,
      "Ġprocessor": 7382,
      "Ġpreprocessed": 7383,
      "Ġminor": 7384,
      "ffici": 7385,
      "DEFAULT": 7386,
      "Ġrepeated": 7387,
      "Values": 7388,
      "reduce": 7389,
      "89": 7390,
      "BO": 7391,
      "`).": 7392,
      "Ĥ¬": 7393,
      "ĠApache": 7394,
      "Series": 7395,
      "sigma": 7396,
      "wt": 7397,
      "xies": 7398,
      "Ġforce": 7399,
      "ĠSmith": 7400,
      "artifact": 7401,
      "ourses": 7402,
      "Ġcollections": 7403,
      "Ġunchanged": 7404,
      "ĠWHERE": 7405,
      "Ġgrades": 7406,
      "ĠDatabase": 7407,
      "cached": 7408,
      "Ġactivity": 7409,
      "Ġaccomplish": 7410,
      "probs": 7411,
      "ĠRuntimeError": 7412,
      "Ġconfidence": 7413,
      "typ": 7414,
      "concat": 7415,
      "quire": 7416,
      "Ġquad": 7417,
      "Ġ75": 7418,
      "Ġscheduler": 7419,
      "Ġchoose": 7420,
      "analyze": 7421,
      "09": 7422,
      "uv": 7423,
      "rad": 7424,
      "Ġaround": 7425,
      "Ġdataframe": 7426,
      "Ġnotice": 7427,
      "])**": 7428,
      "Ġ42": 7429,
      "Ġchunks": 7430,
      "CONFI": 7431,
      "VERSION": 7432,
      "AV": 7433,
      "requency": 7434,
      "Initial": 7435,
      "Ġsupp": 7436,
      "slice": 7437,
      "performance": 7438,
      "Ġinterpolation": 7439,
      "07": 7440,
      "Palindrome": 7441,
      "birth": 7442,
      "hs": 7443,
      "imp": 7444,
      "lang": 7445,
      "Ġformed": 7446,
      "Ġeigen": 7447,
      "ĠTotal": 7448,
      "Ġ[{'": 7449,
      "()).": 7450,
      "fox": 7451,
      "ario": 7452,
      "Ġcompression": 7453,
      "ideos": 7454,
      "capt": 7455,
      "hosts": 7456,
      "Ġposts": 7457,
      "celeration": 7458,
      "Ġcapitalize": 7459,
      "Ġmilliseconds": 7460,
      "Copyright": 7461,
      "XY": 7462,
      "guess": 7463,
      "Ġsq": 7464,
      "plugin": 7465,
      "ĠSum": 7466,
      "Ġ*,": 7467,
      "Ġexecutes": 7468,
      "Ġcleanup": 7469,
      "Unknown": 7470,
      "ĠIterable": 7471,
      "allowed": 7472,
      "BN": 7473,
      "fa": 7474,
      "ulum": 7475,
      "oll": 7476,
      ")).": 7477,
      "(\"-": 7478,
      "ĠWAR": 7479,
      "ATCH": 7480,
      "'}\\": 7481,
      "26": 7482,
      "Empty": 7483,
      "emp": 7484,
      "pandas": 7485,
      "uint": 7486,
      "ĠSy": 7487,
      "ĠGraph": 7488,
      "Ġworkflow": 7489,
      "EXT": 7490,
      "mediate": 7491,
      "ysical": 7492,
      "${": 7493,
      ")\")": 7494,
      "dri": 7495,
      "sim": 7496,
      "allet": 7497,
      "rases": 7498,
      "Ġcoins": 7499,
      "cha": 7500,
      "theta": 7501,
      "ographical": 7502,
      "Ġterminal": 7503,
      "SERT": 7504,
      "Ġhypot": 7505,
      "enabled": 7506,
      "Ġbro": 7507,
      "Ġstride": 7508,
      "Ġdeserial": 7509,
      "Ġdialog": 7510,
      "Formatter": 7511,
      "DATA": 7512,
      "pixel": 7513,
      "Ġctypes": 7514,
      "elapsed": 7515,
      "changes": 7516,
      "okies": 7517,
      "pytest": 7518,
      "Ġtemporary": 7519,
      "intersection": 7520,
      "Ġdivisors": 7521,
      "Column": 7522,
      "Ġtransformations": 7523,
      "Missing": 7524,
      "Ġrename": 7525,
      "Ġshopping": 7526,
      "etail": 7527,
      "ĠDo": 7528,
      "ĠUS": 7529,
      "ĠWith": 7530,
      "avor": 7531,
      "anguages": 7532,
      "Ġwrites": 7533,
      "ĠSearch": 7534,
      "06": 7535,
      "One": 7536,
      "oke": 7537,
      "pivot": 7538,
      "ufact": 7539,
      "âĤ¬": 7540,
      "ann": 7541,
      "ĠASCII": 7542,
      "Ġparticles": 7543,
      "Ġtransport": 7544,
      "Ġgradients": 7545,
      "Project": 7546,
      "latin": 7547,
      "Ġslug": 7548,
      "****************": 7549,
      "strap": 7550,
      "staurant": 7551,
      "LICENSE": 7552,
      ")\"": 7553,
      ")*": 7554,
      "future": 7555,
      "Ġsnapshot": 7556,
      "Ġscalar": 7557,
      "orical": 7558,
      "coords": 7559,
      "Ġshared": 7560,
      "ĠUT": 7561,
      "ĠMon": 7562,
      "ĠRandom": 7563,
      "Ġaccessing": 7564,
      "Builder": 7565,
      "TR": 7566,
      "Ġwinner": 7567,
      "une": 7568,
      "converter": 7569,
      "Ġunsorted": 7570,
      "Ġplane": 7571,
      "desc": 7572,
      "monitor": 7573,
      "Ġoverlap": 7574,
      "Ġphase": 7575,
      "ĠStream": 7576,
      "Ġcapitalized": 7577,
      "Ġdevelopment": 7578,
      "Card": 7579,
      "Man": 7580,
      "Pub": 7581,
      "WAR": 7582,
      "ection": 7583,
      "qdm": 7584,
      "hens": 7585,
      "sect": 7586,
      "anel": 7587,
      "tax": 7588,
      "Ġalgorithms": 7589,
      "ĠNetwork": 7590,
      "cli": 7591,
      "Ġchecksum": 7592,
      "Ġorganize": 7593,
      "nsupported": 7594,
      "epochs": 7595,
      ")\\\"\\\"\\\"\\": 7596,
      "yes": 7597,
      "umid": 7598,
      "istical": 7599,
      "Ġexchange": 7600,
      "ĠSc": 7601,
      "ĠOne": 7602,
      "irror": 7603,
      "php": 7604,
      "except": 7605,
      "ĠHe": 7606,
      "company": 7607,
      "Ġidentifiers": 7608,
      "ĠProgram": 7609,
      "Ġinteracting": 7610,
      "builder": 7611,
      "Ġanagram": 7612,
      "Ġfitness": 7613,
      "ĠBook": 7614,
      "Temp": 7615,
      "Ġimprove": 7616,
      "Ġsigmoid": 7617,
      "*):": 7618,
      "eff": 7619,
      "Ġscope": 7620,
      "eli": 7621,
      "comb": 7622,
      "iki": 7623,
      "Person": 7624,
      "TY": 7625,
      "mas": 7626,
      "Ġpasses": 7627,
      "segments": 7628,
      "Ġtoler": 7629,
      "asy": 7630,
      "cience": 7631,
      "ĠĠĠĠĠĠĠĠĠĠĠĠĠĠĠĠĠ": 7632,
      "corpor": 7633,
      "blems": 7634,
      "timestamps": 7635,
      "frac": 7636,
      "ĠAttribute": 7637,
      "Ġsqlite": 7638,
      "CHECK": 7639,
      ")',": 7640,
      "Ge": 7641,
      "NE": 7642,
      "SP": 7643,
      "[\\": 7644,
      "tls": 7645,
      "istant": 7646,
      "plib": 7647,
      "iteral": 7648,
      "prepare": 7649,
      "operator": 7650,
      "ĠStatus": 7651,
      "('/')": 7652,
      "Ġdeployment": 7653,
      "Ident": 7654,
      "MU": 7655,
      "pot": 7656,
      "sensor": 7657,
      "Ġssl": 7658,
      "Ġfahrenheit": 7659,
      "Ġinstrument": 7660,
      "rag": 7661,
      "ensit": 7662,
      "ĠROS": 7663,
      "osp": 7664,
      "corpus": 7665,
      "12345": 7666,
      "Classifier": 7667,
      "Ġbuying": 7668,
      "Ġaltern": 7669,
      "Topic": 7670,
      "AlterField": 7671,
      "AF": 7672,
      "credentials": 7673,
      "Ġclock": 7674,
      "Ġlib": 7675,
      "definit": 7676,
      "Ġglob": 7677,
      "ĠFe": 7678,
      "frequencies": 7679,
      "Parameter": 7680,
      "ĠVerify": 7681,
      "Calcul": 7682,
      "Package": 7683,
      "rgb": 7684,
      "vex": 7685,
      "traction": 7686,
      "Ġ{}'.": 7687,
      "scripts": 7688,
      "forcement": 7689,
      "Ġlookup": 7690,
      "Ġepochs": 7691,
      "permutations": 7692,
      "fficiency": 7693,
      "Loader": 7694,
      "Ã¢": 7695,
      "ongs": 7696,
      "eros": 7697,
      "Ġlik": 7698,
      "configurations": 7699,
      "plicit": 7700,
      "READ": 7701,
      "ORS": 7702,
      "Params": 7703,
      "Shape": 7704,
      "Ġsubsequent": 7705,
      "bc": 7706,
      "timer": 7707,
      "âĦ": 7708,
      "star": 7709,
      "Ġemployees": 7710,
      "coin": 7711,
      "Ġprotein": 7712,
      "otstrap": 7713,
      "oku": 7714,
      "Ġcancel": 7715,
      "Ġsprite": 7716,
      "Ġoverride": 7717,
      "ProcessError": 7718,
      "alledProcessError": 7719,
      "factors": 7720,
      "Ġattrs": 7721,
      "âĤ¬âĦ": 7722,
      "âĤ¬âĦ¢": 7723,
      "->": 7724,
      "Ġ[])": 7725,
      "console": 7726,
      "Ġallowing": 7727,
      "aws": 7728,
      "================================================================": 7729,
      "Ġanalyzing": 7730,
      "ĠNotImplementedError": 7731,
      "payment": 7732,
      "ĠTable": 7733,
      "statement": 7734,
      "statistics": 7735,
      "Ġchildren": 7736,
      "Application": 7737,
      "ĠANY": 7738,
      "Normal": 7739,
      "}`": 7740,
      "Ġtmp": 7741,
      "neg": 7742,
      "ĠGra": 7743,
      "subtract": 7744,
      "([^": 7745,
      "Delete": 7746,
      "ĠComplete": 7747,
      "Ġmarker": 7748,
      "Timeout": 7749,
      "Ġalphabetical": 7750,
      "Cache": 7751,
      "Ġput": 7752,
      "magn": 7753,
      "quick": 7754,
      "ayout": 7755,
      "Ġrates": 7756,
      "STM": 7757,
      "computer": 7758,
      "modify": 7759,
      "Ġremoval": 7760,
      "Ġregistry": 7761,
      "Ġsolutions": 7762,
      "wrapper": 7763,
      "Distance": 7764,
      "Ġapplicable": 7765,
      "ijk": 7766,
      "PASSWORD": 7767,
      "39": 7768,
      "RR": 7769,
      "Usage": 7770,
      "enium": 7771,
      "ĠTh": 7772,
      "Ġcompress": 7773,
      "Ġ1024": 7774,
      "classifiers": 7775,
      "eek": 7776,
      "Ġranges": 7777,
      "constraint": 7778,
      "Gra": 7779,
      "ern": 7780,
      "ering": 7781,
      "Ġmicro": 7782,
      "accept": 7783,
      "Ġshuff": 7784,
      "ĠPoint": 7785,
      "ĠRequest": 7786,
      "Ġknown": 7787,
      "Control": 7788,
      "Sw": 7789,
      "family": 7790,
      "inforcement": 7791,
      "Ġlisten": 7792,
      "Ġ\\\".": 7793,
      "Ġkeyboard": 7794,
      "Ġjust": 7795,
      "Ġhealth": 7796,
      "Ġvalidator": 7797,
      "101": 7798,
      "tables": 7799,
      "Ġgraphical": 7800,
      "Blob": 7801,
      "Score": 7802,
      "fake": 7803,
      "mq": 7804,
      "depart": 7805,
      "geometry": 7806,
      "Ġbrightness": 7807,
      "seline": 7808,
      "ptr": 7809,
      "cons": 7810,
      "Ġuploaded": 7811,
      "ĠBST": 7812,
      "ĠĠĠĠĠĠĠĠĠĠĠĠĠĠĠĠĠĠĠĠĠĠĠĠĠĠĠĠĠĠĠĠĠĠĠ": 7813,
      "Ġflask": 7814,
      "transport": 7815,
      "markdown": 7816,
      "RequestException": 7817,
      "Ġguidelines": 7818,
      "umidity": 7819,
      "PER": 7820,
      "ided": 7821,
      "Ġ'_": 7822,
      "ints": 7823,
      "Ġgues": 7824,
      "ands": 7825,
      "('.')": 7826,
      "mainloop": 7827,
      "Ġeditor": 7828,
      "Sequence": 7829,
      "AP": 7830,
      "Act": 7831,
      "Bit": 7832,
      "RST": 7833,
      "}]": 7834,
      "Ġcore": 7835,
      "Ġshutil": 7836,
      "Ġlisting": 7837,
      "endar": 7838,
      "Ġones": 7839,
      "Ġleap": 7840,
      "ocus": 7841,
      "Ġtranslated": 7842,
      "patient": 7843,
      "onym": 7844,
      ")*(": 7845,
      "Meta": 7846,
      "Ġsmo": 7847,
      "Ġcertificate": 7848,
      "roved": 7849,
      "entries": 7850,
      "ĠCar": 7851,
      "individual": 7852,
      "arts": 7853,
      "Ġ\\\"(\\\"": 7854,
      "Ġnothing": 7855,
      "Ġagents": 7856,
      "Ġannotation": 7857,
      "NT": 7858,
      "Ver": 7859,
      "Volume": 7860,
      "borrow": 7861,
      "rem": 7862,
      "ĠTri": 7863,
      "people": 7864,
      "Ġmemo": 7865,
      "chase": 7866,
      "igher": 7867,
      "ĠIdent": 7868,
      "imread": 7869,
      "imits": 7870,
      "Ġxml": 7871,
      "moj": 7872,
      "Ġlogits": 7873,
      "osite": 7874,
      "ROOT": 7875,
      "AddField": 7876,
      "Ġbuttons": 7877,
      "abcdefgh": 7878,
      "Ġtolerance": 7879,
      "08": 7880,
      "AA": 7881,
      "GHT": 7882,
      "JK": 7883,
      "MENT": 7884,
      "Windows": 7885,
      "balanced": 7886,
      "Ġtw": 7887,
      "cookie": 7888,
      "servers": 7889,
      "tention": 7890,
      "Ġoutcome": 7891,
      "72": 7892,
      ":,": 7893,
      "Ġ\"(\":": 7894,
      "Ġhierarch": 7895,
      "Ġsufficient": 7896,
      "Ġminute": 7897,
      "special": 7898,
      "Ġ\")\":": 7899,
      "(.*?": 7900,
      "GR": 7901,
      "XT": 7902,
      "cpp": 7903,
      "nop": 7904,
      "}_": 7905,
      "ons": 7906,
      "Ġfet": 7907,
      "\"\")": 7908,
      "utdown": 7909,
      "gradient": 7910,
      "ĠFill": 7911,
      "ĠObject": 7912,
      "Ġplaintext": 7913,
      "Cond": 7914,
      "Ġzeros": 7915,
      "targets": 7916,
      "Ġclients": 7917,
      "large": 7918,
      "hexdigest": 7919,
      "eg": 7920,
      "spy": 7921,
      "Ġten": 7922,
      "Ġclassifiers": 7923,
      "Ġexcluding": 7924,
      "ĠLED": 7925,
      "Ġcollis": 7926,
      "ĠGPIO": 7927,
      "validator": 7928,
      "inalg": 7929,
      "crease": 7930,
      "controller": 7931,
      "Ġangles": 7932,
      "Ġsolver": 7933,
      "ufacture": 7934,
      "WA": 7935,
      "WN": 7936,
      "sil": 7937,
      "snapshot": 7938,
      "scan": 7939,
      "Print": 7940,
      "bad": 7941,
      "kg": 7942,
      "Ġquestions": 7943,
      "Ġtr": 7944,
      "osen": 7945,
      "Ġmultiprocessing": 7946,
      "Ġblur": 7947,
      "ADD": 7948,
      "Ġorders": 7949,
      "Ġapprox": 7950,
      "AX": 7951,
      "Pool": 7952,
      "Sk": 7953,
      "Variable": 7954,
      "padding": 7955,
      "}\\\\": 7956,
      "Ã©": 7957,
      "het": 7958,
      "ĠTitle": 7959,
      "articles": 7960,
      "iral": 7961,
      "figure": 7962,
      "ĠBl": 7963,
      "Ġ{},": 7964,
      "means": 7965,
      "Ġpytest": 7966,
      "Ġreceiver": 7967,
      "Ġfeedback": 7968,
      "Agent": 7969,
      "Grid": 7970,
      "bus": 7971,
      "scaled": 7972,
      "Ġsay": 7973,
      "Ġfuel": 7974,
      "Rewrite": 7975,
      "Ġnews": 7976,
      "bye": 7977,
      "compound": 7978,
      "Stat": 7979,
      "Compose": 7980,
      "aises": 7981,
      "Ġfinancial": 7982,
      "Feature": 7983,
      "oxel": 7984,
      "ulumi": 7985,
      "ensitivity": 7986,
      "FOR": 7987,
      "Filter": 7988,
      "ãģ": 7989,
      "Ġerr": 7990,
      "Ġreq": 7991,
      "added": 7992,
      "owns": 7993,
      "ĠMe": 7994,
      "Ġexceed": 7995,
      "dirname": 7996,
      "parents": 7997,
      "dependent": 7998,
      "Callable": 7999,
      "SOCK": 8000,
      "activation": 8001,
      "Position": 8002,
      "routes": 8003,
      "mazon": 8004,
      "elihood": 8005,
      "CalledProcessError": 8006,
      "mart": 8007,
      "water": 8008,
      "Ġpick": 8009,
      "oute": 8010,
      "Ġincorrect": 8011,
      "Ġdegree": 8012,
      "]]`": 8013,
      "Ġcontract": 8014,
      "ĠCompare": 8015,
      "contains": 8016,
      "CONFIG": 8017,
      "Ġ\\\"(\\\":\\": 8018,
      "EV": 8019,
      "}',": 8020,
      "Ġpow": 8021,
      "oub": 8022,
      "ulary": 8023,
      "Ġdetail": 8024,
      "Ġpopular": 8025,
      "Ġ\\\"\\\"))": 8026,
      "Ġ\\\"\\\"))\\": 8027,
      "Ġpublish": 8028,
      "Ġdefinitions": 8029,
      "ertionError": 8030,
      "Ġ\\\")\\\":\\": 8031,
      "Make": 8032,
      "PUT": 8033,
      "imag": 8034,
      "}'\\": 8035,
      "encrypted": 8036,
      "Ġrecursively": 8037,
      "Ġlaunch": 8038,
      "Ġisbn": 8039,
      "Ġconflict": 8040,
      "()\"\"\"": 8041,
      "Ġarithmetic": 8042,
      "Ġdeck": 8043,
      "pline": 8044,
      "Ġ\\\\\\": 8045,
      "experi": 8046,
      "ĠWindows": 8047,
      "relations": 8048,
      "Ġchemical": 8049,
      "Ġexponent": 8050,
      "'m": 8051,
      "WE": 8052,
      "What": 8053,
      "inp": 8054,
      "Ġ[`": 8055,
      "Ġwrapped": 8056,
      "Ġrouting": 8057,
      "Loop": 8058,
      "Med": 8059,
      "Options": 8060,
      "nx": 8061,
      "ini": 8062,
      "Ġaux": 8063,
      "redirect": 8064,
      "Ġreached": 8065,
      "Ġ256": 8066,
      "ĠNormal": 8067,
      "clone": 8068,
      "ĠServer": 8069,
      "Bar": 8070,
      "Ġtie": 8071,
      "\\\"))\\": 8072,
      "Ġdeclar": 8073,
      "Ġhandled": 8074,
      "reement": 8075,
      "Ġdesc": 8076,
      "Ġurllib": 8077,
      "Ġbackward": 8078,
      "AND": 8079,
      "CODE": 8080,
      "Ġfully": 8081,
      "contiguous": 8082,
      "Ġmiddleware": 8083,
      ")],": 8084,
      "NOT": 8085,
      "irect": 8086,
      "linalg": 8087,
      "qrst": 8088,
      "rates": 8089,
      "solve": 8090,
      "warn": 8091,
      "ascal": 8092,
      "ĠCHE": 8093,
      "Ġnotes": 8094,
      "filepath": 8095,
      "served": 8096,
      "phase": 8097,
      "Ġregions": 8098,
      "]]:\\": 8099,
      "Ġpublisher": 8100,
      "preds": 8101,
      "Ġestimate": 8102,
      "constant": 8103,
      "alty": 8104,
      "Ġdropout": 8105,
      "ĠGoogle": 8106,
      "AUT": 8107,
      "LL": 8108,
      "free": 8109,
      "kw": 8110,
      "oval": 8111,
      "winner": 8112,
      "}')\\": 8113,
      "ensed": 8114,
      "Ġreferences": 8115,
      "Ġdeprecated": 8116,
      "Ġalert": 8117,
      "ĠSee": 8118,
      "ĉĉĉ": 8119,
      "Ġcirc": 8120,
      "Ġboundary": 8121,
      "private": 8122,
      "Ġvertical": 8123,
      "Ġbehaves": 8124,
      "bet": 8125,
      "orter": 8126,
      "Ġaccessed": 8127,
      "minute": 8128,
      "mpler": 8129,
      "MPLE": 8130,
      "+\\": 8131,
      "54": 8132,
      "tw": 8133,
      "Ġscaled": 8134,
      "Ġtoday": 8135,
      "editor": 8136,
      "ivers": 8137,
      "ĠST": 8138,
      "testing": 8139,
      "logical": 8140,
      "Ġfloats": 8141,
      "Description": 8142,
      "years": 8143,
      "Ġoperators": 8144,
      "Ġpeople": 8145,
      "ĠSVG": 8146,
      "DK": 8147,
      "PQ": 8148,
      "Rate": 8149,
      "after": 8150,
      "wxyz": 8151,
      "atin": 8152,
      "encoder": 8153,
      "Ġcandidate": 8154,
      "Ġreinforcement": 8155,
      "Ġda": 8156,
      "Ġmacro": 8157,
      "ots": 8158,
      "Ġrand": 8159,
      "Ġmag": 8160,
      "Ġcalibr": 8161,
      "2020": 8162,
      "Ġ''\\": 8163,
      "mylist": 8164,
      "Ġstatistical": 8165,
      "Environment": 8166,
      "distribution": 8167,
      "ĠLinkedList": 8168,
      "Ġencapsulates": 8169,
      "BC": 8170,
      "Ph": 8171,
      "Port": 8172,
      "Ġ\"#": 8173,
      "Ġ120": 8174,
      "ĠSimple": 8175,
      "ĠURI": 8176,
      "ĠRO": 8177,
      "Ġ404": 8178,
      "brand": 8179,
      "cr": 8180,
      "increment": 8181,
      "ond": 8182,
      "ĠAbstract": 8183,
      "connections": 8184,
      "creensh": 8185,
      "Compute": 8186,
      "ĠInsert": 8187,
      "Ġcycle": 8188,
      "GRA": 8189,
      "friend": 8190,
      "pull": 8191,
      "tb": 8192,
      "wave": 8193,
      "review": 8194,
      "utral": 8195,
      "ulner": 8196,
      "Ġhard": 8197,
      "Ġdecrypt": 8198,
      "apped": 8199,
      "Ġ\"\",": 8200,
      "lectric": 8201,
      "nost": 8202,
      "greet": 8203,
      "softmax": 8204,
      "+',": 8205,
      "pow": 8206,
      "Ġroman": 8207,
      "chart": 8208,
      "Ġdecryption": 8209,
      "']`,": 8210,
      "ĠIncluded": 8211,
      "Const": 8212,
      "ĠExpected": 8213,
      "venue": 8214,
      "objective": 8215,
      "Alchemy": 8216,
      "ĠTextBlob": 8217,
      "anoi": 8218,
      "Ġpagin": 8219,
      "Ġconvolutional": 8220,
      "ĠGeo": 8221,
      "Ġmessaging": 8222,
      "Abstract": 8223,
      "Du": 8224,
      "KEN": 8225,
      "mac": 8226,
      "nb": 8227,
      "}</": 8228,
      "Ġshard": 8229,
      "chat": 8230,
      "registry": 8231,
      "divisible": 8232,
      "multiple": 8233,
      "Ġsuitable": 8234,
      "Ġ._": 8235,
      "Ġremainder": 8236,
      "assets": 8237,
      "cover": 8238,
      "ĠPer": 8239,
      "izations": 8240,
      "ĠCopyright": 8241,
      "setattr": 8242,
      "Ġaddr": 8243,
      "mong": 8244,
      "maximum": 8245,
      "Ġmatched": 8246,
      "Ġidentified": 8247,
      "Art": 8248,
      "switch": 8249,
      "pie": 8250,
      "Ġcut": 8251,
      "Ġmor": 8252,
      "ĠAut": 8253,
      "ills": 8254,
      "aving": 8255,
      "coring": 8256,
      "Ġlonger": 8257,
      "transfer": 8258,
      "Ġplotting": 8259,
      "Ġboundaries": 8260,
      "Ġinserted": 8261,
      "*]": 8262,
      "ilo": 8263,
      "mass": 8264,
      "onent": 8265,
      "Ġcoding": 8266,
      "ĠFirst": 8267,
      "comments": 8268,
      "Ġheights": 8269,
      "Ġpointer": 8270,
      "Ġspatial": 8271,
      "Ġgenre": 8272,
      "ospital": 8273,
      "department": 8274,
      "\\\"])\\": 8275,
      "\\\"],\\": 8276,
      "Ġstrip": 8277,
      "Ġconcurrent": 8278,
      "(\"=\"": 8279,
      "Ġenforce": 8280,
      "Files": 8281,
      "Ġconnecting": 8282,
      "LOW": 8283,
      "Ġslice": 8284,
      "TIES": 8285,
      "Features": 8286,
      "ĠSoftware": 8287,
      "++": 8288,
      "Window": 8289,
      "fingerprint": 8290,
      "gl": 8291,
      "hh": 8292,
      "Ġocc": 8293,
      "Ġlcs": 8294,
      "Ġexplicit": 8295,
      "\")[": 8296,
      "ĠLI": 8297,
      "okes": 8298,
      "ĠVal": 8299,
      "splits": 8300,
      "Ġsplits": 8301,
      "Ġscene": 8302,
      "!\",": 8303,
      "#$": 8304,
      "After": 8305,
      "kind": 8306,
      "mmetric": 8307,
      "ĠPackage": 8308,
      "ĠEvent": 8309,
      "software": 8310,
      "Unit": 8311,
      "keras": 8312,
      ";\\": 8313,
      "First": 8314,
      "GUI": 8315,
      "PM": 8316,
      "camera": 8317,
      "dens": 8318,
      "glob": 8319,
      "sensitive": 8320,
      "ipment": 8321,
      "ĠNOT": 8322,
      "ĠSent": 8323,
      "ĠExt": 8324,
      "Ġhandlers": 8325,
      "Instance": 8326,
      "ĠVALU": 8327,
      "duplicate": 8328,
      "notify": 8329,
      "Ġidentifies": 8330,
      "Ġrelation": 8331,
      "Ġregisters": 8332,
      "Ġincrease": 8333,
      "videos": 8334,
      "Ġcategorize": 8335,
      "Ġsales": 8336,
      "constants": 8337,
      "Template": 8338,
      "Ġadjacency": 8339,
      "Ġseverity": 8340,
      "Ġpressure": 8341,
      "lmnop": 8342,
      "ĠAttributeError": 8343,
      "abcdefghijk": 8344,
      "RF": 8345,
      "small": 8346,
      "scheme": 8347,
      "Ġaspect": 8348,
      "Ġkind": 8349,
      "ĠTrain": 8350,
      "every": 8351,
      "Ġnavigate": 8352,
      "received": 8353,
      "basename": 8354,
      "Ġshifted": 8355,
      "drs": 8356,
      "ffe": 8357,
      "fail": 8358,
      "Ġincorpor": 8359,
      "Ġvowel": 8360,
      "Ġchosen": 8361,
      "rotation": 8362,
      "Ġachieved": 8363,
      "beta": 8364,
      "Ð¾": 8365,
      "Ġcarry": 8366,
      "____": 8367,
      "Ġresize": 8368,
      "Ġcorrection": 8369,
      "Ġsatisfies": 8370,
      "Ġrepeat": 8371,
      "Ġborrowed": 8372,
      "abstractmethod": 8373,
      "Even": 8374,
      "bum": 8375,
      "stone": 8376,
      "Ġreview": 8377,
      "aliases": 8378,
      "Ġ`{'": 8379,
      "look": 8380,
      "quant": 8381,
      "programming": 8382,
      "Ref": 8383,
      "Ġroles": 8384,
      "readable": 8385,
      "Ġquote": 8386,
      "preprocess": 8387,
      "Ġ97": 8388,
      "Ġoutside": 8389,
      "INSERT": 8390,
      "riterion": 8391,
      "Ġseparator": 8392,
      "Ġmarket": 8393,
      "Ġwithdrawing": 8394,
      "Ġpublication": 8395,
      "latitude": 8396,
      "attle": 8397,
      "media": 8398,
      "uvwxyz": 8399,
      "qrstuvwxyz": 8400,
      "employees": 8401,
      "nIf": 8402,
      "Ä±": 8403,
      "include": 8404,
      "Ġpin": 8405,
      "ising": 8406,
      "ables": 8407,
      "(\"%": 8408,
      "Ġgeneric": 8409,
      "Ġgrant": 8410,
      "Ġdoesn": 8411,
      "goal": 8412,
      "ĠKeyError": 8413,
      "Ġatoms": 8414,
      "Ġcatch": 8415,
      "Ġnor": 8416,
      "ationError": 8417,
      "Ġ'\\\\": 8418,
      "about": 8419,
      "prov": 8420,
      "Ġsee": 8421,
      "Ġserialize": 8422,
      "ASET": 8423,
      "Ġdecay": 8424,
      "Av": 8425,
      "Dense": 8426,
      "Unsupported": 8427,
      "pid": 8428,
      "ĠAsync": 8429,
      "prop": 8430,
      "oman": 8431,
      "']`": 8432,
      "Ġcorrelation": 8433,
      "Ġclip": 8434,
      "ixin": 8435,
      "ĠAssert": 8436,
      "Additional": 8437,
      "Default": 8438,
      "pagation": 8439,
      "Plugin": 8440,
      "Layout": 8441,
      "ools": 8442,
      "Ġtile": 8443,
      "inux": 8444,
      "Ġsure": 8445,
      "Ġlabeled": 8446,
      "iver": 8447,
      "ĠFilter": 8448,
      "Ġtraffic": 8449,
      "avel": 8450,
      "statements": 8451,
      "Ġrunner": 8452,
      "Ġtopics": 8453,
      "topics": 8454,
      "Ġassumed": 8455,
      "Unique": 8456,
      "published": 8457,
      "locations": 8458,
      "Ġrobotic": 8459,
      "probability": 8460,
      "Ġmutation": 8461,
      "../../": 8462,
      "dx": 8463,
      "same": 8464,
      "odbye": 8465,
      "Ġresp": 8466,
      "Ġminimize": 8467,
      "ĠInv": 8468,
      "ĠInte": 8469,
      "marks": 8470,
      "sigmoid": 8471,
      "Off": 8472,
      "PY": 8473,
      "Simple": 8474,
      "band": 8475,
      "bash": 8476,
      "nReturns": 8477,
      "oauth": 8478,
      "Ġways": 8479,
      "ĠThen": 8480,
      "ĠClose": 8481,
      "Ġsummar": 8482,
      "Ġspecification": 8483,
      "IONS": 8484,
      "Ġsafe": 8485,
      "Ġapproach": 8486,
      "ĠDictionary": 8487,
      "Ġorientation": 8488,
      "\\.": 8489,
      "blog": 8490,
      "fd": 8491,
      "hot": 8492,
      "mor": 8493,
      "Ġpdf": 8494,
      "Ġbrand": 8495,
      "Ġcover": 8496,
      "Ġbecomes": 8497,
      "(\"<": 8498,
      "Ġmaterial": 8499,
      "Converter": 8500,
      "methods": 8501,
      "ĠDelete": 8502,
      "closest": 8503,
      "ferred": 8504,
      "windows": 8505,
      "Ġskipped": 8506,
      "nowled": 8507,
      "Ġestimated": 8508,
      "BA": 8509,
      "eof": 8510,
      "ret": 8511,
      "repos": 8512,
      "Ġfree": 8513,
      "Ġfront": 8514,
      "Ġcnt": 8515,
      "race": 8516,
      "radians": 8517,
      "Ġhigher": 8518,
      "astype": 8519,
      "ĠBy": 8520,
      "Ġ})": 8521,
      "sessment": 8522,
      "Ġdemonstration": 8523,
      "Collection": 8524,
      "Ġgene": 8525,
      "rotate": 8526,
      "fetchall": 8527,
      "Ġrefresh": 8528,
      "ABCDEF": 8529,
      "Ġmolecular": 8530,
      "oriented": 8531,
      "ĠWARRAN": 8532,
      "lmnopqrstuvwxyz": 8533,
      "38": 8534,
      "Ġland": 8535,
      "Ġstick": 8536,
      "Ġresolve": 8537,
      "achment": 8538,
      "ĠDes": 8539,
      "submission": 8540,
      "ĠWord": 8541,
      "Decode": 8542,
      "slider": 8543,
      "Ġcomplexity": 8544,
      "Location": 8545,
      "UDA": 8546,
      "Authentic": 8547,
      "TRA": 8548,
      "candidate": 8549,
      "ĠĠĠĠĠčĊ": 8550,
      "Ġtheme": 8551,
      "aloader": 8552,
      "robot": 8553,
      "program": 8554,
      "Ġresh": 8555,
      "ĠDist": 8556,
      "Ġplaced": 8557,
      "Expected": 8558,
      "speech": 8559,
      "ARY": 8560,
      "150": 8561,
      "CTk": 8562,
      "/\\": 8563,
      "Like": 8564,
      "Sent": 8565,
      "Url": 8566,
      "WIT": 8567,
      "Ð¸": 8568,
      "itation": 8569,
      "meth": 8570,
      "Ġsell": 8571,
      "ĠSE": 8572,
      "ĠRemoves": 8573,
      "ugging": 8574,
      "Ġsessions": 8575,
      "Ġslider": 8576,
      "embeddings": 8577,
      "scrollbar": 8578,
      "400": 8579,
      "Banana": 8580,
      "Sy": 8581,
      "cube": 8582,
      "fun": 8583,
      "live": 8584,
      "mk": 8585,
      "music": 8586,
      "Ġfocus": 8587,
      "Ġpeek": 8588,
      "Ġnaming": 8589,
      "Ġlang": 8590,
      "Ġbags": 8591,
      "lored": 8592,
      "rier": 8593,
      "resume": 8594,
      "Ġtemplates": 8595,
      "poname": 8596,
      "ĠMongo": 8597,
      "Ġprevent": 8598,
      "pretrained": 8599,
      "Ġensures": 8600,
      "ĠConnection": 8601,
      "Ġentered": 8602,
      "Ġdepositing": 8603,
      "Elements": 8604,
      "Ġrooms": 8605,
      "detection": 8606,
      "ĠWebSocket": 8607,
      "Ġaggregated": 8608,
      "HOME": 8609,
      "COLOR": 8610,
      "Depth": 8611,
      "Ġcontinuously": 8612,
      "XYZ": 8613,
      "'.\\": 8614,
      "Ter": 8615,
      "dl": 8616,
      "hub": 8617,
      "pm": 8618,
      "inx": 8619,
      "Ġant": 8620,
      "notes": 8621,
      "Ġgrouped": 8622,
      "Ġrevision": 8623,
      "Ġalignment": 8624,
      "bbox": 8625,
      "atcher": 8626,
      "Ġclo": 8627,
      "anded": 8628,
      "usted": 8629,
      "pired": 8630,
      "Ġreceives": 8631,
      "tweets": 8632,
      "/(": 8633,
      "DS": 8634,
      "}%": 8635,
      "ðŁ": 8636,
      "istr": 8637,
      "Ġvol": 8638,
      "Ġ31": 8639,
      "urllib": 8640,
      "Ġformatter": 8641,
      "ocation": 8642,
      "Ġpositional": 8643,
      "ĠSQLAlchemy": 8644,
      "etermine": 8645,
      "ĠHttpResponse": 8646,
      "#$%": 8647,
      "Audio": 8648,
      "Cal": 8649,
      "Cir": 8650,
      "Jane": 8651,
      "Rule": 8652,
      "Step": 8653,
      "Target": 8654,
      "Users": 8655,
      "jump": 8656,
      "sheet": 8657,
      "ľâĶĢâĶĢ": 8658,
      "eratures": 8659,
      "decrypt": 8660,
      "derer": 8661,
      "security": 8662,
      "esian": 8663,
      "roc": 8664,
      "Ġbirth": 8665,
      "Ġecho": 8666,
      "Ġstrength": 8667,
      "ĠTABLE": 8668,
      "ulator": 8669,
      "Ġconf": 8670,
      "ado": 8671,
      "services": 8672,
      "movies": 8673,
      "ĠOutputs": 8674,
      "ftp": 8675,
      "ĠGame": 8676,
      "classifier": 8677,
      "Ġdiscrimin": 8678,
      "ĠWhe": 8679,
      "liers": 8680,
      "Strings": 8681,
      "rolling": 8682,
      "cipes": 8683,
      "LOC": 8684,
      "ruit": 8685,
      "Ġmeasurements": 8686,
      "Ġindividuals": 8687,
      "chunks": 8688,
      "Ġapplications": 8689,
      "Entry": 8690,
      "ĠJavaScript": 8691,
      "abcdefghijklmnopqrstuvwxyz": 8692,
      "Tri": 8693,
      "Video": 8694,
      "gu": 8695,
      "Ġfamily": 8696,
      "Ġear": 8697,
      "Ġsem": 8698,
      "portion": 8699,
      "Ġbounds": 8700,
      "================================================================================": 8701,
      "since": 8702,
      "stor": 8703,
      "Ġstyles": 8704,
      "verses": 8705,
      "consecutive": 8706,
      ")))\\": 8707,
      "nearest": 8708,
      "minutes": 8709,
      "ually": 8710,
      "compressed": 8711,
      "Ġnoise": 8712,
      "Ġhostname": 8713,
      "before": 8714,
      "Ġheapq": 8715,
      "Ġconfirm": 8716,
      "bosity": 8717,
      "URE": 8718,
      "late": 8719,
      "mix": 8720,
      "sur": 8721,
      "Ġsong": 8722,
      "mem": 8723,
      "entific": 8724,
      "Ġground": 8725,
      "resolve": 8726,
      "ĠCur": 8727,
      "Ġcounting": 8728,
      "Ġmodifications": 8729,
      "Ġinitializing": 8730,
      "ĠVariable": 8731,
      "filenames": 8732,
      "sudo": 8733,
      "forecast": 8734,
      "ĠSets": 8735,
      "Processing": 8736,
      "LOG": 8737,
      "Ġauthenticated": 8738,
      "normalize": 8739,
      "Directory": 8740,
      "!\\\"\\": 8741,
      "Cell": 8742,
      "Fizz": 8743,
      "yml": 8744,
      "atives": 8745,
      "Ġslic": 8746,
      "elvin": 8747,
      "utron": 8748,
      "ulations": 8749,
      "ĠPub": 8750,
      "()):": 8751,
      "ssh": 8752,
      "urlpatterns": 8753,
      "Ġhashed": 8754,
      "readth": 8755,
      "cales": 8756,
      "CHAR": 8757,
      "registration": 8758,
      "overlapping": 8759,
      "black": 8760,
      "svg": 8761,
      "Ġcommas": 8762,
      "Permission": 8763,
      "Ġderivative": 8764,
      "Ġobstacle": 8765,
      "Ġepsilon": 8766,
      "Ġmedical": 8767,
      "/%": 8768,
      "Orig": 8769,
      "Ġ^": 8770,
      "Ġour": 8771,
      "``.": 8772,
      "ĠTHE": 8773,
      "ĠTYPE": 8774,
      "Ġdev": 8775,
      "ĠET": 8776,
      "Ġoverri": 8777,
      "Ġhistorical": 8778,
      "Monitor": 8779,
      "[...": 8780,
      "ga": 8781,
      "mmat": 8782,
      "ros": 8783,
      "than": 8784,
      "icensed": 8785,
      "('=": 8786,
      "ignal": 8787,
      "Ġcorresponds": 8788,
      "Ġmeans": 8789,
      "Debug": 8790,
      "defaults": 8791,
      "visible": 8792,
      "terminal": 8793,
      "ĠFormat": 8794,
      "46": 8795,
      "76": 8796,
      "tage": 8797,
      "}\\\"": 8798,
      "__,": 8799,
      "isfile": 8800,
      "outine": 8801,
      "ĠLibrary": 8802,
      "ĠMan": 8803,
      "obot": 8804,
      "Ġspell": 8805,
      "Ġsampled": 8806,
      "flat": 8807,
      "Names": 8808,
      "LIST": 8809,
      "ĠConstructor": 8810,
      ".)": 8811,
      "Async": 8812,
      "sal": 8813,
      "det": 8814,
      "getLogger": 8815,
      "Ġnotifications": 8816,
      "setter": 8817,
      "Ġyaml": 8818,
      "ĠmaxLength": 8819,
      "obs": 8820,
      "avid": 8821,
      "backup": 8822,
      "Ġautomates": 8823,
      "Ġ'-',": 8824,
      "Transform": 8825,
      "TIME": 8826,
      "Ġconsidering": 8827,
      "tweet": 8828,
      "Ġtriplet": 8829,
      "ufacturer": 8830,
      "avelength": 8831,
      "nowledge": 8832,
      "Ins": 8833,
      "nWhere": 8834,
      "pict": 8835,
      "ĶâĶĢâĶĢ": 8836,
      "Ġfun": 8837,
      "deep": 8838,
      "decimal": 8839,
      "Ġtoo": 8840,
      "elow": 8841,
      "Ġarm": 8842,
      "Ġdeal": 8843,
      "ĠEmployee": 8844,
      "Ġ78": 8845,
      "UNK": 8846,
      "annotation": 8847,
      "tl": 8848,
      "Ġpull": 8849,
      "acle": 8850,
      "islower": 8851,
      "Ġmembers": 8852,
      "ĠInt": 8853,
      "sums": 8854,
      "Ġsystems": 8855,
      "destroy": 8856,
      "Left": 8857,
      "linux": 8858,
      "Ġsubstitution": 8859,
      "CC": 8860,
      "Warning": 8861,
      "bur": 8862,
      "Ġmouse": 8863,
      "ica": 8864,
      "vile": 8865,
      "('\\\\": 8866,
      "Ġsear": 8867,
      "IDI": 8868,
      "while": 8869,
      "armup": 8870,
      "ĠINTO": 8871,
      "Ġconsisting": 8872,
      "activity": 8873,
      "ĠImportError": 8874,
      "Ġmeasures": 8875,
      "Doe": 8876,
      "Detail": 8877,
      "Odd": 8878,
      "ball": 8879,
      "just": 8880,
      "sm": 8881,
      "erge": 8882,
      "Ġpare": 8883,
      "Ġrecall": 8884,
      "Ġbattery": 8885,
      "resolution": 8886,
      "male": 8887,
      "sell": 8888,
      "Ġassemb": 8889,
      "agement": 8890,
      "Ġmaster": 8891,
      "perimeter": 8892,
      "lying": 8893,
      "Ġsections": 8894,
      "ĠDate": 8895,
      "Ġ55": 8896,
      "Ġsynt": 8897,
      "Inst": 8898,
      "ĠĠĠĠĠĠĠĠĠĠĠĠĠĠĠĠĠĠĠĠĠ": 8899,
      "placement": 8900,
      "imports": 8901,
      "ĠContent": 8902,
      "myList": 8903,
      "ĠmyList": 8904,
      "DELETE": 8905,
      "plots": 8906,
      "polygon": 8907,
      "posts": 8908,
      "Substring": 8909,
      "Ġautomation": 8910,
      "mtplib": 8911,
      "boundary": 8912,
      "ĠSubtract": 8913,
      "ĠISBN": 8914,
      "MBL": 8915,
      "Ġmultiplied": 8916,
      "CHECKING": 8917,
      "ĠVALUES": 8918,
      "ĠWhether": 8919,
      "Batch": 8920,
      "nc": 8921,
      "ws": 8922,
      "-------": 8923,
      "Ġfoo": 8924,
      "ANG": 8925,
      "translate": 8926,
      "WARNING": 8927,
      "ĠWARRANTIES": 8928,
      ".',": 8929,
      "49": 8930,
      "_,": 8931,
      "fname": 8932,
      "tif": 8933,
      "reason": 8934,
      "Ġfive": 8935,
      "Ġbatches": 8936,
      "Ġ\"+": 8937,
      "trade": 8938,
      "ĠProvide": 8939,
      "Ġsampling": 8940,
      "creenshot": 8941,
      "Frequency": 8942,
      "LM": 8943,
      "Menu": 8944,
      "Two": 8945,
      "Ġfs": 8946,
      "Ġbas": 8947,
      "Ġmapped": 8948,
      "Ġchallen": 8949,
      "ĠLast": 8950,
[...]
