{
  "version": "1.0",
  "truncation": null,
  "padding": null,
  "added_tokens": [
    {
      "id": 0,
      "content": "<pad>",
      "single_word": false,
      "lstrip": false,
      "rstrip": false,
      "normalized": false,
      "special": true
    },
    {
      "id": 1,
      "content": "<eos>",
      "single_word": false,
      "lstrip": false,
      "rstrip": false,
      "normalized": false,
      "special": true
    },
    {
      "id": 2,
      "content": "<unk>",
      "single_word": false,
      "lstrip": false,
      "rstrip": false,
      "normalized": false,
      "special": true
    },
    {
      "id": 3,
      "content": "<bos>",
      "single_word": false,
      "lstrip": false,
      "rstrip": false,
      "normalized": false,
      "special": true
    },
    {
      "id": 4,
      "content": "    ",
      "single_word": false,
      "lstrip": false,
      "rstrip": false,
      "normalized": false,
      "special": true
    },
    {
      "id": 5,
      "content": "        ",
      "single_word": false,
      "lstrip": false,
      "rstrip": false,
      "normalized": false,
      "special": true
    },
    {
      "id": 6,
      "content": "            ",
      "single_word": false,
      "lstrip": false,
      "rstrip": false,
      "normalized": false,
      "special": true
    },
    {
      "id": 7,
      "content": "\n    ",
      "single_word": false,
      "lstrip": false,
      "rstrip": false,
      "normalized": false,
      "special": true
    },
    {
      "id": 8,
      "content": "\n        ",
      "single_word": false,
      "lstrip": false,
      "rstrip": false,
      "normalized": false,
      "special": true
    },
    {
      "id": 9,
      "content": "\n            ",
      "single_word": false,
      "lstrip": false,
      "rstrip": false,
      "normalized": false,
      "special": true
    },
    {
      "id": 10,
      "content": "def ",
      "single_word": false,
      "lstrip": false,
      "rstrip": false,
      "normalized": false,
      "special": true
    },
    {
      "id": 11,
      "content": "return ",
      "single_word": false,
      "lstrip": false,
      "rstrip": false,
      "normalized": false,
      "special": true
    },
    {
      "id": 12,
      "content": "class ",
      "single_word": false,
      "lstrip": false,
      "rstrip": false,
      "normalized": false,
      "special": true
    },
    {
      "id": 13,
      "content": "import ",
      "single_word": false,
      "lstrip": false,
      "rstrip": false,
      "normalized": false,
      "special": true
    },
    {
      "id": 14,
      "content": "from ",
      "single_word": false,
      "lstrip": false,
      "rstrip": false,
      "normalized": false,
      "special": true
    },
    {
      "id": 15,
      "content": "self.",
      "single_word": false,
      "lstrip": false,
      "rstrip": false,
      "normalized": false,
      "special": true
    },
    {
      "id": 16,
      "content": "lambda ",
      "single_word": false,
      "lstrip": false,
      "rstrip": false,
      "normalized": false,
      "special": true
    },
    {
      "id": 17,
      "content": "assert ",
      "single_word": false,
      "lstrip": false,
      "rstrip": false,
      "normalized": false,
      "special": true
    },
    {
      "id": 18,
      "content": "yield ",
      "single_word": false,
      "lstrip": false,
      "rstrip": false,
      "normalized": false,
      "special": true
    },
    {
      "id": 19,
      "content": "async ",
      "single_word": false,
      "lstrip": false,
      "rstrip": false,
      "normalized": false,
      "special": true
    },
    {
      "id": 20,
      "content": "await ",
      "single_word": false,
      "lstrip": false,
      "rstrip": false,
      "normalized": false,
      "special": true
    },
    {
      "id": 21,
      "content": "try:",
      "single_word": false,
      "lstrip": false,
      "rstrip": false,
      "normalized": false,
      "special": true
    },
    {
      "id": 22,
      "content": "except:",
      "single_word": false,
      "lstrip": false,
      "rstrip": false,
      "normalized": false,
      "special": true
    },
    {
      "id": 23,
      "content": "finally:",
      "single_word": false,
      "lstrip": false,
      "rstrip": false,
      "normalized": false,
      "special": true
    },
    {
      "id": 24,
      "content": "if ",
      "single_word": false,
      "lstrip": false,
      "rstrip": false,
      "normalized": false,
      "special": true
    },
    {
      "id": 25,
      "content": "elif ",
      "single_word": false,
      "lstrip": false,
      "rstrip": false,
      "normalized": false,
      "special": true
    },
    {
      "id": 26,
      "content": "else:",
      "single_word": false,
      "lstrip": false,
      "rstrip": false,
      "normalized": false,
      "special": true
    },
    {
      "id": 27,
      "content": "for ",
      "single_word": false,
      "lstrip": false,
      "rstrip": false,
      "normalized": false,
      "special": true
    },
    {
      "id": 28,
      "content": "while ",
      "single_word": false,
      "lstrip": false,
      "rstrip": false,
      "normalized": false,
      "special": true
    },
    {
      "id": 29,
      "content": "in ",
      "single_word": false,
      "lstrip": false,
      "rstrip": false,
      "normalized": false,
      "special": true
    },
    {
      "id": 30,
      "content": "not in ",
      "single_word": false,
      "lstrip": false,
      "rstrip": false,
      "normalized": false,
      "special": true
    },
    {
      "id": 31,
      "content": "is ",
      "single_word": false,
      "lstrip": false,
      "rstrip": false,
      "normalized": false,
      "special": true
    },
    {
      "id": 32,
      "content": "True",
      "single_word": false,
      "lstrip": false,
      "rstrip": false,
      "normalized": false,
      "special": true
    },
    {
      "id": 33,
      "content": "False",
      "single_word": false,
      "lstrip": false,
      "rstrip": false,
      "normalized": false,
      "special": true
    },
    {
      "id": 34,
      "content": "None",
      "single_word": false,
      "lstrip": false,
      "rstrip": false,
      "normalized": false,
      "special": true
    },
    {
      "id": 35,
      "content": " -> ",
      "single_word": false,
      "lstrip": false,
      "rstrip": false,
      "normalized": false,
      "special": true
    },
    {
      "id": 36,
      "content": " == ",
      "single_word": false,
      "lstrip": false,
      "rstrip": false,
      "normalized": false,
      "special": true
    },
    {
      "id": 37,
      "content": " != ",
      "single_word": false,
      "lstrip": false,
      "rstrip": false,
      "normalized": false,
      "special": true
    },
    {
      "id": 38,
      "content": " <= ",
      "single_word": false,
      "lstrip": false,
      "rstrip": false,
      "normalized": false,
      "special": true
    },
    {
      "id": 39,
      "content": " >= ",
      "single_word": false,
      "lstrip": false,
      "rstrip": false,
      "normalized": false,
      "special": true
    },
    {
      "id": 40,
      "content": "\"\"\"",
      "single_word": false,
      "lstrip": false,
      "rstrip": false,
      "normalized": false,
      "special": true
    },
    {
      "id": 41,
      "content": "'''",
      "single_word": false,
      "lstrip": false,
      "rstrip": false,
      "normalized": false,
      "special": true
    },
    {
      "id": 42,
      "content": "f\"",
      "single_word": false,
      "lstrip": false,
      "rstrip": false,
      "normalized": false,
      "special": true
    },
    {
      "id": 43,
      "content": "f'",
      "single_word": false,
      "lstrip": false,
      "rstrip": false,
      "normalized": false,
      "special": true
    },
    {
      "id": 44,
      "content": "r\"",
      "single_word": false,
      "lstrip": false,
      "rstrip": false,
      "normalized": false,
      "special": true
    },
    {
      "id": 45,
      "content": "r'",
      "single_word": false,
      "lstrip": false,
      "rstrip": false,
      "normalized": false,
      "special": true
    },
    {
      "id": 46,
      "content": "b\"",
      "single_word": false,
      "lstrip": false,
      "rstrip": false,
      "normalized": false,
      "special": true
    },
    {
      "id": 47,
      "content": "b'",
      "single_word": false,
      "lstrip": false,
      "rstrip": false,
      "normalized": false,
      "special": true
    }
  ],
  "normalizer": null,
  "pre_tokenizer": {
    "type": "ByteLevel",
    "add_prefix_space": false,
    "trim_offsets": true,
    "use_regex": true
  },
  "post_processor": null,
  "decoder": {
    "type": "ByteLevel",
    "add_prefix_space": true,
    "trim_offsets": true,
    "use_regex": true
  },
  "model": {
    "type": "BPE",
    "dropout": null,
    "unk_token": "<unk>",
    "continuing_subword_prefix": null,
    "end_of_word_suffix": null,
    "fuse_unk": false,
    "byte_fallback": false,
    "ignore_merges": false,
    "vocab": {
      "<pad>": 0,
      "<eos>": 1,
      "<unk>": 2,
      "<bos>": 3,
      "    ": 4,
      "        ": 5,
      "            ": 6,
      "\n    ": 7,
      "\n        ": 8,
      "\n            ": 9,
      "def ": 10,
      "return ": 11,
      "class ": 12,
      "import ": 13,
      "from ": 14,
      "self.": 15,
      "lambda ": 16,
      "assert ": 17,
      "yield ": 18,
      "async ": 19,
      "await ": 20,
      "try:": 21,
      "except:": 22,
      "finally:": 23,
      "if ": 24,
      "elif ": 25,
      "else:": 26,
      "for ": 27,
      "while ": 28,
      "in ": 29,
      "not in ": 30,
      "is ": 31,
      "True": 32,
      "False": 33,
      "None": 34,
      " -> ": 35,
      " == ": 36,
      " != ": 37,
      " <= ": 38,
      " >= ": 39,
      "\"\"\"": 40,
      "'''": 41,
      "f\"": 42,
      "f'": 43,
      "r\"": 44,
      "r'": 45,
      "b\"": 46,
      "b'": 47,
      "!": 48,
      "\"": 49,
      "#": 50,
      "$": 51,
      "%": 52,
      "&": 53,
      "'": 54,
      "(": 55,
      ")": 56,
      "*": 57,
      "+": 58,
      ",": 59,
      "-": 60,
      ".": 61,
      "/": 62,
      "0": 63,
      "1": 64,
      "2": 65,
      "3": 66,
      "4": 67,
      "5": 68,
      "6": 69,
      "7": 70,
      "8": 71,
      "9": 72,
      ":": 73,
      ";": 74,
      "<": 75,
      "=": 76,
      ">": 77,
      "?": 78,
      "@": 79,
      "A": 80,
      "B": 81,
      "C": 82,
      "D": 83,
      "E": 84,
      "F": 85,
      "G": 86,
      "H": 87,
      "I": 88,
      "J": 89,
      "K": 90,
      "L": 91,
      "M": 92,
      "N": 93,
      "O": 94,
      "P": 95,
      "Q": 96,
      "R": 97,
      "S": 98,
      "T": 99,
      "U": 100,
      "V": 101,
      "W": 102,
      "X": 103,
      "Y": 104,
      "Z": 105,
      "[": 106,
      "\\": 107,
      "]": 108,
      "^": 109,
      "_": 110,
      "`": 111,
      "a": 112,
      "b": 113,
      "c": 114,
      "d": 115,
      "e": 116,
      "f": 117,
      "g": 118,
      "h": 119,
      "i": 120,
      "j": 121,
      "k": 122,
      "l": 123,
      "m": 124,
      "n": 125,
      "o": 126,
      "p": 127,
      "q": 128,
      "r": 129,
      "s": 130,
      "t": 131,
      "u": 132,
      "v": 133,
      "w": 134,
      "x": 135,
      "y": 136,
      "z": 137,
      "{": 138,
      "|": 139,
      "}": 140,
      "~": 141,
      "¡": 142,
      "¢": 143,
      "£": 144,
      "¤": 145,
      "¥": 146,
      "¦": 147,
      "§": 148,
      "¨": 149,
      "©": 150,
      "ª": 151,
      "«": 152,
      "¬": 153,
      "®": 154,
      "¯": 155,
      "°": 156,
      "±": 157,
      "²": 158,
      "³": 159,
      "´": 160,
      "µ": 161,
      "¶": 162,
      "·": 163,
      "¸": 164,
      "¹": 165,
      "º": 166,
      "»": 167,
      "¼": 168,
      "½": 169,
      "¾": 170,
      "¿": 171,
      "À": 172,
      "Á": 173,
      "Â": 174,
      "Ã": 175,
      "Ä": 176,
      "Å": 177,
      "Æ": 178,
      "Ç": 179,
      "È": 180,
      "É": 181,
      "Ê": 182,
      "Ë": 183,
      "Ì": 184,
      "Í": 185,
      "Î": 186,
      "Ï": 187,
      "Ð": 188,
      "Ñ": 189,
      "Ò": 190,
      "Ó": 191,
      "Ô": 192,
      "Õ": 193,
      "Ö": 194,
      "×": 195,
      "Ø": 196,
      "Ù": 197,
      "Ú": 198,
      "Û": 199,
      "Ü": 200,
      "Ý": 201,
      "Þ": 202,
      "ß": 203,
      "à": 204,
      "á": 205,
      "â": 206,
      "ã": 207,
      "ä": 208,
      "å": 209,
      "æ": 210,
      "ç": 211,
      "è": 212,
      "é": 213,
      "ê": 214,
      "ë": 215,
      "ì": 216,
      "í": 217,
      "î": 218,
      "ï": 219,
      "ð": 220,
      "ñ": 221,
      "ò": 222,
      "ó": 223,
      "ô": 224,
      "õ": 225,
      "ö": 226,
      "÷": 227,
      "ø": 228,
      "ù": 229,
      "ú": 230,
      "û": 231,
      "ü": 232,
      "ý": 233,
      "þ": 234,
      "ÿ": 235,
      "Ā": 236,
      "ā": 237,
      "Ă": 238,
      "ă": 239,
      "Ą": 240,
      "ą": 241,
      "Ć": 242,
      "ć": 243,
      "Ĉ": 244,
      "ĉ": 245,
      "Ċ": 246,
      "ċ": 247,
      "Č": 248,
      "č": 249,
      "Ď": 250,
      "ď": 251,
      "Đ": 252,
      "đ": 253,
      "Ē": 254,
      "ē": 255,
      "Ĕ": 256,
      "ĕ": 257,
      "Ė": 258,
      "ė": 259,
      "Ę": 260,
      "ę": 261,
      "Ě": 262,
      "ě": 263,
      "Ĝ": 264,
      "ĝ": 265,
      "Ğ": 266,
      "ğ": 267,
      "Ġ": 268,
      "ġ": 269,
      "Ģ": 270,
      "ģ": 271,
      "Ĥ": 272,
      "ĥ": 273,
      "Ħ": 274,
      "ħ": 275,
      "Ĩ": 276,
      "ĩ": 277,
      "Ī": 278,
      "ī": 279,
      "Ĭ": 280,
      "ĭ": 281,
      "Į": 282,
      "į": 283,
      "İ": 284,
      "ı": 285,
      "Ĳ": 286,
      "ĳ": 287,
      "Ĵ": 288,
      "ĵ": 289,
      "Ķ": 290,
      "ķ": 291,
      "ĸ": 292,
      "Ĺ": 293,
      "ĺ": 294,
      "Ļ": 295,
      "ļ": 296,
      "Ľ": 297,
      "ľ": 298,
      "Ŀ": 299,
      "ŀ": 300,
      "Ł": 301,
      "ł": 302,
      "Ń": 303,
      "ĠĠ": 304,
      "čĊ": 305,
      "ĠĠĠĠ": 306,
      "Ġt": 307,
      "in": 308,
      "ĠĠĠ": 309,
      "Ġa": 310,
      "re": 311,
      "he": 312,
      "on": 313,
      "at": 314,
      "Ġs": 315,
      "Ġthe": 316,
      "er": 317,
      "en": 318,
      "or": 319,
      "Ġf": 320,
      "Ġc": 321,
      "ĠĠĠĠĠĠĠ": 322,
      "es": 323,
      "le": 324,
      "ion": 325,
      "de": 326,
      "Ġi": 327,
      "Ġp": 328,
      "st": 329,
      "Ġ=": 330,
      "\"\"": 331,
      "ct": 332,
      "ing": 333,
      "ou": 334,
      "it": 335,
      "Ġre": 336,
      "al": 337,
      "Ġin": 338,
      "se": 339,
      "ar": 340,
      "nd": 341,
      "me": 342,
      "ur": 343,
      "ent": 344,
      "Ġn": 345,
      "Ġo": 346,
      "ro": 347,
      "ra": 348,
      "Ġto": 349,
      "el": 350,
      "as": 351,
      "Ġw": 352,
      "Ġ`": 353,
      "mp": 354,
      "ed": 355,
      "Ġl": 356,
      "ut": 357,
      "Ġand": 358,
      "urn": 359,
      "turn": 360,
      "):": 361,
      "Ġd": 362,
      "ction": 363,
      "um": 364,
      "ge": 365,
      "Ġb": 366,
      "Ġreturn": 367,
      "def": 368,
      "Ġm": 369,
      "ĠĠĠĠĠĠĠĠĠĠĠ": 370,
      "un": 371,
      "th": 372,
      "Ġof": 373,
      "ist": 374,
      "Ġfor": 375,
      "ate": 376,
      "ic": 377,
      "an": 378,
      "Ġe": 379,
      "Ġst": 380,
      "Ġ\"": 381,
      "Ġis": 382,
      "unction": 383,
      "lo": 384,
      "Ġ#": 385,
      "ation": 386,
      "ame": 387,
      "Ġfunction": 388,
      "mple": 389,
      "ld": 390,
      "ment": 391,
      "Ġ'": 392,
      "``": 393,
      "ĠT": 394,
      "Ġth": 395,
      "ul": 396,
      "Ġco": 397,
      "Ġif": 398,
      "int": 399,
      "pe": 400,
      "ce": 401,
      "ith": 402,
      "Ġsel": 403,
      "ata": 404,
      "put": 405,
      "Ġself": 406,
      "fi": 407,
      "ri": 408,
      "Ġg": 409,
      "Ġsh": 410,
      "You": 411,
      "ch": 412,
      "Ġpro": 413,
      "ass": 414,
      "ue": 415,
      "Ġv": 416,
      "Ġ1": 417,
      "res": 418,
      "ould": 419,
      "ers": 420,
      "Ġ\"\"\"": 421,
      "te": 422,
      "Ġshould": 423,
      "Ġthat": 424,
      "iv": 425,
      "ma": 426,
      "Ġwith": 427,
      "nt": 428,
      "ol": 429,
      "od": 430,
      "Ġdef": 431,
      "sel": 432,
      "us": 433,
      "self": 434,
      "__": 435,
      "Ġstr": 436,
      "yth": 437,
      "ython": 438,
      "Ġcon": 439,
      "is": 440,
      "ess": 441,
      "ĠP": 442,
      "Ġfi": 443,
      "ĠčĊ": 444,
      "ord": 445,
      "id": 446,
      "ot": 447,
      "ck": 448,
      "ĠThe": 449,
      "est": 450,
      "ad": 451,
      "ask": 452,
      "qu": 453,
      "Ġas": 454,
      "xt": 455,
      "Ġ[": 456,
      "lass": 457,
      "()": 458,
      "Ġnum": 459,
      "Ġlist": 460,
      "Ġ-": 461,
      "Ġ(": 462,
      "rint": 463,
      "et": 464,
      "str": 465,
      "pp": 466,
      "Ġare": 467,
      "co": 468,
      "age": 469,
      "Ġh": 470,
      "pt": 471,
      "Ġtask": 472,
      "mplement": 473,
      "ig": 474,
      "Ġme": 475,
      "ĠĠĠĠĠĠĠĠ": 476,
      "ab": 477,
      "ke": 478,
      "Ġprint": 479,
      "Ġ0": 480,
      "if": 481,
      "```": 482,
      "Ġclass": 483,
      "ort": 484,
      "Ġ+": 485,
      "ĠPython": 486,
      "iz": 487,
      "\",": 488,
      "name": 489,
      "end": 490,
      "ter": 491,
      "',": 492,
      "ult": 493,
      "ite": 494,
      "ount": 495,
      "Ġan": 496,
      "Ġimplement": 497,
      "Ġdata": 498,
      "il": 499,
      "iven": 500,
      "ve": 501,
      "Ġval": 502,
      "get": 503,
      "Ġar": 504,
      "ĠA": 505,
      "low": 506,
      "Ġex": 507,
      "thod": 508,
      "Ġ2": 509,
      "Ġus": 510,
      "im": 511,
      "Ġgiven": 512,
      "Ġra": 513,
      "ver": 514,
      "ĠI": 515,
      "Ġinput": 516,
      "ode": 517,
      "ase": 518,
      "Ġstring": 519,
      "pl": 520,
      "Your": 521,
      "ath": 522,
      "cess": 523,
      "Ġres": 524,
      "ary": 525,
      "Ġ{": 526,
      "ta": 527,
      "Ġmethod": 528,
      ".\"\"\"": 529,
      "one": 530,
      "Ġbe": 531,
      "di": 532,
      "rom": 533,
      "Ġne": 534,
      "val": 535,
      "Ġma": 536,
      "Ġnumb": 537,
      "orm": 538,
      "Ġ==": 539,
      "Ġal": 540,
      "Ġta": 541,
      "Ġel": 542,
      "ĠĠĠĠĠĠĠĠĠĠĠĠĠĠĠ": 543,
      "':": 544,
      "Ġdi": 545,
      "out": 546,
      "(\"": 547,
      "\")": 548,
      "Ġfile": 549,
      "key": 550,
      "Ġpar": 551,
      "num": 552,
      "am": 553,
      "Ġde": 554,
      "data": 555,
      "ay": 556,
      "ip": 557,
      "ĠC": 558,
      "gra": 559,
      "vi": 560,
      "ĠN": 561,
      "con": 562,
      "))": 563,
      "Ġon": 564,
      "list": 565,
      "ci": 566,
      "ollow": 567,
      "ure": 568,
      "up": 569,
      "Ġfollow": 570,
      "Ġcode": 571,
      "form": 572,
      "ht": 573,
      "Ġnot": 574,
      "ample": 575,
      "Ġlo": 576,
      "ĠF": 577,
      "reate": 578,
      "to": 579,
      "ub": 580,
      "Ġrep": 581,
      "ect": 582,
      "rite": 583,
      "\":": 584,
      "Ġspe": 585,
      "and": 586,
      "per": 587,
      "ded": 588,
      "set": 589,
      "Ġfrom": 590,
      "resent": 591,
      "ĠS": 592,
      "ly": 593,
      "om": 594,
      "gram": 595,
      "Ġch": 596,
      "ize": 597,
      "Ġfollowing": 598,
      "--": 599,
      "ray": 600,
      "able": 601,
      "==": 602,
      "ind": 603,
      "os": 604,
      "ine": 605,
      "art": 606,
      "')": 607,
      "ener": 608,
      "ime": 609,
      "ow": 610,
      "nge": 611,
      "dd": 612,
      "Ġ3": 613,
      "Ġit": 614,
      "('": 615,
      "tain": 616,
      "Ġrepresent": 617,
      "ac": 618,
      "Ġ->": 619,
      "ack": 620,
      "Ġlen": 621,
      "Ġse": 622,
      "ype": 623,
      "00": 624,
      "path": 625,
      "word": 626,
      "Ġtak": 627,
      "Ġelse": 628,
      "Ġcal": 629,
      "Ġname": 630,
      "ror": 631,
      "ag": 632,
      "Ġy": 633,
      "string": 634,
      "Ġnumber": 635,
      "ance": 636,
      "Ġ__": 637,
      "app": 638,
      "Ġtakes": 639,
      "],": 640,
      "Ġrange": 641,
      "Ġor": 642,
      "ial": 643,
      "ext": 644,
      "Ġ*": 645,
      "ption": 646,
      "rue": 647,
      "ĠNone": 648,
      "Ġprogram": 649,
      "file": 650,
      "ity": 651,
      "init": 652,
      "count": 653,
      "ens": 654,
      "rent": 655,
      "ns": 656,
      "Ġresult": 657,
      "les": 658,
      "cul": 659,
      "ĠE": 660,
      "ory": 661,
      "Re": 662,
      "ject": 663,
      "Ġx": 664,
      "Ġ<": 665,
      "])": 666,
      "act": 667,
      "`:": 668,
      "Ġtasked": 669,
      "Ġby": 670,
      "Ġvalue": 671,
      "Ġkey": 672,
      "len": 673,
      "ach": 674,
      "odel": 675,
      "Ġmax": 676,
      "ates": 677,
      "her": 678,
      "red": 679,
      "Ġcontain": 680,
      "__(": 681,
      "ice": 682,
      "gs": 683,
      "Ġset": 684,
      "ating": 685,
      "ĠL": 686,
      "pro": 687,
      "tri": 688,
      "sed": 689,
      "ations": 690,
      "ĠD": 691,
      "lement": 692,
      "._": 693,
      "ated": 694,
      "ib": 695,
      "Ġcom": 696,
      "ser": 697,
      "op": 698,
      "Ġwh": 699,
      "rect": 700,
      "The": 701,
      "Ġusing": 702,
      "Ġdiction": 703,
      "fig": 704,
      "ĠO": 705,
      "Write": 706,
      "Ġword": 707,
      "mat": 708,
      "alse": 709,
      "mage": 710,
      "Ġreturns": 711,
      "Ġprocess": 712,
      "ir": 713,
      "ract": 714,
      "output": 715,
      "cri": 716,
      "Ġprovi": 717,
      "pon": 718,
      "Ġrequ": 719,
      "ues": 720,
      "fied": 721,
      "ĠĠĠĠĠ": 722,
      "Ġ5": 723,
      "ition": 724,
      "mo": 725,
      "python": 726,
      "Ġat": 727,
      "ies": 728,
      "heck": 729,
      "Ġint": 730,
      "Ġr": 731,
      "pet": 732,
      "Ġbase": 733,
      "Ġdictionary": 734,
      "ex": 735,
      "our": 736,
      "ign": 737,
      "nip": 738,
      "here": 739,
      "Ġ4": 740,
      "nippet": 741,
      "ific": 742,
      "par": 743,
      "Ġnew": 744,
      "oint": 745,
      "Ġac": 746,
      "essage": 747,
      "ave": 748,
      "cl": 749,
      "append": 750,
      "Ġob": 751,
      "Ġeach": 752,
      "dex": 753,
      "Ġprovided": 754,
      "Ġtra": 755,
      "Ġsnippet": 756,
      "Ġadd": 757,
      "Ġcur": 758,
      "enerate": 759,
      "uct": 760,
      "ive": 761,
      "Ġu": 762,
      "ĠU": 763,
      "Ġ+=": 764,
      "arr": 765,
      "mand": 766,
      "mport": 767,
      "fo": 768,
      "text": 769,
      "Ġbo": 770,
      "ace": 771,
      "Ġarray": 772,
      "ry": 773,
      "`,": 774,
      "Ġro": 775,
      "culate": 776,
      "com": 777,
      "Ġper": 778,
      "utput": 779,
      "fe": 780,
      "ĠYour": 781,
      "Ġparame": 782,
      "Ġchar": 783,
      "Ġspeci": 784,
      "Ġcount": 785,
      "ile": 786,
      "Ġuser": 787,
      "but": 788,
      "ters": 789,
      "Ġj": 790,
      "Ġarr": 791,
      "Ġext": 792,
      "Ġapp": 793,
      "em": 794,
      "enc": 795,
      "),": 796,
      "Ġle": 797,
      "Ġsum": 798,
      "Ġpass": 799,
      "value": 800,
      "numb": 801,
      "Ġcre": 802,
      "Ġelement": 803,
      "wo": 804,
      "Ġbased": 805,
      "cur": 806,
      "ard": 807,
      "ĠIf": 808,
      "all": 809,
      "gth": 810,
      "add": 811,
      "ress": 812,
      "ument": 813,
      "ound": 814,
      "date": 815,
      "url": 816,
      "Ġall": 817,
      "ust": 818,
      "Ġrepresenting": 819,
      "Ġget": 820,
      "ence": 821,
      "Ġcol": 822,
      "Ġspecified": 823,
      "ĠTrue": 824,
      "ĠFalse": 825,
      "ork": 826,
      "['": 827,
      "ari": 828,
      "ger": 829,
      "bo": 830,
      "time": 831,
      "Ġ[]": 832,
      "Ġinte": 833,
      "Create": 834,
      "Ġnumbers": 835,
      "Ġ>": 836,
      "Ġlog": 837,
      "Ġhand": 838,
      "dict": 839,
      "Ġtwo": 840,
      "rror": 841,
      "ap": 842,
      "Ġsy": 843,
      "Ġspec": 844,
      "ec": 845,
      "ms": 846,
      "ok": 847,
      "']": 848,
      "Ġimplementing": 849,
      "ight": 850,
      "====": 851,
      "Error": 852,
      "Ġimplementation": 853,
      "ule": 854,
      "Ġoutput": 855,
      "Ġsub": 856,
      "Ġun": 857,
      "ersion": 858,
      "col": 859,
      "ne": 860,
      "ces": 861,
      "eld": 862,
      "Ġobject": 863,
      "ph": 864,
      "ature": 865,
      "Ġmodel": 866,
      "ĠM": 867,
      "Ġtext": 868,
      "Ġmod": 869,
      "ise": 870,
      "Ġspecific": 871,
      "ther": 872,
      "xample": 873,
      "Ġup": 874,
      "ang": 875,
      "mplete": 876,
      "Ġvalues": 877,
      "Ġformat": 878,
      "ĠRe": 879,
      "ĠĠĠĠčĊ": 880,
      "ĠĠčĊ": 881,
      "type": 882,
      "ren": 883,
      "requ": 884,
      "Ġcomp": 885,
      "Ġpath": 886,
      "`.": 887,
      "Ġcurrent": 888,
      "que": 889,
      "Ġhave": 890,
      "tribut": 891,
      "args": 892,
      "so": 893,
      "atch": 894,
      "ss": 895,
      "Ġcreating": 896,
      "itial": 897,
      "error": 898,
      "tra": 899,
      "Ġsort": 900,
      "stem": 901,
      "ator": 902,
      "tent": 903,
      "ob": 904,
      "In": 905,
      "Ġtest": 906,
      "tal": 907,
      "Ġpre": 908,
      "ecut": 909,
      "():": 910,
      "Ġextract": 911,
      "ty": 912,
      "ff": 913,
      "----": 914,
      "Ġhe": 915,
      "ĠOutput": 916,
      "ost": 917,
      "Ġpl": 918,
      "ĠH": 919,
      "we": 920,
      "tr": 921,
      "ep": 922,
      "Ġcor": 923,
      "plit": 924,
      "class": 925,
      "input": 926,
      "ant": 927,
      "els": 928,
      "ĠĠĠĠĠĠĠĠĠĠĠĠĠĠĠĠĠĠĠ": 929,
      "rou": 930,
      "ndom": 931,
      "ich": 932,
      "Ġoper": 933,
      "Ġtotal": 934,
      "ast": 935,
      "ames": 936,
      "Ġelif": 937,
      "Ġsu": 938,
      "Ġcreate": 939,
      "Ġ/": 940,
      "Ġcommand": 941,
      "main": 942,
      "rectory": 943,
      "base": 944,
      "ĠList": 945,
      "'s": 946,
      "size": 947,
      "ient": 948,
      "Ġimport": 949,
      "Ġhas": 950,
      "ft": 951,
      "ĠG": 952,
      "lic": 953,
      "Ġstart": 954,
      "Ġwhich": 955,
      "Ġcheck": 956,
      "Ġite": 957,
      "are": 958,
      "Ġcan": 959,
      "gument": 960,
      "Ġfind": 961,
      "ev": 962,
      "ĠR": 963,
      "cript": 964,
      "read": 965,
      "Ġmessage": 966,
      "ore": 967,
      "ponse": 968,
      "Ġparameters": 969,
      "ĠB": 970,
      "rig": 971,
      "Ġtime": 972,
      "oc": 973,
      "Ġimage": 974,
      "Ġexample": 975,
      "formation": 976,
      "sh": 977,
      "Ġwe": 978,
      "code": 979,
      "Ġcontaining": 980,
      "Ġ10": 981,
      "load": 982,
      "]:": 983,
      "Ġqu": 984,
      "anag": 985,
      "Ġcalculate": 986,
      "ill": 987,
      "Ġ6": 988,
      "Ġrequest": 989,
      "arch": 990,
      "user": 991,
      "arget": 992,
      "cal": 993,
      "move": 994,
      "Ġser": 995,
      "Ġexce": 996,
      "array": 997,
      "Ġneed": 998,
      "Ġcomplete": 999,
      "gor": 1000,
      "Ġmethods": 1001,
      "mail": 1002,
      "son": 1003,
      "Ġvari": 1004,
      "che": 1005,
      "ĠĠĠĠĠĠĠĠĠĠĠĠĠĠĠĠ": 1006,
      "play": 1007,
      "Ġ_": 1008,
      "Ġcharact": 1009,
      "Ġvalid": 1010,
      "Ġconfig": 1011,
      "ong": 1012,
      "Ġen": 1013,
      "Ġtype": 1014,
      "Ġgenerate": 1015,
      "Ġ%": 1016,
      "sum": 1017,
      "iss": 1018,
      "py": 1019,
      "Ġrequi": 1020,
      "][": 1021,
      "Ġ8": 1022,
      "Ġattribut": 1023,
      "led": 1024,
      "..": 1025,
      "ree": 1026,
      "right": 1027,
      "Ġthis": 1028,
      "ments": 1029,
      "emp": 1030,
      "Ġsystem": 1031,
      "Ġmin": 1032,
      "loat": 1033,
      "min": 1034,
      "order": 1035,
      ").": 1036,
      "Ġinformation": 1037,
      "ding": 1038,
      "ustom": 1039,
      "rst": 1040,
      "itle": 1041,
      "row": 1042,
      "log": 1043,
      "ll": 1044,
      "index": 1045,
      "Ġk": 1046,
      "Ġend": 1047,
      "test": 1048,
      "Ġperform": 1049,
      "ault": 1050,
      "Ġwhere": 1051,
      "Ġdes": 1052,
      "ken": 1053,
      "```\"\"\"": 1054,
      "result": 1055,
      "vert": 1056,
      "own": 1057,
      "ices": 1058,
      "ie": 1059,
      "pos": 1060,
      "info": 1061,
      "ify": 1062,
      "config": 1063,
      "clu": 1064,
      "atus": 1065,
      "Ġerror": 1066,
      "stance": 1067,
      "Ġits": 1068,
      "Ġinitial": 1069,
      "Ġdis": 1070,
      "Ġwords": 1071,
      "ĠV": 1072,
      "Ġhandle": 1073,
      "ml": 1074,
      "valid": 1075,
      "\"]": 1076,
      "cord": 1077,
      "**": 1078,
      "Ġwhile": 1079,
      "start": 1080,
      "from": 1081,
      "split": 1082,
      "Ġpoint": 1083,
      "For": 1084,
      "his": 1085,
      "max": 1086,
      "mon": 1087,
      "ON": 1088,
      "old": 1089,
      "number": 1090,
      "ource": 1091,
      "ctions": 1092,
      "alance": 1093,
      "point": 1094,
      "uration": 1095,
      "process": 1096,
      "atter": 1097,
      "ting": 1098,
      "Ġwrite": 1099,
      "Ġscript": 1100,
      "Ġ{}": 1101,
      "Ġpart": 1102,
      "Ġargument": 1103,
      "rame": 1104,
      "iter": 1105,
      "ique": 1106,
      "ide": 1107,
      "Ġab": 1108,
      "10": 1109,
      "Ġother": 1110,
      "ĠIn": 1111,
      "work": 1112,
      "Ġpos": 1113,
      "Ġind": 1114,
      "anager": 1115,
      "Ġany": 1116,
      "Ġitem": 1117,
      "amp": 1118,
      "Ġstrings": 1119,
      "Ġcontains": 1120,
      "model": 1121,
      "RL": 1122,
      "=\"": 1123,
      "gorith": 1124,
      "uple": 1125,
      "cted": 1126,
      "ild": 1127,
      "Ġtake": 1128,
      "sub": 1129,
      "ions": 1130,
      "Ġrandom": 1131,
      "image": 1132,
      "Ġindex": 1133,
      "Ġtrans": 1134,
      "ures": 1135,
      "Ġwill": 1136,
      "rix": 1137,
      "ages": 1138,
      "##": 1139,
      "ibr": 1140,
      "des": 1141,
      "ning": 1142,
      "Ġraise": 1143,
      "uth": 1144,
      "Ġelements": 1145,
      "Ġmat": 1146,
      "ual": 1147,
      "oin": 1148,
      "='": 1149,
      "vice": 1150,
      "ery": 1151,
      "Ġnp": 1152,
      "inal": 1153,
      "gorithm": 1154,
      "ĠW": 1155,
      "Ġinter": 1156,
      "Ġwhe": 1157,
      "Con": 1158,
      "its": 1159,
      "tp": 1160,
      "Ġline": 1161,
      ")`": 1162,
      "Ġdo": 1163,
      "numbers": 1164,
      "ency": 1165,
      "ume": 1166,
      "Ġpa": 1167,
      "vent": 1168,
      "[\"": 1169,
      "Ġ7": 1170,
      "dent": 1171,
      "ical": 1172,
      "ors": 1173,
      "Ġinclu": 1174,
      "imum": 1175,
      "//": 1176,
      "words": 1177,
      "abel": 1178,
      "Ġdataset": 1179,
      "Ġsorted": 1180,
      "Ġresponse": 1181,
      "imul": 1182,
      "ayer": 1183,
      "place": 1184,
      "Ġinteger": 1185,
      "Ġdirectory": 1186,
      "ackage": 1187,
      "ock": 1188,
      "line": 1189,
      "Ġmodule": 1190,
      "Ġalgorithm": 1191,
      "Ġlength": 1192,
      "Ġ:": 1193,
      "print": 1194,
      "ignature": 1195,
      "pre": 1196,
      "rime": 1197,
      "char": 1198,
      "Ġtarget": 1199,
      "Ġcontent": 1200,
      "},": 1201,
      "Ġversion": 1202,
      "cond": 1203,
      "Ġretri": 1204,
      "Ġinteg": 1205,
      "length": 1206,
      "Ġfirst": 1207,
      "Ġtheir": 1208,
      "item": 1209,
      "ail": 1210,
      "lock": 1211,
      "Ġtemp": 1212,
      "ron": 1213,
      "())": 1214,
      "ĠAdd": 1215,
      "Ġrow": 1216,
      "raw": 1217,
      "av": 1218,
      "========": 1219,
      "core": 1220,
      "Example": 1221,
      "ink": 1222,
      ")):": 1223,
      "ous": 1224,
      "ĠURL": 1225,
      "Ġwithin": 1226,
      "verse": 1227,
      "cre": 1228,
      "Ġ<=": 1229,
      "join": 1230,
      "Ġexecut": 1231,
      "Ġfiles": 1232,
      "verage": 1233,
      "Ġgener": 1234,
      "quence": 1235,
      "rid": 1236,
      "ibrary": 1237,
      "roup": 1238,
      "pen": 1239,
      "sert": 1240,
      "dir": 1241,
      "([": 1242,
      "struct": 1243,
      "ĠExample": 1244,
      "comp": 1245,
      "yn": 1246,
      "Ġdict": 1247,
      "Ġdist": 1248,
      "Ġ9": 1249,
      "Ġdif": 1250,
      "lean": 1251,
      ")`:": 1252,
      "Ġexist": 1253,
      "upl": 1254,
      "param": 1255,
      "Ġnames": 1256,
      "Ġfil": 1257,
      "arg": 1258,
      "\".": 1259,
      "Ġgra": 1260,
      "Ġfloat": 1261,
      "lication": 1262,
      "ĠReturn": 1263,
      "Ġaccount": 1264,
      "ptions": 1265,
      "Ġinto": 1266,
      "Ġcalcul": 1267,
      "sort": 1268,
      "feren": 1269,
      "Ġcl": 1270,
      "port": 1271,
      "Ġcustom": 1272,
      "Ġusage": 1273,
      "Ġnode": 1274,
      "Ġam": 1275,
      "vel": 1276,
      "cor": 1277,
      "respon": 1278,
      "Ġuse": 1279,
      "items": 1280,
      "by": 1281,
      "Ġfield": 1282,
      "Ġexcept": 1283,
      "bu": 1284,
      "message": 1285,
      "Ġused": 1286,
      "ized": 1287,
      "Ġintegers": 1288,
      "Ġunique": 1289,
      "12": 1290,
      "Ġfe": 1291,
      "inary": 1292,
      "for": 1293,
      "itional": 1294,
      "ape": 1295,
      "pa": 1296,
      "Ġwork": 1297,
      "Ġdatabase": 1298,
      "atures": 1299,
      "Ġ{'": 1300,
      "idth": 1301,
      "Ġcorrespon": 1302,
      "ĠJ": 1303,
      "Ġsent": 1304,
      "Ġad": 1305,
      "ache": 1306,
      "ense": 1307,
      "version": 1308,
      "Ġthen": 1309,
      "Ġfound": 1310,
      "lot": 1311,
      "ĠThis": 1312,
      "ner": 1313,
      "duct": 1314,
      "Ġens": 1315,
      "Ġemp": 1316,
      "of": 1317,
      "ined": 1318,
      "Ġfunctional": 1319,
      "acci": 1320,
      "ST": 1321,
      "onacci": 1322,
      "pr": 1323,
      "ear": 1324,
      "ER": 1325,
      "ines": 1326,
      "Ġmult": 1327,
      "with": 1328,
      "Ġbu": 1329,
      "Ġparameter": 1330,
      "Ġtry": 1331,
      "PI": 1332,
      "Ġamount": 1333,
      "igh": 1334,
      "Ġread": 1335,
      "mb": 1336,
      "nums": 1337,
      "node": 1338,
      "wargs": 1339,
      "Ġbet": 1340,
      "Ġcorresponding": 1341,
      "head": 1342,
      "Ġoperations": 1343,
      "Ġconfiguration": 1344,
      "json": 1345,
      "Ġ!": 1346,
      "]\"\"\"": 1347,
      "Ġrequire": 1348,
      "values": 1349,
      "Ġorder": 1350,
      "Ġos": 1351,
      "Ġlibrary": 1352,
      "Ġdefault": 1353,
      "ĠImplement": 1354,
      "Ġkeys": 1355,
      "ert": 1356,
      "alue": 1357,
      "Ġrepresents": 1358,
      "Ġ['": 1359,
      "Ġcolum": 1360,
      "Ġyou": 1361,
      "format": 1362,
      "Ġout": 1363,
      "Ġ!=": 1364,
      "20": 1365,
      "ML": 1366,
      "ween": 1367,
      "IN": 1368,
      "ted": 1369,
      "li": 1370,
      "Ġsimul": 1371,
      "Ġdate": 1372,
      "ĠHT": 1373,
      "Ġdisplay": 1374,
      "Ġz": 1375,
      "Ġcharacters": 1376,
      "ick": 1377,
      "ĠEx": 1378,
      "Ġprocesses": 1379,
      "--------": 1380,
      "}\")": 1381,
      "oice": 1382,
      "Ġattributes": 1383,
      "://": 1384,
      "ible": 1385,
      "html": 1386,
      "ules": 1387,
      "Ġconvert": 1388,
      "List": 1389,
      "ix": 1390,
      "og": 1391,
      "Ġman": 1392,
      "ome": 1393,
      "ization": 1394,
      "Ġbetween": 1395,
      "ca": 1396,
      "cription": 1397,
      "ending": 1398,
      "temp": 1399,
      "ump": 1400,
      "title": 1401,
      "import": 1402,
      "Ġbool": 1403,
      "run": 1404,
      "requency": 1405,
      "ference": 1406,
      "Ġstate": 1407,
      "ptim": 1408,
      "ling": 1409,
      "Ġ\"\"": 1410,
      "Ġweb": 1411,
      "Ġ**": 1412,
      "yp": 1413,
      "mod": 1414,
      "state": 1415,
      "back": 1416,
      "attern": 1417,
      "pper": 1418,
      "Ġsize": 1419,
      "Ġrequirements": 1420,
      "rop": 1421,
      "eve": 1422,
      "Ġhere": 1423,
      "Ġarguments": 1424,
      "Ġreg": 1425,
      "lower": 1426,
      "Ġstore": 1427,
      "ges": 1428,
      "Ġ}": 1429,
      "Ġremove": 1430,
      "Ġapplication": 1431,
      "command": 1432,
      "nection": 1433,
      "Ġupdate": 1434,
      "Ġenc": 1435,
      "Ġopen": 1436,
      "ils": 1437,
      "Ġtoken": 1438,
      "uthor": 1439,
      "Pro": 1440,
      "Ġ)": 1441,
      "hold": 1442,
      "Ġ100": 1443,
      "element": 1444,
      "balance": 1445,
      "Ġ|": 1446,
      "ark": 1447,
      "ccur": 1448,
      "instance": 1449,
      "ensor": 1450,
      "Ġpassword": 1451,
      "Ġ@": 1452,
      "Ġav": 1453,
      "Ġmo": 1454,
      "Ġ[\"": 1455,
      "Ġone": 1456,
      "izer": 1457,
      "]]": 1458,
      "ptional": 1459,
      "example": 1460,
      "ĠCon": 1461,
      "ell": 1462,
      "http": 1463,
      "Data": 1464,
      "Ġsearch": 1465,
      "Ġstruct": 1466,
      "not": 1467,
      "ccess": 1468,
      "cessed": 1469,
      "Ġact": 1470,
      "Ġsi": 1471,
      "Ġcalled": 1472,
      "ars": 1473,
      "req": 1474,
      "ongest": 1475,
      "ler": 1476,
      "po": 1477,
      "pass": 1478,
      "let": 1479,
      "color": 1480,
      "etwork": 1481,
      "().": 1482,
      "Ġno": 1483,
      "Ġtrain": 1484,
      "ĠID": 1485,
      "Ġcharacter": 1486,
      "ifi": 1487,
      "Ġempty": 1488,
      "Ġoperation": 1489,
      "Ġonly": 1490,
      "Ġoccur": 1491,
      "pected": 1492,
      "ĠAn": 1493,
      "files": 1494,
      "Ġmatrix": 1495,
      "vie": 1496,
      "Ġent": 1497,
      "arning": 1498,
      "gh": 1499,
      "ful": 1500,
      "Ġmaximum": 1501,
      "Ġemail": 1502,
      "find": 1503,
      "Output": 1504,
      "AT": 1505,
      "otal": 1506,
      "trans": 1507,
      "case": 1508,
      "Ġlow": 1509,
      "dataset": 1510,
      "Ġensure": 1511,
      "ĠYou": 1512,
      "cessary": 1513,
      "[:": 1514,
      "Ġsignature": 1515,
      "Ġcont": 1516,
      "ble": 1517,
      "ities": 1518,
      "Ġnums": 1519,
      "Ġcall": 1520,
      "Ġ''": 1521,
      "ĠĠĠĠĠĠ": 1522,
      "aly": 1523,
      "Ġattribute": 1524,
      "ute": 1525,
      "cores": 1526,
      "Ġnecessary": 1527,
      "ics": 1528,
      "late": 1529,
      "viron": 1530,
      "Ġass": 1531,
      "Ġsp": 1532,
      "izes": 1533,
      "Ġindic": 1534,
      "Ġdep": 1535,
      "kwargs": 1536,
      "Ġstack": 1537,
      "txt": 1538,
      "Ġtuple": 1539,
      "Ġvariable": 1540,
      "LE": 1541,
      "].": 1542,
      "lename": 1543,
      "Ġfl": 1544,
      "content": 1545,
      "ak": 1546,
      "Ġlogic": 1547,
      "root": 1548,
      "ables": 1549,
      "Ġcorrect": 1550,
      "Ex": 1551,
      "miss": 1552,
      "orld": 1553,
      "Ġpackage": 1554,
      "status": 1555,
      "Ġstructure": 1556,
      "Ġproper": 1557,
      "ain": 1558,
      "ception": 1559,
      "Ġhead": 1560,
      "check": 1561,
      "Co": 1562,
      "Ġcase": 1563,
      "parse": 1564,
      "ream": 1565,
      "SON": 1566,
      "names": 1567,
      "indow": 1568,
      "vol": 1569,
      "orch": 1570,
      "Ġmatch": 1571,
      "task": 1572,
      "actor": 1573,
      "ateg": 1574,
      "ative": 1575,
      "ferent": 1576,
      "Ġserver": 1577,
      "ailable": 1578,
      ".\")": 1579,
      "Ġsecond": 1580,
      "tes": 1581,
      "unc": 1582,
      "lis": 1583,
      "request": 1584,
      "nect": 1585,
      "ves": 1586,
      ")]": 1587,
      "book": 1588,
      "uplic": 1589,
      "Ġgame": 1590,
      "cket": 1591,
      "Ġ20": 1592,
      "cording": 1593,
      "wise": 1594,
      "adata": 1595,
      "Ġfunctionality": 1596,
      "left": 1597,
      "Ġrun": 1598,
      "ict": 1599,
      "Ġinst": 1600,
      "train": 1601,
      "Ġprocessing": 1602,
      "Ġ\\": 1603,
      "Ġdifferent": 1604,
      "ging": 1605,
      "tings": 1606,
      "fix": 1607,
      "action": 1608,
      "pping": 1609,
      "new": 1610,
      "fter": 1611,
      "ases": 1612,
      "Ġthan": 1613,
      "table": 1614,
      "ffic": 1615,
      "lete": 1616,
      "password": 1617,
      "Ġ12": 1618,
      "idd": 1619,
      "RE": 1620,
      "map": 1621,
      "email": 1622,
      "Return": 1623,
      "ordin": 1624,
      "ified": 1625,
      "Ġtable": 1626,
      "Ġstep": 1627,
      "Ġexp": 1628,
      "Ġprime": 1629,
      "ĠAPI": 1630,
      "</": 1631,
      "directory": 1632,
      "ession": 1633,
      "Ġfib": 1634,
      "Function": 1635,
      "ello": 1636,
      "ility": 1637,
      "owels": 1638,
      "my": 1639,
      "Ġbinary": 1640,
      "ension": 1641,
      "Ġbook": 1642,
      "Ġcolor": 1643,
      "ĠData": 1644,
      "pop": 1645,
      "ents": 1646,
      "Ġroot": 1647,
      "ression": 1648,
      "ocument": 1649,
      "tadata": 1650,
      "label": 1651,
      "odes": 1652,
      "pport": 1653,
      "Ġrepresented": 1654,
      "Input": 1655,
      "random": 1656,
      "alueError": 1657,
      "SE": 1658,
      "ays": 1659,
      "igr": 1660,
      "field": 1661,
      "ater": 1662,
      "Ġallow": 1663,
      "Ġtyp": 1664,
      "Ġpython": 1665,
      "qual": 1666,
      "lect": 1667,
      "Ġaccording": 1668,
      "Ġstatus": 1669,
      "Ġrequired": 1670,
      "Ġworking": 1671,
      "Ġright": 1672,
      "Ġgre": 1673,
      "Ġaverage": 1674,
      "Ġposition": 1675,
      "next": 1676,
      "icense": 1677,
      "Ġover": 1678,
      "Ġaddress": 1679,
      "ug": 1680,
      "Ġpair": 1681,
      "Ġsequence": 1682,
      "ĠCreate": 1683,
      "ĠJSON": 1684,
      "token": 1685,
      "vironment": 1686,
      "Ġiter": 1687,
      "Ġretrieve": 1688,
      "riter": 1689,
      "rypt": 1690,
      "St": 1691,
      "sy": 1692,
      "dis": 1693,
      "abels": 1694,
      "lst": 1695,
      "tails": 1696,
      "df": 1697,
      "Ġident": 1698,
      "Ġwhen": 1699,
      "itive": 1700,
      "ĠEach": 1701,
      "Ġdiv": 1702,
      "Ġlet": 1703,
      "ton": 1704,
      "Ġurl": 1705,
      "Ġnamed": 1706,
      "((": 1707,
      "Ġtim": 1708,
      "Ġfunctions": 1709,
      "dist": 1710,
      "ield": 1711,
      "Ġwhether": 1712,
      "function": 1713,
      "Ġupd": 1714,
      "ĠTest": 1715,
      "nel": 1716,
      "da": 1717,
      "Manager": 1718,
      "draw": 1719,
      "Ġinstance": 1720,
      "sp": 1721,
      "Ar": 1722,
      "Implement": 1723,
      "ĠĠĠĠĠĠĠĠĠĠĠĠĠĠĠĠĠĠĠĠĠĠĠ": 1724,
      "cies": 1725,
      "Ġthem": 1726,
      "rip": 1727,
      "current": 1728,
      "EN": 1729,
      "ĠAdditional": 1730,
      "Ġisinstance": 1731,
      "Generate": 1732,
      "total": 1733,
      "Hello": 1734,
      "Ġform": 1735,
      "Ġach": 1736,
      "reg": 1737,
      "cent": 1738,
      "Ġquery": 1739,
      "Ġparse": 1740,
      "uring": 1741,
      "Ġgo": 1742,
      "nder": 1743,
      "ange": 1744,
      "Ġtitle": 1745,
      "####": 1746,
      "TP": 1747,
      "Ġleft": 1748,
      "Ġconstruct": 1749,
      "Ġsimple": 1750,
      "ownload": 1751,
      "Ġevent": 1752,
      "Ġsol": 1753,
      "Ġreverse": 1754,
      "Ġsentence": 1755,
      "Ġcond": 1756,
      "ution": 1757,
      "queue": 1758,
      "Ġpr": 1759,
      "create": 1760,
      "amples": 1761,
      "OR": 1762,
      "iginal": 1763,
      "ingle": 1764,
      "Ġexpected": 1765,
      "gn": 1766,
      "bed": 1767,
      "Ġso": 1768,
      "Ġstarting": 1769,
      "ward": 1770,
      "Ġmain": 1771,
      "Ġthese": 1772,
      "inter": 1773,
      "Ġcons": 1774,
      "Ġfilter": 1775,
      "Ġrequests": 1776,
      "search": 1777,
      "Ġlst": 1778,
      "Ġlongest": 1779,
      "Ġproject": 1780,
      "essages": 1781,
      "ĠInitial": 1782,
      "ĠHTML": 1783,
      "Ġjson": 1784,
      "Ġoptim": 1785,
      "ieve": 1786,
      "ash": 1787,
      "angu": 1788,
      "Ġresults": 1789,
      "Ġsuccess": 1790,
      "Ġprocessed": 1791,
      "ights": 1792,
      "encies": 1793,
      "Ġalso": 1794,
      "ĠValueError": 1795,
      "Ġdoes": 1796,
      "...": 1797,
      "Ġnetwork": 1798,
      ".__": 1799,
      "ven": 1800,
      "ax": 1801,
      "Ġvis": 1802,
      "ait": 1803,
      "aries": 1804,
      "bin": 1805,
      "choice": 1806,
      "method": 1807,
      "Ġ{\"": 1808,
      "fficient": 1809,
      "Ġsc": 1810,
      "issing": 1811,
      "group": 1812,
      "ential": 1813,
      "ĠIt": 1814,
      "rough": 1815,
      "Ġlast": 1816,
      "argest": 1817,
      "imit": 1818,
      "mit": 1819,
      "Ġver": 1820,
      "Ġsame": 1821,
      "Ġload": 1822,
      "calculate": 1823,
      "object": 1824,
      "Ġaut": 1825,
      "Ġpoints": 1826,
      "cept": 1827,
      "Ġgrid": 1828,
      "Str": 1829,
      "Ġnext": 1830,
      "Ġbalance": 1831,
      "Des": 1832,
      "generate": 1833,
      "iew": 1834,
      "Ġfrequency": 1835,
      "Ġ`__": 1836,
      "11": 1837,
      "dius": 1838,
      "Ġadding": 1839,
      "Ġdec": 1840,
      "account": 1841,
      "Ġ15": 1842,
      "width": 1843,
      "Ġproduct": 1844,
      "write": 1845,
      "ĠX": 1846,
      "ipl": 1847,
      "rome": 1848,
      "alind": 1849,
      "Ġavailable": 1850,
      "Ġargs": 1851,
      "udent": 1852,
      "view": 1853,
      "part": 1854,
      "Ġmy": 1855,
      "hand": 1856,
      "[-": 1857,
      "Ġtop": 1858,
      "Ġindicating": 1859,
      "Ġachieve": 1860,
      "cation": 1861,
      "soci": 1862,
      "Ġcolumn": 1863,
      "Ġplayer": 1864,
      "Ġthrough": 1865,
      "Ġ//": 1866,
      "Ġdeter": 1867,
      "'],": 1868,
      "Ġitems": 1869,
      "ha": 1870,
      "Ġ'__": 1871,
      "sent": 1872,
      "mages": 1873,
      "100": 1874,
      "ibonacci": 1875,
      "anguage": 1876,
      "spe": 1877,
      "================": 1878,
      "alculate": 1879,
      "Ġotherwise": 1880,
      "Ġsuch": 1881,
      "ank": 1882,
      "Ġcondition": 1883,
      "ĠAdditionally": 1884,
      "ME": 1885,
      "Ġremo": 1886,
      "Frame": 1887,
      "do": 1888,
      "DE": 1889,
      "estamp": 1890,
      "ches": 1891,
      "56": 1892,
      "cs": 1893,
      "olean": 1894,
      "Ġinclude": 1895,
      "ategory": 1896,
      "Ġmean": 1897,
      "ĠCheck": 1898,
      "Ġfollows": 1899,
      "Ġmid": 1900,
      "ware": 1901,
      "AR": 1902,
      "Ġafter": 1903,
      "attr": 1904,
      "update": 1905,
      "Ġblock": 1906,
      "lib": 1907,
      "ĠK": 1908,
      "}'": 1909,
      "Ġ('": 1910,
      "Ġassoci": 1911,
      "ready": 1912,
      "Ġpattern": 1913,
      "ww": 1914,
      "host": 1915,
      "extract": 1916,
      "Ġage": 1917,
      "ordinates": 1918,
      "No": 1919,
      "ia": 1920,
      "Ġback": 1921,
      "__':": 1922,
      "valu": 1923,
      "cat": 1924,
      "posit": 1925,
      "Ġlists": 1926,
      "target": 1927,
      "Ġassert": 1928,
      "Ġgraph": 1929,
      "replace": 1930,
      "lection": 1931,
      "params": 1932,
      "ifier": 1933,
      "Ġarea": 1934,
      "ormal": 1935,
      "Ġcommon": 1936,
      "uplicates": 1937,
      "Ġbut": 1938,
      "graph": 1939,
      "float": 1940,
      "Ġparser": 1941,
      "price": 1942,
      "Ġdistance": 1943,
      "Ġsupport": 1944,
      "fil": 1945,
      "ses": 1946,
      "ched": 1947,
      "Ġframe": 1948,
      "aces": 1949,
      "face": 1950,
      "colum": 1951,
      "Ġobjects": 1952,
      "ely": 1953,
      "ification": 1954,
      "rit": 1955,
      "query": 1956,
      "Ġ>=": 1957,
      "Type": 1958,
      "Ġnon": 1959,
      "Ġscore": 1960,
      "Ġmissing": 1961,
      "Ġag": 1962,
      "api": 1963,
      "umb": 1964,
      "Ġsingle": 1965,
      "batch": 1966,
      "unk": 1967,
      "Ġmanage": 1968,
      "div": 1969,
      "Ġsource": 1970,
      "angle": 1971,
      "Ġextracted": 1972,
      "ull": 1973,
      "Ġalready": 1974,
      "Ġlink": 1975,
      "dep": 1976,
      "module": 1977,
      "obj": 1978,
      "mes": 1979,
      "}\"": 1980,
      "alindrome": 1981,
      "kens": 1982,
      "reak": 1983,
      "IT": 1984,
      "io": 1985,
      "Ġpage": 1986,
      "Ġassociated": 1987,
      "remove": 1988,
      "nter": 1989,
      "https": 1990,
      "Ġanaly": 1991,
      ".,": 1992,
      "Ġconnection": 1993,
      "Ġrel": 1994,
      "ropri": 1995,
      "lose": 1996,
      "Ġmay": 1997,
      "Ġsto": 1998,
      "Ġappropri": 1999,
      "db": 2000,
      "iment": 2001,
      "Ġdescri": 2002,
      "tered": 2003,
      "Ġenvironment": 2004,
      "SS": 2005,
      "Ġbatch": 2006,
      "ango": 2007,
      "matrix": 2008,
      "Design": 2009,
      "du": 2010,
      "cale": 2011,
      "oding": 2012,
      "Ġhigh": 2013,
      "ef": 2014,
      "Ġtypes": 2015,
      "iple": 2016,
      "\"{": 2017,
      "ular": 2018,
      "Ġgroup": 2019,
      "'))": 2020,
      "ero": 2021,
      "ĠPro": 2022,
      "()`": 2023,
      "Ġable": 2024,
      "ync": 2025,
      "Ġaction": 2026,
      "Ġoriginal": 2027,
      "ins": 2028,
      "sible": 2029,
      "An": 2030,
      "call": 2031,
      "ID": 2032,
      "oper": 2033,
      "Ġaccess": 2034,
      "ody": 2035,
      "Ġpresent": 2036,
      "Ġed": 2037,
      "01": 2038,
      "Ġprints": 2039,
      "Ġspecifications": 2040,
      "lob": 2041,
      "Ġid": 2042,
      "bove": 2043,
      "manager": 2044,
      "oh": 2045,
      "lay": 2046,
      "default": 2047,
      "AL": 2048,
      "Ġtraining": 2049,
      "'])": 2050,
      "Ġhel": 2051,
      "dim": 2052,
      "Ġdete": 2053,
      "return": 2054,
      "Res": 2055,
      "strip": 2056,
      "Ġsimulates": 2057,
      "Ġabove": 2058,
      "address": 2059,
      "top": 2060,
      "Ġcomput": 2061,
      "Ġport": 2062,
      "})": 2063,
      "ances": 2064,
      "Ġthree": 2065,
      "med": 2066,
      "icle": 2067,
      "shape": 2068,
      "username": 2069,
      "features": 2070,
      "Ġ[[": 2071,
      "ĠFor": 2072,
      "Ch": 2073,
      "ved": 2074,
      "amb": 2075,
      "Ġheight": 2076,
      "Ġtorch": 2077,
      "Ġwidth": 2078,
      "Ġlabel": 2079,
      "Ġpri": 2080,
      "dig": 2081,
      "Ġ25": 2082,
      "coded": 2083,
      "sc": 2084,
      "ĠĠĠĠĠĠĠĠčĊ": 2085,
      "Ġperforms": 2086,
      "Ġcommands": 2087,
      "vari": 2088,
      "Ġfreq": 2089,
      "points": 2090,
      "fl": 2091,
      "func": 2092,
      "jango": 2093,
      "Ġsuccessful": 2094,
      "Name": 2095,
      "ran": 2096,
      "ication": 2097,
      "idx": 2098,
      "filename": 2099,
      "Ġvarious": 2100,
      "osit": 2101,
      "This": 2102,
      "the": 2103,
      "Ġeven": 2104,
      "ĠFibonacci": 2105,
      "Ġcompon": 2106,
      "igration": 2107,
      "ired": 2108,
      "ĠUn": 2109,
      "prime": 2110,
      "ey": 2111,
      "Invalid": 2112,
      "response": 2113,
      "Ġfeatures": 2114,
      "havi": 2115,
      "loy": 2116,
      "ural": 2117,
      "ision": 2118,
      "Ġsample": 2119,
      "level": 2120,
      "Ġboolean": 2121,
      "lease": 2122,
      "Ġyear": 2123,
      "Par": 2124,
      "score": 2125,
      "ids": 2126,
      "File": 2127,
      "sq": 2128,
      "ana": 2129,
      "Ġsqu": 2130,
      "ssume": 2131,
      "Ġmodified": 2132,
      "execut": 2133,
      "description": 2134,
      "pect": 2135,
      "Se": 2136,
      "ten": 2137,
      "Ġerrors": 2138,
      "Ġph": 2139,
      "Ġbuild": 2140,
      "ĠInitialize": 2141,
      "Ġfactor": 2142,
      "Ġtag": 2143,
      "vid": 2144,
      "Ġclean": 2145,
      "Ġbreak": 2146,
      "Ġclient": 2147,
      "fore": 2148,
      "Ġlearning": 2149,
      "ĉĉ": 2150,
      "Ġdepend": 2151,
      "Ġdefined": 2152,
      "ĠCalculate": 2153,
      "evel": 2154,
      "Ġregist": 2155,
      "Ġ.": 2156,
      "Ġtasks": 2157,
      "idden": 2158,
      "Ġsteps": 2159,
      "Ġmer": 2160,
      "Ġmake": 2161,
      "mean": 2162,
      "sing": 2163,
      "cache": 2164,
      "rc": 2165,
      "grid": 2166,
      "wait": 2167,
      "Ġdevice": 2168,
      "Ġloop": 2169,
      "rences": 2170,
      "match": 2171,
      "Ġactual": 2172,
      "'.": 2173,
      "havior": 2174,
      "actions": 2175,
      "Ġview": 2176,
      "Ġlargest": 2177,
      "Ġretriev": 2178,
      "ĠExecut": 2179,
      "rate": 2180,
      "Al": 2181,
      "pi": 2182,
      "ohn": 2183,
      "strings": 2184,
      "bot": 2185,
      "Ġtree": 2186,
      "Ġ-=": 2187,
      "hel": 2188,
      "river": 2189,
      "su": 2190,
      "Ġht": 2191,
      "Ġmost": 2192,
      "'),": 2193,
      "ambda": 2194,
      "Ġappropriate": 2195,
      "udi": 2196,
      "imal": 2197,
      "ories": 2198,
      "erson": 2199,
      "Ġvariables": 2200,
      "Ġlogging": 2201,
      "fit": 2202,
      "pack": 2203,
      "Ġsplit": 2204,
      "sequence": 2205,
      "page": 2206,
      "Ġsettings": 2207,
      "Ġboth": 2208,
      "mine": 2209,
      "reshold": 2210,
      "Ġdig": 2211,
      "Ġdescribed": 2212,
      "Ġvowels": 2213,
      "Ġdecor": 2214,
      "package": 2215,
      "umer": 2216,
      "Ġsend": 2217,
      "year": 2218,
      "Ġmon": 2219,
      "Ġreposit": 2220,
      "Ġyour": 2221,
      "chema": 2222,
      "ocket": 2223,
      "stack": 2224,
      "rol": 2225,
      "Ġbehavior": 2226,
      "Ġ(\"": 2227,
      "Ġfeature": 2228,
      "assert": 2229,
      "Ġmultiple": 2230,
      "board": 2231,
      "Ġhandling": 2232,
      "Ġcolumns": 2233,
      "\"\"\"\"": 2234,
      "net": 2235,
      "Ġsign": 2236,
      "mission": 2237,
      "ee": 2238,
      "Ġunit": 2239,
      "String": 2240,
      "Ġinvol": 2241,
      "quest": 2242,
      "Ġequal": 2243,
      "ribut": 2244,
      "ake": 2245,
      "Ġmessages": 2246,
      "Ġexecute": 2247,
      "aut": 2248,
      "Ġ\")": 2249,
      "Ġdetails": 2250,
      "tim": 2251,
      "Ġthere": 2252,
      "step": 2253,
      "Ġapply": 2254,
      "Ġassume": 2255,
      "Ġcalculates": 2256,
      "Ġmanag": 2257,
      "ps": 2258,
      "curs": 2259,
      "erature": 2260,
      "Ġplot": 2261,
      "event": 2262,
      "height": 2263,
      ":\",": 2264,
      "antity": 2265,
      "123": 2266,
      "16": 2267,
      "Ġmode": 2268,
      "exp": 2269,
      "blem": 2270,
      "Ġprice": 2271,
      "Ġut": 2272,
      "Ġfields": 2273,
      "Ġclasses": 2274,
      "33": 2275,
      "Ġletter": 2276,
      "Ġcases": 2277,
      "Ġrules": 2278,
      "tag": 2279,
      "22": 2280,
      "Ġdim": 2281,
      "Ġlabels": 2282,
      "Ġcoordinates": 2283,
      "ĠOptional": 2284,
      "range": 2285,
      "Ġprovide": 2286,
      "anc": 2287,
      "uper": 2288,
      "Ġfinal": 2289,
      "plot": 2290,
      "keys": 2291,
      "Ġ(`": 2292,
      "other": 2293,
      "Ġauthor": 2294,
      "position": 2295,
      "roll": 2296,
      "lected": 2297,
      "Ġparam": 2298,
      "ĠSignature": 2299,
      "\"))": 2300,
      "Ġcontext": 2301,
      "lines": 2302,
      "np": 2303,
      "CT": 2304,
      "mory": 2305,
      "Ġoptions": 2306,
      "15": 2307,
      "umpy": 2308,
      "Ġrespon": 2309,
      "argument": 2310,
      "Ġ\"__": 2311,
      "Ġdocument": 2312,
      "32": 2313,
      "uples": 2314,
      "----------------": 2315,
      "ET": 2316,
      "ze": 2317,
      "pol": 2318,
      "Ġ\",": 2319,
      ".\"": 2320,
      "Ġgoal": 2321,
      "udio": 2322,
      "rand": 2323,
      "ists": 2324,
      "link": 2325,
      "Ġplt": 2326,
      "Ġmultipl": 2327,
      "author": 2328,
      "Ġalph": 2329,
      "Ġlines": 2330,
      "Ġsepar": 2331,
      "Ġcorrectly": 2332,
      "scores": 2333,
      "ĠReturns": 2334,
      "ose": 2335,
      "Ġpaths": 2336,
      "ont": 2337,
      "Ġloss": 2338,
      "Ġlower": 2339,
      "mut": 2340,
      "ged": 2341,
      "ategor": 2342,
      "Ġexists": 2343,
      "Ġ...": 2344,
      "ensions": 2345,
      "Ġrecord": 2346,
      "Complete": 2347,
      "ĠAr": 2348,
      "etch": 2349,
      "Ġvalidate": 2350,
      "ĠY": 2351,
      "Ġmetadata": 2352,
      "Ġseen": 2353,
      "AN": 2354,
      "source": 2355,
      "mid": 2356,
      "Field": 2357,
      "ĠSt": 2358,
      "Ġmove": 2359,
      "Ġpop": 2360,
      "Ġshape": 2361,
      "Ġlevel": 2362,
      "mbol": 2363,
      "Ġduring": 2364,
      "hent": 2365,
      "no": 2366,
      "Ġlicense": 2367,
      "Ġprovid": 2368,
      "sentence": 2369,
      "Ġsets": 2370,
      "Ġformatted": 2371,
      "Ġevalu": 2372,
      "(),": 2373,
      "Ġ11": 2374,
      "ares": 2375,
      "mall": 2376,
      "oup": 2377,
      "itu": 2378,
      "mode": 2379,
      "off": 2380,
      "ayload": 2381,
      "ĠSet": 2382,
      "Ġ`_": 2383,
      "Ġlanguage": 2384,
      "chan": 2385,
      "atterns": 2386,
      "Not": 2387,
      "ceiv": 2388,
      "Ġcurr": 2389,
      "Un": 2390,
      "holder": 2391,
      "Ġmust": 2392,
      "ffer": 2393,
      "client": 2394,
      "Ġusername": 2395,
      "cd": 2396,
      "elements": 2397,
      "Ġinitializes": 2398,
      "({": 2399,
      "swith": 2400,
      "ts": 2401,
      "AB": 2402,
      "Fix": 2403,
      "fill": 2404,
      "Ġ'''": 2405,
      "use": 2406,
      "Ġproblem": 2407,
      "Ġrou": 2408,
      "Ġhash": 2409,
      "Ġpy": 2410,
      "server": 2411,
      "Ġabout": 2412,
      "Ġpairs": 2413,
      "frame": 2414,
      "Ġexception": 2415,
      "Dict": 2416,
      "ftware": 2417,
      "counts": 2418,
      "Ġwrit": 2419,
      "ng": 2420,
      "box": 2421,
      "ertain": 2422,
      "Ġgreater": 2423,
      "ards": 2424,
      "Ġinvolves": 2425,
      "paths": 2426,
      "mary": 2427,
      "block": 2428,
      "hest": 2429,
      "Ġincludes": 2430,
      "radius": 2431,
      "erform": 2432,
      "QL": 2433,
      "64": 2434,
      "ability": 2435,
      "ming": 2436,
      "first": 2437,
      "Ġdetermine": 2438,
      "Ġsys": 2439,
      "ited": 2440,
      "sol": 2441,
      "Ġcache": 2442,
      "Ġscores": 2443,
      "evelop": 2444,
      "iled": 2445,
      "last": 2446,
      "gative": 2447,
      "ested": 2448,
      "Ġminimum": 2449,
      "Ġcertain": 2450,
      "filter": 2451,
      "itor": 2452,
      "ventory": 2453,
      "Ġdecorator": 2454,
      "CH": 2455,
      "Ġ30": 2456,
      "ush": 2457,
      "Ġwindow": 2458,
      "ector": 2459,
      "000": 2460,
      "Ġdatetime": 2461,
      "ighest": 2462,
      "RO": 2463,
      "Ġdictionaries": 2464,
      "Ġrepository": 2465,
      "umber": 2466,
      "Ġtemplate": 2467,
      "Ġsuper": 2468,
      "]))": 2469,
      "diction": 2470,
      "ĠHTTP": 2471,
      "mark": 2472,
      "Ġconst": 2473,
      "stat": 2474,
      "cle": 2475,
      "und": 2476,
      "__\":": 2477,
      "dian": 2478,
      "Ġusers": 2479,
      "Ġvalidation": 2480,
      "Ġreference": 2481,
      "typ": 2482,
      "Ġbytes": 2483,
      "Ġgenerated": 2484,
      "ighb": 2485,
      "send": 2486,
      "Ġcost": 2487,
      "ources": 2488,
      "Ġjob": 2489,
      "rel": 2490,
      "SI": 2491,
      "ref": 2492,
      "ĠQ": 2493,
      "Ġlayer": 2494,
      "xy": 2495,
      "std": 2496,
      "Ġ'{": 2497,
      "pped": 2498,
      "Ġdelete": 2499,
      "sl": 2500,
      "gress": 2501,
      "Ġparsed": 2502,
      "25": 2503,
      "bug": 2504,
      "Ġflag": 2505,
      "ital": 2506,
      "Ġchecks": 2507,
      "orage": 2508,
      "fib": 2509,
      "round": 2510,
      "Ġreplace": 2511,
      "save": 2512,
      "ĠCo": 2513,
      "ĠExecuting": 2514,
      "Ġmark": 2515,
      "imil": 2516,
      "itude": 2517,
      "Ġkeyword": 2518,
      "distance": 2519,
      "Test": 2520,
      "ower": 2521,
      "parent": 2522,
      "Ġimages": 2523,
      "ĠAny": 2524,
      "Ġcopy": 2525,
      "average": 2526,
      "atest": 2527,
      "Ġinputs": 2528,
      "riteria": 2529,
      "Ġax": 2530,
      "pattern": 2531,
      "aded": 2532,
      "Ġdescription": 2533,
      "sis": 2534,
      "ences": 2535,
      "product": 2536,
      "ho": 2537,
      "Ġtuples": 2538,
      "Ġstudent": 2539,
      "Ġservice": 2540,
      "ties": 2541,
      "\"],": 2542,
      "ĠException": 2543,
      "inst": 2544,
      "imilar": 2545,
      "Ġinsert": 2546,
      "Given": 2547,
      "NA": 2548,
      "Ġdel": 2549,
      "Ġupdated": 2550,
      "ĠDataFrame": 2551,
      "Ġqueue": 2552,
      "cending": 2553,
      "Ġter": 2554,
      "ving": 2555,
      "Ġ'/": 2556,
      "Ġfiltered": 2557,
      "Ġhelp": 2558,
      "day": 2559,
      "ian": 2560,
      "inte": 2561,
      "Ġhost": 2562,
      "down": 2563,
      "Ġsession": 2564,
      "Ġseries": 2565,
      "Ġnodes": 2566,
      "Ġgenerates": 2567,
      "loss": 2568,
      "Ġthey": 2569,
      "Ġpol": 2570,
      "sorted": 2571,
      "'):": 2572,
      "66": 2573,
      "Develop": 2574,
      "Ġconditions": 2575,
      "ĠDjango": 2576,
      "gen": 2577,
      "Ġstat": 2578,
      "formed": 2579,
      "30": 2580,
      "Ġrate": 2581,
      "ets": 2582,
      "inf": 2583,
      "Ġupper": 2584,
      "Ġrespect": 2585,
      "ideo": 2586,
      "fold": 2587,
      "Ġclo": 2588,
      "Ġmapping": 2589,
      "Ac": 2590,
      "charact": 2591,
      ":-": 2592,
      "rypted": 2593,
      "ination": 2594,
      "Ġcv": 2595,
      "Ġmore": 2596,
      "Ġindices": 2597,
      "Ġdf": 2598,
      "xtract": 2599,
      "monstr": 2600,
      "freq": 2601,
      "Ġextracts": 2602,
      "Ġdemonstr": 2603,
      "open": 2604,
      "Ġpredict": 2605,
      "Ġexpression": 2606,
      "ĠFl": 2607,
      "chine": 2608,
      "Ġdivis": 2609,
      "CO": 2610,
      "ipel": 2611,
      "atform": 2612,
      "Ġstored": 2613,
      "rection": 2614,
      "lish": 2615,
      "direct": 2616,
      "Ser": 2617,
      "enu": 2618,
      "metadata": 2619,
      "img": 2620,
      "Ġfilename": 2621,
      "vers": 2622,
      "Ġconnect": 2623,
      "bytes": 2624,
      "sample": 2625,
      "local": 2626,
      "19": 2627,
      "Ġ`<": 2628,
      "dif": 2629,
      "results": 2630,
      "asure": 2631,
      "device": 2632,
      "sw": 2633,
      "âĶ": 2634,
      "MA": 2635,
      "csv": 2636,
      "Enter": 2637,
      "Ġcalculated": 2638,
      "pace": 2639,
      "ernel": 2640,
      "Ġdownload": 2641,
      "Ġoptional": 2642,
      "Ġtool": 2643,
      "proper": 2644,
      "UT": 2645,
      "Ġcounts": 2646,
      "__`": 2647,
      "Ġlimit": 2648,
      "Ġ]": 2649,
      "Ġcir": 2650,
      "ĠWorld": 2651,
      "Ġmanager": 2652,
      "Process": 2653,
      "versed": 2654,
      "be": 2655,
      "rest": 2656,
      "Ġmath": 2657,
      "Ġpositive": 2658,
      "Ġcell": 2659,
      "'}": 2660,
      "go": 2661,
      "Assume": 2662,
      "Ġcategory": 2663,
      "Ġdp": 2664,
      "amount": 2665,
      "parame": 2666,
      "Ġfibonacci": 2667,
      "Ġconstructor": 2668,
      "Ġuses": 2669,
      "Ġobtain": 2670,
      "options": 2671,
      "cost": 2672,
      "Ġexisting": 2673,
      "Ġcriteria": 2674,
      "idget": 2675,
      "Ġrows": 2676,
      "Ġwithout": 2677,
      "Ġoff": 2678,
      "Ġcomple": 2679,
      "Ġ``": 2680,
      "stru": 2681,
      "]`": 2682,
      "Ġweight": 2683,
      "Ġexecution": 2684,
      "Ġrepresentation": 2685,
      "script": 2686,
      "gre": 2687,
      "Ġsubstring": 2688,
      "99": 2689,
      "Ġchoice": 2690,
      "section": 2691,
      "regist": 2692,
      "Key": 2693,
      "ipeline": 2694,
      "ĠĠĠĠĠĠĠĠĠĠĠĠĠĠĠĠĠĠĠĠĠĠĠĠĠĠĠĠĠĠĠĠ": 2695,
      "Ġtimestamp": 2696,
      "Ġ16": 2697,
      "ailed": 2698,
      "post": 2699,
      "tact": 2700,
      "repo": 2701,
      "Ġparent": 2702,
      "enerator": 2703,
      "Ġstream": 2704,
      "Ġfactorial": 2705,
      "var": 2706,
      "Ġsave": 2707,
      "Ġ200": 2708,
      "Ġaccept": 2709,
      ":]": 2710,
      "Ġ50": 2711,
      "Ġpack": 2712,
      "site": 2713,
      "frequency": 2714,
      "Ġstand": 2715,
      "Ġquick": 2716,
      "ness": 2717,
      "alary": 2718,
      "User": 2719,
      "########": 2720,
      "hash": 2721,
      "Ġcap": 2722,
      "socket": 2723,
      "Request": 2724,
      "cls": 2725,
      "Ġlogger": 2726,
      "Exception": 2727,
      "John": 2728,
      "Tra": 2729,
      "pdate": 2730,
      "To": 2731,
      "Ġcomponents": 2732,
      "session": 2733,
      "ĠIter": 2734,
      "Ġful": 2735,
      "Ġhandles": 2736,
      "ulation": 2737,
      "FI": 2738,
      "connect": 2739,
      "Ġoccurrences": 2740,
      "abc": 2741,
      "tract": 2742,
      "Ġnormal": 2743,
      "Ġdest": 2744,
      "common": 2745,
      "Ġassign": 2746,
      "md": 2747,
      "ĠTra": 2748,
      "ĠDef": 2749,
      "ING": 2750,
      "close": 2751,
      "Ġbefore": 2752,
      "ider": 2753,
      "Ġmachine": 2754,
      "Ġunder": 2755,
      "unique": 2756,
      "50": 2757,
      "rt": 2758,
      "types": 2759,
      "Ġart": 2760,
      "upper": 2761,
      "copy": 2762,
      "sets": 2763,
      "layer": 2764,
      "Ġinteract": 2765,
      "build": 2766,
      "ES": 2767,
      "parser": 2768,
      "LO": 2769,
      "Ġpost": 2770,
      "tex": 2771,
      "Ġdirect": 2772,
      "Ġtrack": 2773,
      "Ġincluding": 2774,
      "Ġtri": 2775,
      "Ġmigration": 2776,
      "delete": 2777,
      "otential": 2778,
      "Ġparts": 2779,
      "pri": 2780,
      "Ġstop": 2781,
      "Ġbound": 2782,
      "Ġtags": 2783,
      "asic": 2784,
      "Ġwithdraw": 2785,
      "location": 2786,
      "Ġ--": 2787,
      "ĠAd": 2788,
      "column": 2789,
      "side": 2790,
      "Ġdistribut": 2791,
      "Ġprovides": 2792,
      "template": 2793,
      "Ġlocal": 2794,
      "Ġmanagement": 2795,
      "Ġdependencies": 2796,
      "Model": 2797,
      "Ġodd": 2798,
      "Ġign": 2799,
      "als": 2800,
      "Ġreport": 2801,
      "LI": 2802,
      "Ġenumer": 2803,
      "even": 2804,
      "depend": 2805,
      "Sub": 2806,
      "bar": 2807,
      "ĠUse": 2808,
      "ift": 2809,
      "Ġmask": 2810,
      "Ġ'.": 2811,
      "area": 2812,
      "idual": 2813,
      "ĠApp": 2814,
      "ED": 2815,
      "ĠDict": 2816,
      "pear": 2817,
      "Ġhighest": 2818,
      "Ġpotential": 2819,
      "14": 2820,
      "squ": 2821,
      "lev": 2822,
      "Ġbeen": 2823,
      "nsure": 2824,
      "Account": 2825,
      "Ġpub": 2826,
      "Ġincre": 2827,
      "Ġadded": 2828,
      "Ġinterface": 2829,
      "caten": 2830,
      "={": 2831,
      "unct": 2832,
      "\"),": 2833,
      "Ġcreated": 2834,
      "Ġtensor": 2835,
      "duplicates": 2836,
      "env": 2837,
      "Ġsetup": 2838,
      "record": 2839,
      "vious": 2840,
      "Ġbl": 2841,
      "far": 2842,
      "uff": 2843,
      "De": 2844,
      "pub": 2845,
      "dictions": 2846,
      "Ġobj": 2847,
      ">>": 2848,
      "Note": 2849,
      "grams": 2850,
      "over": 2851,
      "tocol": 2852,
      "execute": 2853,
      "ĠPerform": 2854,
      "ways": 2855,
      "any": 2856,
      "oad": 2857,
      "Ġgen": 2858,
      "player": 2859,
      "vices": 2860,
      "Ġcontin": 2861,
      "ivot": 2862,
      "Ġframework": 2863,
      "ool": 2864,
      "\">": 2865,
      "dec": 2866,
      "[::-": 2867,
      "Node": 2868,
      "body": 2869,
      "Ġfunctionalities": 2870,
      "sg": 2871,
      "try": 2872,
      "ĠFlask": 2873,
      "Ġmap": 2874,
      "tokens": 2875,
      "Ġsocket": 2876,
      "objects": 2877,
      "Ġencoding": 2878,
      "unds": 2879,
      "Ġsuccessfully": 2880,
      "cip": 2881,
      "mpt": 2882,
      "Ġproperty": 2883,
      "ias": 2884,
      "system": 2885,
      "org": 2886,
      "Col": 2887,
      "ively": 2888,
      "ĠPrint": 2889,
      "ĠAss": 2890,
      "books": 2891,
      "Add": 2892,
      "Ġsoftware": 2893,
      "(*": 2894,
      "Comp": 2895,
      "ĠCall": 2896,
      "Ġstandard": 2897,
      "Ġremain": 2898,
      "Ġcompute": 2899,
      "Ġtransform": 2900,
      "OST": 2901,
      "tree": 2902,
      "ius": 2903,
      "ross": 2904,
      "iddle": 2905,
      "80": 2906,
      "Ġvideo": 2907,
      "Ġcontrol": 2908,
      "Ġproperties": 2909,
      "vowels": 2910,
      "Array": 2911,
      "Ġbutton": 2912,
      "\"])": 2913,
      "ings": 2914,
      "Ġthread": 2915,
      "loc": 2916,
      "keep": 2917,
      "settings": 2918,
      "www": 2919,
      "show": 2920,
      "startswith": 2921,
      "Ġserial": 2922,
      "mask": 2923,
      "Ġplace": 2924,
      "Cl": 2925,
      "Ġchan": 2926,
      "validate": 2927,
      "headers": 2928,
      "lambda": 2929,
      "loyee": 2930,
      "AD": 2931,
      "Ġsmall": 2932,
      "Ġrepl": 2933,
      "Ġlay": 2934,
      "Ġ\"/": 2935,
      "''": 2936,
      "window": 2937,
      "Ġpalindrome": 2938,
      "Ġdomain": 2939,
      "ech": 2940,
      "mult": 2941,
      "datetime": 2942,
      "property": 2943,
      "Ġap": 2944,
      "ĠExtract": 2945,
      "Ġawait": 2946,
      "Ġenumerate": 2947,
      "hello": 2948,
      "HT": 2949,
      "Ġauthent": 2950,
      "Bu": 2951,
      "ek": 2952,
      "Ġmodules": 2953,
      "Ġsav": 2954,
      "('/": 2955,
      "tribute": 2956,
      "Ġadhere": 2957,
      "cy": 2958,
      "game": 2959,
      "Ġfunds": 2960,
      "hes": 2961,
      "Ġarrays": 2962,
      "feature": 2963,
      "Ġheaders": 2964,
      "]])": 2965,
      "Ġcomment": 2966,
      "ended": 2967,
      "ither": 2968,
      "apple": 2969,
      "anges": 2970,
      "Ġtimes": 2971,
      "vas": 2972,
      "Ġreversed": 2973,
      "ants": 2974,
      "labels": 2975,
      "Ġreceiv": 2976,
      "Ġprob": 2977,
      "hed": 2978,
      "alph": 2979,
      "Ġasync": 2980,
      "license": 2981,
      "bl": 2982,
      "Config": 2983,
      "SV": 2984,
      "istory": 2985,
      "missions": 2986,
      "Ġthreshold": 2987,
      "ION": 2988,
      "Ġwra": 2989,
      "display": 2990,
      "Ġsk": 2991,
      "Py": 2992,
      "apt": 2993,
      "Ġfulfill": 2994,
      "Ġadditional": 2995,
      "uming": 2996,
      "Ġboard": 2997,
      "Ġactions": 2998,
      "alid": 2999,
      "custom": 3000,
      "Ġcombin": 3001,
      "connection": 3002,
      "78": 3003,
      "Ġprev": 3004,
      "second": 3005,
      "older": 3006,
      "****": 3007,
      "ĠIP": 3008,
      "ĠPy": 3009,
      "Ġtesting": 3010,
      "ethod": 3011,
      "stract": 3012,
      "Ġinitialize": 3013,
      "Ġactiv": 3014,
      "fer": 3015,
      "Ġq": 3016,
      "cii": 3017,
      "logger": 3018,
      "Ġmonth": 3019,
      "vide": 3020,
      "}\\": 3021,
      "ynam": 3022,
      "context": 3023,
      "Ġ40": 3024,
      "eb": 3025,
      "uous": 3026,
      "Ġwas": 3027,
      "ead": 3028,
      "acy": 3029,
      "Ġdesired": 3030,
      "scale": 3031,
      "til": 3032,
      "Ġbot": 3033,
      "details": 3034,
      "Ġim": 3035,
      "folder": 3036,
      "Ġtokens": 3037,
      "Ġsolution": 3038,
      "ered": 3039,
      "Ġinfo": 3040,
      "Ġresource": 3041,
      "}:": 3042,
      "Ġ::": 3043,
      "ĠĠĠĠĠĠĠĠĠĠĠĠĠĠĠĠĠĠĠĠĠĠĠĠĠĠĠ": 3044,
      "columns": 3045,
      "()`:": 3046,
      "job": 3047,
      "24": 3048,
      "Ġinvalid": 3049,
      "Ġroute": 3050,
      "Ġidentifier": 3051,
      "Ġnumer": 3052,
      "zer": 3053,
      "encode": 3054,
      "button": 3055,
      "Ġlowercase": 3056,
      "IL": 3057,
      "can": 3058,
      "ike": 3059,
      "Ġequ": 3060,
      "').": 3061,
      "weight": 3062,
      "Ġvisited": 3063,
      "vis": 3064,
      "Ġnumpy": 3065,
      "commands": 3066,
      "Sum": 3067,
      "ĠUpdate": 3068,
      "Ġvector": 3069,
      "lobal": 3070,
      "Form": 3071,
      "nal": 3072,
      "Ġsome": 3073,
      "istics": 3074,
      "Ġmemory": 3075,
      "Ġsymbol": 3076,
      "ctor": 3077,
      "Ġ1000": 3078,
      "NAME": 3079,
      "ĠSQL": 3080,
      "ĠUnion": 3081,
      "Ġutil": 3082,
      "Id": 3083,
      "rows": 3084,
      "cret": 3085,
      "ĠConvert": 3086,
      "Ġduplicates": 3087,
      "Ġprefix": 3088,
      "ically": 3089,
      ">`": 3090,
      "Dataset": 3091,
      "uster": 3092,
      "Ġ},": 3093,
      "Ġcategor": 3094,
      "ĠRemove": 3095,
      "web": 3096,
      "Ġ</": 3097,
      "Ġbeing": 3098,
      "ĠTuple": 3099,
      "ividual": 3100,
      "elsius": 3101,
      "ĠDriver": 3102,
      "Ġweights": 3103,
      "Ġautom": 3104,
      "================================": 3105,
      "Info": 3106,
      "ared": 3107,
      "pg": 3108,
      "Ġselected": 3109,
      "tric": 3110,
      "Bo": 3111,
      "Code": 3112,
      "Ġefficient": 3113,
      "ĠType": 3114,
      "ĠNode": 3115,
      "Ġcompare": 3116,
      "Ġsimilar": 3117,
      "fg": 3118,
      "sor": 3119,
      "stream": 3120,
      "indices": 3121,
      "Ġinstall": 3122,
      "pred": 3123,
      "Ġsubprocess": 3124,
      "lat": 3125,
      "pu": 3126,
      "route": 3127,
      "ĠAssuming": 3128,
      "sec": 3129,
      "CE": 3130,
      "report": 3131,
      "home": 3132,
      "raint": 3133,
      "lem": 3134,
      "Ġtemperature": 3135,
      "Ġresponsible": 3136,
      "models": 3137,
      "az": 3138,
      "fields": 3139,
      "ah": 3140,
      "Ġzip": 3141,
      "ĠRes": 3142,
      "ocker": 3143,
      "sql": 3144,
      "Ġsquare": 3145,
      "Ġasyn": 3146,
      "Ġlocation": 3147,
      "Ġ''.": 3148,
      "At": 3149,
      "Ġrender": 3150,
      "Ġless": 3151,
      "Hand": 3152,
      "Ġpossible": 3153,
      "ux": 3154,
      "Ġnested": 3155,
      "ystem": 3156,
      "Ġdb": 3157,
      "weights": 3158,
      "Ġletters": 3159,
      "Ġfunc": 3160,
      "layers": 3161,
      "Com": 3162,
      "gment": 3163,
      "Ġround": 3164,
      "requent": 3165,
      "handler": 3166,
      "Ġ?": 3167,
      "Ġday": 3168,
      "Ġneural": 3169,
      "ĠGet": 3170,
      "seq": 3171,
      "Ġ\".": 3172,
      "Ġperson": 3173,
      "stars": 3174,
      "Time": 3175,
      "Ġsetting": 3176,
      "Ġentry": 3177,
      "Ġbooks": 3178,
      "empty": 3179,
      "Ġfibs": 3180,
      "doc": 3181,
      "ire": 3182,
      "Ġgu": 3183,
      "cont": 3184,
      "Ġplay": 3185,
      "Ġfetch": 3186,
      "Ġarg": 3187,
      "come": 3188,
      "MP": 3189,
      "Set": 3190,
      "sign": 3191,
      "Ġalways": 3192,
      "bit": 3193,
      "true": 3194,
      "utf": 3195,
      "Ġpermut": 3196,
      "Ġmodels": 3197,
      "Ġ&": 3198,
      "Ġschema": 3199,
      "fra": 3200,
      "Ġendpoint": 3201,
      "variable": 3202,
      "Ġmerge": 3203,
      "binary": 3204,
      "Ġneeds": 3205,
      "Ġcollection": 3206,
      "CK": 3207,
      "abet": 3208,
      "Ġyield": 3209,
      "bose": 3210,
      "Base": 3211,
      "ascii": 3212,
      "timestamp": 3213,
      "ds": 3214,
      "Ġmatches": 3215,
      "App": 3216,
      "Ġchild": 3217,
      "domain": 3218,
      "Ġworld": 3219,
      "ours": 3220,
      "IO": 3221,
      "nels": 3222,
      "Ġsw": 3223,
      "ender": 3224,
      "Ġradius": 3225,
      "Tuple": 3226,
      "Ġidentify": 3227,
      "gy": 3228,
      "Ġanother": 3229,
      "oken": 3230,
      "Ġkwargs": 3231,
      "substring": 3232,
      "tasks": 3233,
      "limit": 3234,
      "hell": 3235,
      "Ġexecuted": 3236,
      "mbed": 3237,
      "man": 3238,
      "Ġchunk": 3239,
      "etri": 3240,
      "andas": 3241,
      "flow": 3242,
      "apply": 3243,
      "45": 3244,
      "Ġbox": 3245,
      "randint": 3246,
      "levant": 3247,
      "mer": 3248,
      "Ġsoup": 3249,
      "Ġpartial": 3250,
      "ever": 3251,
      "cap": 3252,
      "Ġadj": 3253,
      "RI": 3254,
      "Ġprodu": 3255,
      "Ġspace": 3256,
      "ĠAdded": 3257,
      "Ġdefine": 3258,
      "Ġleast": 3259,
      "Ġcallback": 3260,
      "Ġpivot": 3261,
      "Ġalong": 3262,
      "download": 3263,
      "Ġoption": 3264,
      "document": 3265,
      "ĠComp": 3266,
      "Value": 3267,
      "Ġdraw": 3268,
      "Ġest": 3269,
      "now": 3270,
      "Ġexceptions": 3271,
      "::": 3272,
      "Ġquantity": 3273,
      "Ġvisual": 3274,
      "Ġscen": 3275,
      "card": 3276,
      "Ġcls": 3277,
      "yle": 3278,
      "izing": 3279,
      "\"):": 3280,
      "13": 3281,
      "Ġcent": 3282,
      "ĠFile": 3283,
      "ĠReplace": 3284,
      "tributes": 3285,
      "YY": 3286,
      "auth": 3287,
      "Ġnn": 3288,
      "Ġsimulate": 3289,
      "Ġshow": 3290,
      "ĠLicense": 3291,
      "Ġsolve": 3292,
      ")-": 3293,
      "Ġeither": 3294,
      "cc": 3295,
      "ru": 3296,
      "zip": 3297,
      "Ġlong": 3298,
      "Ġang": 3299,
      "Ġremaining": 3300,
      "Ġwell": 3301,
      "Ġ')": 3302,
      "digits": 3303,
      "rot": 3304,
      "anana": 3305,
      ":`": 3306,
      "]]:": 3307,
      "Ġbest": 3308,
      "Ġmanages": 3309,
      "hidden": 3310,
      "OT": 3311,
      "Ġfill": 3312,
      "ĠCSV": 3313,
      "tom": 3314,
      "urls": 3315,
      "Ġhtml": 3316,
      "loop": 3317,
      "Ġhttp": 3318,
      "alled": 3319,
      "Ġdeposit": 3320,
      "rm": 3321,
      "decode": 3322,
      "Ġlar": 3323,
      "insert": 3324,
      "abled": 3325,
      "issors": 3326,
      "pose": 3327,
      "nn": 3328,
      "Ġdifference": 3329,
      "Ġfix": 3330,
      "90": 3331,
      "eded": 3332,
      "gine": 3333,
      "Ġcomb": 3334,
      "Ġabs": 3335,
      "Number": 3336,
      "images": 3337,
      "ourse": 3338,
      "Ġrot": 3339,
      "Ġ>>>": 3340,
      "eval": 3341,
      "active": 3342,
      "Ġextension": 3343,
      "pair": 3344,
      "racket": 3345,
      "oder": 3346,
      "initial": 3347,
      "Ġdetect": 3348,
      "ĠCode": 3349,
      "Ġprevious": 3350,
      "Class": 3351,
      "ration": 3352,
      "Ġwould": 3353,
      "Ġrelated": 3354,
      "Parser": 3355,
      "Ġrelevant": 3356,
      "child": 3357,
      "Ġsentiment": 3358,
      "uation": 3359,
      "Ġsl": 3360,
      "factor": 3361,
      "ik": 3362,
      "msg": 3363,
      "assed": 3364,
      "Ġnegative": 3365,
      "ENT": 3366,
      "chunk": 3367,
      "ew": 3368,
      "Ġana": 3369,
      "Ġdetermin": 3370,
      "correct": 3371,
      "Mod": 3372,
      "Ġhandler": 3373,
      "Log": 3374,
      "parameters": 3375,
      "samples": 3376,
      "Ġkeep": 3377,
      "exists": 3378,
      "Ġsimp": 3379,
      "Ġtf": 3380,
      "ird": 3381,
      "caling": 3382,
      "/{": 3383,
      "atten": 3384,
      "Found": 3385,
      "Table": 3386,
      "classes": 3387,
      "gan": 3388,
      "dient": 3389,
      "Ġbel": 3390,
      "Ġhidden": 3391,
      "Ġselect": 3392,
      "sv": 3393,
      "Ġforward": 3394,
      "Ġvol": 3395,
      "parts": 3396,
      "category": 3397,
      "setup": 3398,
      "PU": 3399,
      "cast": 3400,
      "Path": 3401,
      "ĠPl": 3402,
      "Ġran": 3403,
      "centage": 3404,
      "spec": 3405,
      "DI": 3406,
      "transform": 3407,
      "ensity": 3408,
      "reverse": 3409,
      "ength": 3410,
      "Ġmedian": 3411,
      "ankAccount": 3412,
      "alanc": 3413,
      ")))": 3414,
      "stop": 3415,
      "ites": 3416,
      "ĠRetri": 3417,
      "Ġdigits": 3418,
      "Ġtk": 3419,
      "Ġparams": 3420,
      "ĠURLs": 3421,
      "ĠCh": 3422,
      "Ġlinear": 3423,
      "Ġcomputer": 3424,
      "redential": 3425,
      "del": 3426,
      "icles": 3427,
      "ĠNum": 3428,
      "callback": 3429,
      "UN": 3430,
      "Ġrect": 3431,
      "Ġmeasure": 3432,
      "Ġtransaction": 3433,
      "aw": 3434,
      "ority": 3435,
      "Ġdefinit": 3436,
      "dump": 3437,
      "cial": 3438,
      "Ġmanip": 3439,
      "Ġaccur": 3440,
      "ĠHand": 3441,
      "ĠIterate": 3442,
      "Ġdatasets": 3443,
      "ground": 3444,
      "ane": 3445,
      "256": 3446,
      "sk": 3447,
      "ĠNumPy": 3448,
      "Text": 3449,
      "trics": 3450,
      "]):": 3451,
      "longest": 3452,
      "err": 3453,
      "Ġrunning": 3454,
      "palindrome": 3455,
      "itch": 3456,
      "Ġ13": 3457,
      "convert": 3458,
      "Ġensuring": 3459,
      "unctuation": 3460,
      "project": 3461,
      "Ġplatform": 3462,
      "Ġprogress": 3463,
      "unit": 3464,
      "tc": 3465,
      "Ġrobot": 3466,
      "Ġheader": 3467,
      "456": 3468,
      "Ġinher": 3469,
      "axis": 3470,
      "jpg": 3471,
      "predict": 3472,
      "oe": 3473,
      "ĠAs": 3474,
      "uid": 3475,
      "}')": 3476,
      "Ġimplemented": 3477,
      "Ġinterval": 3478,
      "Task": 3479,
      "fs": 3480,
      "18": 3481,
      "periment": 3482,
      "inner": 3483,
      "ahren": 3484,
      "Ġduration": 3485,
      "ithub": 3486,
      "ĠĠĠĠĠĠĠĠĠ": 3487,
      "tack": 3488,
      "ls": 3489,
      "ndarray": 3490,
      "extension": 3491,
      "packages": 3492,
      "Ġwriting": 3493,
      "Ġpayload": 3494,
      "Ġtrue": 3495,
      "Ġconcaten": 3496,
      "Ġdesign": 3497,
      "URL": 3498,
      "debug": 3499,
      "Ġpix": 3500,
      "Ġcontents": 3501,
      "heit": 3502,
      "database": 3503,
      "Ġpreprocess": 3504,
      "prefix": 3505,
      "dev": 3506,
      "Sort": 3507,
      "ately": 3508,
      "prob": 3509,
      "Ġside": 3510,
      "ĠPar": 3511,
      "Ġneighb": 3512,
      "Image": 3513,
      "energy": 3514,
      "change": 3515,
      "sqrt": 3516,
      "AG": 3517,
      "xml": 3518,
      "âĶĢ": 3519,
      ")\"\"\"": 3520,
      "make": 3521,
      "Ġignore": 3522,
      "ahrenheit": 3523,
      "EX": 3524,
      "Ġbasic": 3525,
      "Ġzero": 3526,
      "igrations": 3527,
      "cu": 3528,
      "ocab": 3529,
      "Ġproperly": 3530,
      "entry": 3531,
      "acity": 3532,
      "UL": 3533,
      "af": 3534,
      "`.\"\"\"": 3535,
      "messages": 3536,
      "Ġfo": 3537,
      "Ġcontinue": 3538,
      ".')": 3539,
      "ĠStr": 3540,
      "Ġpredictions": 3541,
      "efficient": 3542,
      "diff": 3543,
      "(-": 3544,
      "Ġdown": 3545,
      "ula": 3546,
      "ĠImplementation": 3547,
      "ĠDis": 3548,
      "Ġbody": 3549,
      "Ġshort": 3550,
      "ĠSe": 3551,
      "lied": 3552,
      "PE": 3553,
      "wh": 3554,
      "compon": 3555,
      "uplicate": 3556,
      "Ġedge": 3557,
      "patterns": 3558,
      "service": 3559,
      "200": 3560,
      "way": 3561,
      "store": 3562,
      "Ġstorage": 3563,
      "Ġgenerator": 3564,
      "Ġaccomp": 3565,
      "fact": 3566,
      "Ġsched": 3567,
      "agent": 3568,
      "Ġindividual": 3569,
      "40": 3570,
      "Ġupdates": 3571,
      "MM": 3572,
      "letters": 3573,
      "Ġseconds": 3574,
      "ĠDefine": 3575,
      "Custom": 3576,
      "Message": 3577,
      "iod": 3578,
      "erial": 3579,
      "SC": 3580,
      "Ġexc": 3581,
      "Ġcursor": 3582,
      "ulate": 3583,
      "access": 3584,
      "install": 3585,
      "]],": 3586,
      "atio": 3587,
      "Ġobtained": 3588,
      "Ġloc": 3589,
      "ĠSimul": 3590,
      "Ġdimensions": 3591,
      "Ġaxis": 3592,
      "operations": 3593,
      "Element": 3594,
      "bject": 3595,
      "Ġembed": 3596,
      "ressed": 3597,
      "Ġspecial": 3598,
      "creen": 3599,
      "Ġsignal": 3600,
      "'t": 3601,
      "Ġfull": 3602,
      "Ġpatterns": 3603,
      "ĠGenerate": 3604,
      "bound": 3605,
      "0000": 3606,
      "Ġprogramming": 3607,
      "Ġappend": 3608,
      "student": 3609,
      "!\"": 3610,
      "lists": 3611,
      "ĠFunction": 3612,
      "Ġanalysis": 3613,
      "chain": 3614,
      "ĠRead": 3615,
      "Ġencoded": 3616,
      "Ġperformance": 3617,
      "Ġattemp": 3618,
      "ĠInput": 3619,
      "Ġencrypted": 3620,
      "tensor": 3621,
      "tem": 3622,
      "Client": 3623,
      "Line": 3624,
      "ather": 3625,
      "defined": 3626,
      "ries": 3627,
      "Ġcreation": 3628,
      "steps": 3629,
      "Ġpower": 3630,
      "Ġdirection": 3631,
      "Returns": 3632,
      "Ġlinked": 3633,
      "nodes": 3634,
      "loaded": 3635,
      "Ġmodify": 3636,
      "grade": 3637,
      "Ġretrieves": 3638,
      "Ġannot": 3639,
      "rs": 3640,
      "Ġstock": 3641,
      "most": 3642,
      "Ġpipeline": 3643,
      "Ġchange": 3644,
      "rackets": 3645,
      "icate": 3646,
      "Ġchanges": 3647,
      "chars": 3648,
      "Ġmerged": 3649,
      "sage": 3650,
      "aced": 3651,
      "handle": 3652,
      "operation": 3653,
      "Ġdays": 3654,
      "Ġ',": 3655,
      "().__": 3656,
      "Ġpackages": 3657,
      "nown": 3658,
      "Ġmanaging": 3659,
      "NotFound": 3660,
      "aus": 3661,
      "td": 3662,
      "redentials": 3663,
      "Ġaudio": 3664,
      "leep": 3665,
      "Alice": 3666,
      "Handler": 3667,
      "Ġrecurs": 3668,
      "Ġreturned": 3669,
      "gex": 3670,
      "Char": 3671,
      "ĠĠĠĠĠĠčĊ": 3672,
      "register": 3673,
      "ugin": 3674,
      "75": 3675,
      "Ġpd": 3676,
      "letter": 3677,
      "US": 3678,
      "cel": 3679,
      "ubble": 3680,
      "Ġdecimal": 3681,
      "Ġoutputs": 3682,
      "swer": 3683,
      "processed": 3684,
      "UI": 3685,
      "Ġorgan": 3686,
      "Ġextra": 3687,
      "ferences": 3688,
      "digit": 3689,
      "23": 3690,
      "Ġpur": 3691,
      "utils": 3692,
      "ipher": 3693,
      "cision": 3694,
      "Ġconn": 3695,
      "Ġkernel": 3696,
      "urations": 3697,
      "=[": 3698,
      "DO": 3699,
      "If": 3700,
      "Ġoptimizer": 3701,
      "uffle": 3702,
      "Ġapi": 3703,
      "Ġcard": 3704,
      "Processor": 3705,
      "Ġpassed": 3706,
      "Ġrule": 3707,
      "Ġscenari": 3708,
      "Ġspaces": 3709,
      "Iter": 3710,
      "Ġfont": 3711,
      "Ġseparated": 3712,
      "adding": 3713,
      "rency": 3714,
      "ĠArgs": 3715,
      "Ġfail": 3716,
      "arrow": 3717,
      "imiter": 3718,
      "Ġregular": 3719,
      "Ġinitialized": 3720,
      "Ġmultiply": 3721,
      "RA": 3722,
      "sole": 3723,
      "Th": 3724,
      "ud": 3725,
      "eries": 3726,
      "}.": 3727,
      "Ġadds": 3728,
      "Ġallowed": 3729,
      "oud": 3730,
      "Ġreads": 3731,
      "Ġdigit": 3732,
      "Ġcomponent": 3733,
      "Ġdestination": 3734,
      "Ġsq": 3735,
      "Ġ`[": 3736,
      "cio": 3737,
      "(['": 3738,
      "ĠNo": 3739,
      "city": 3740,
      "aris": 3741,
      "ube": 3742,
      "Ġanalyze": 3743,
      "arm": 3744,
      "mapping": 3745,
      "Ġpredicted": 3746,
      "Ġimg": 3747,
      "Ġ'-": 3748,
      "based": 3749,
      "Ġphone": 3750,
      "torch": 3751,
      "hen": 3752,
      "Ġmsg": 3753,
      "icy": 3754,
      "exit": 3755,
      "Ġroom": 3756,
      "mber": 3757,
      "lified": 3758,
      "struction": 3759,
      "Ġge": 3760,
      "Ġimported": 3761,
      "Ġregister": 3762,
      "CON": 3763,
      "king": 3764,
      "Ġascending": 3765,
      "aml": 3766,
      "serial": 3767,
      "En": 3768,
      "ategy": 3769,
      "characters": 3770,
      "ĠRetrieve": 3771,
      "Ġvert": 3772,
      "ocity": 3773,
      "buffer": 3774,
      "Ġinstances": 3775,
      "sys": 3776,
      "\"}": 3777,
      "losed": 3778,
      "embed": 3779,
      "bool": 3780,
      "Ġoperator": 3781,
      "solute": 3782,
      "Ġdele": 3783,
      "Ġcho": 3784,
      "Ġattr": 3785,
      "ĠImage": 3786,
      "-%": 3787,
      "Ġfact": 3788,
      "dictionary": 3789,
      "DF": 3790,
      "ensitive": 3791,
      "header": 3792,
      "font": 3793,
      "Ġbyte": 3794,
      "2022": 3795,
      "ranch": 3796,
      "Ġbank": 3797,
      "Ġtransactions": 3798,
      "Construct": 3799,
      "paper": 3800,
      "ats": 3801,
      "dest": 3802,
      "sest": 3803,
      "ryption": 3804,
      "Ġ32": 3805,
      "uture": 3806,
      "Ġfra": 3807,
      "Ġagent": 3808,
      "norm": 3809,
      "Ġ[(": 3810,
      "optim": 3811,
      "Ġsamples": 3812,
      "Ġ`--": 3813,
      "Ġremote": 3814,
      "canvas": 3815,
      "Ġbar": 3816,
      "iguous": 3817,
      "ĠName": 3818,
      "tuple": 3819,
      "Ġstd": 3820,
      "]+": 3821,
      "Ġraw": 3822,
      "alog": 3823,
      "fibonacci": 3824,
      "Ġauthentication": 3825,
      "17": 3826,
      "Equal": 3827,
      "arn": 3828,
      "Ġcustomer": 3829,
      "Ġsimulation": 3830,
      "Python": 3831,
      "tk": 3832,
      "Ġconsists": 3833,
      "thing": 3834,
      "Ġonce": 3835,
      "ifiers": 3836,
      "Ġ..": 3837,
      "ĠCount": 3838,
      "ae": 3839,
      "Ġ60": 3840,
      "wn": 3841,
      "Ġ$": 3842,
      "tags": 3843,
      "Ġtimeout": 3844,
      "comm": 3845,
      "Sh": 3846,
      "nsu": 3847,
      "Ġuppercase": 3848,
      "HE": 3849,
      "snippet": 3850,
      "Ġcommit": 3851,
      "=(": 3852,
      "Qu": 3853,
      "alanced": 3854,
      "Find": 3855,
      "contain": 3856,
      "ince": 3857,
      "ĠSort": 3858,
      "ĠEnsure": 3859,
      "TO": 3860,
      "banana": 3861,
      "Ġclassify": 3862,
      "ĠUser": 3863,
      "occur": 3864,
      "FA": 3865,
      "rd": 3866,
      "Ġmiddle": 3867,
      "ĠGit": 3868,
      "integer": 3869,
      "heses": 3870,
      "ride": 3871,
      "ĠPlace": 3872,
      "Count": 3873,
      "Ġanagrams": 3874,
      "Ġcomm": 3875,
      "jor": 3876,
      "Ġsquares": 3877,
      "Ġsimplified": 3878,
      "ral": 3879,
      "inventory": 3880,
      "ster": 3881,
      "Ġinventory": 3882,
      "eds": 3883,
      "chron": 3884,
      "Ġtransl": 3885,
      "Ġrespectively": 3886,
      ":\")": 3887,
      "ĠAl": 3888,
      "Ġallows": 3889,
      "room": 3890,
      "resource": 3891,
      "src": 3892,
      "ĠOpen": 3893,
      "ogle": 3894,
      "Ġalphabet": 3895,
      "60": 3896,
      "schema": 3897,
      "Ġtyping": 3898,
      "]`,": 3899,
      "ilities": 3900,
      "Ġverify": 3901,
      "video": 3902,
      "atches": 3903,
      "memory": 3904,
      "Ġlat": 3905,
      "Ġlike": 3906,
      "analy": 3907,
      "quantity": 3908,
      "Ġconstraint": 3909,
      "character": 3910,
      "cher": 3911,
      "threshold": 3912,
      "ily": 3913,
      "ĠIDs": 3914,
      "ĠHandle": 3915,
      "github": 3916,
      "tion": 3917,
      "NotFoundError": 3918,
      "Ġreal": 3919,
      "Ġsummary": 3920,
      "Ġ```": 3921,
      "Ġ14": 3922,
      "Any": 3923,
      "roller": 3924,
      "EST": 3925,
      "tle": 3926,
      "Stream": 3927,
      "ĠPlaceholder": 3928,
      "aps": 3929,
      "release": 3930,
      "Ġstars": 3931,
      "Ġconversion": 3932,
      "Ġparsing": 3933,
      "commit": 3934,
      "Ġrecords": 3935,
      "Check": 3936,
      "Ġevaluate": 3937,
      "Ġ255": 3938,
      "'},": 3939,
      "DB": 3940,
      "Search": 3941,
      "Ġspecify": 3942,
      "Ġbuffer": 3943,
      "Build": 3944,
      "System": 3945,
      "{'": 3946,
      "vector": 3947,
      "ĠMo": 3948,
      "Ġbrow": 3949,
      "odd": 3950,
      "very": 3951,
      "pk": 3952,
      "Ġactivation": 3953,
      "alle": 3954,
      "annot": 3955,
      "resh": 3956,
      "Ġprices": 3957,
      "role": 3958,
      "two": 3959,
      "days": 3960,
      "generator": 3961,
      "Ġrev": 3962,
      "modules": 3963,
      "Ġgreatest": 3964,
      "Trans": 3965,
      "Ġvolume": 3966,
      "Ġchannel": 3967,
      "ords": 3968,
      "full": 3969,
      "Ġlayers": 3970,
      "secut": 3971,
      "DAT": 3972,
      "cogn": 3973,
      "ĠDe": 3974,
      "ordinate": 3975,
      "TH": 3976,
      "Ġold": 3977,
      "ident": 3978,
      "plan": 3979,
      "apping": 3980,
      "ffect": 3981,
      "alpha": 3982,
      "rank": 3983,
      "Ġbelow": 3984,
      "Ġsubarray": 3985,
      "requencies": 3986,
      "ĠĠĠĠĠĠĠĠĠĠĠĠĠĠĠĠĠĠĠĠĠĠĠĠ": 3987,
      "configure": 3988,
      "Ġfollowed": 3989,
      "Ġscra": 3990,
      "Ġsubtract": 3991,
      "Ġdiff": 3992,
      "Ġpermutations": 3993,
      "ced": 3994,
      "duration": 3995,
      "\").": 3996,
      "Ġ80": 3997,
      "ives": 3998,
      "Ġdefinition": 3999,
      "month": 4000,
      "Tensor": 4001,
      "drop": 4002,
      "Ġresulting": 4003,
      "ĠBase": 4004,
      "Ġappear": 4005,
      "Ġglobal": 4006,
      "Ġ\"\".": 4007,
      "non": 4008,
      "Ġcalculation": 4009,
      "!\")": 4010,
      "Length": 4011,
      "patch": 4012,
      "ĠCustom": 4013,
      "nections": 4014,
      "Ġreceived": 4015,
      "ires": 4016,
      "Ġneeded": 4017,
      "Ġdecoded": 4018,
      "ason": 4019,
      "utes": 4020,
      "only": 4021,
      "iful": 4022,
      "tool": 4023,
      "force": 4024,
      "sa": 4025,
      "Ġ18": 4026,
      "Ġchecking": 4027,
      "login": 4028,
      "Ġfit": 4029,
      "UR": 4030,
      "neighb": 4031,
      "arison": 4032,
      "ier": 4033,
      "vate": 4034,
      "Ad": 4035,
      "repr": 4036,
      "const": 4037,
      "lishes": 4038,
      "Ġdistribution": 4039,
      "\\\\": 4040,
      "Ġcity": 4041,
      "grad": 4042,
      "rence": 4043,
      "autiful": 4044,
      "secutive": 4045,
      "numpy": 4046,
      "gu": 4047,
      "phone": 4048,
      "Ġseparate": 4049,
      "scri": 4050,
      "Ġinner": 4051,
      "ceive": 4052,
      "Ġformula": 4053,
      "ĠProcess": 4054,
      "FF": 4055,
      "ffix": 4056,
      "anged": 4057,
      "orrow": 4058,
      "Ġuntil": 4059,
      "Ġcapital": 4060,
      "Of": 4061,
      "Ġresol": 4062,
      "ĠHow": 4063,
      "Ġden": 4064,
      "Ġsection": 4065,
      "Ġsmallest": 4066,
      "CA": 4067,
      "ĠAssume": 4068,
      "ĠMethod": 4069,
      "ĠBe": 4070,
      "Ġds": 4071,
      "Ġpermissions": 4072,
      "Ġretrieved": 4073,
      "Ġsat": 4074,
      "cope": 4075,
      "has": 4076,
      "cho": 4077,
      "Read": 4078,
      "avg": 4079,
      "Ġdemonstrates": 4080,
      "dependencies": 4081,
      "Ġ17": 4082,
      "]),": 4083,
      "normal": 4084,
      "sian": 4085,
      "Ġpandas": 4086,
      "Ġgrade": 4087,
      "FILE": 4088,
      "Ġmenu": 4089,
      "Ġiterate": 4090,
      "Response": 4091,
      "static": 4092,
      "Event": 4093,
      "ĠFind": 4094,
      "acc": 4095
    },
    "merges": [
      [
        "Ġ",
        "Ġ"
      ],
      [
        "č",
        "Ċ"
      ],
      [
        "ĠĠ",
        "ĠĠ"
      ],
      [
        "Ġ",
        "t"
      ],
      [
        "i",
        "n"
      ],
      [
        "ĠĠ",
        "Ġ"
      ],
      [
        "Ġ",
        "a"
      ],
      [
        "r",
        "e"
      ],
      [
        "h",
        "e"
      ],
      [
        "o",
        "n"
      ],
      [
        "a",
        "t"
      ],
      [
        "Ġ",
        "s"
      ],
      [
        "Ġt",
        "he"
      ],
      [
        "e",
        "r"
      ],
      [
        "e",
        "n"
      ],
      [
        "o",
        "r"
      ],
      [
        "Ġ",
        "f"
      ],
      [
        "Ġ",
        "c"
      ],
      [
        "ĠĠĠĠ",
        "ĠĠĠ"
      ],
      [
        "e",
        "s"
      ],
      [
        "l",
        "e"
      ],
      [
        "i",
        "on"
      ],
      [
        "d",
        "e"
      ],
      [
        "Ġ",
        "i"
      ],
      [
        "Ġ",
        "p"
      ],
      [
        "s",
        "t"
      ],
      [
        "Ġ",
        "="
      ],
      [
        "\"",
        "\""
      ],
      [
        "c",
        "t"
      ],
      [
        "in",
        "g"
      ],
      [
        "o",
        "u"
      ],
      [
        "i",
        "t"
      ],
      [
        "Ġ",
        "re"
      ],
      [
        "a",
        "l"
      ],
      [
        "Ġ",
        "in"
      ],
      [
        "s",
        "e"
      ],
      [
        "a",
        "r"
      ],
      [
        "n",
        "d"
      ],
      [
        "m",
        "e"
      ],
      [
        "u",
        "r"
      ],
      [
        "en",
        "t"
      ],
      [
        "Ġ",
        "n"
      ],
      [
        "Ġ",
        "o"
      ],
      [
        "r",
        "o"
      ],
      [
        "r",
        "a"
      ],
      [
        "Ġt",
        "o"
      ],
      [
        "e",
        "l"
      ],
      [
        "a",
        "s"
      ],
      [
        "Ġ",
        "w"
      ],
      [
        "Ġ",
        "`"
      ],
      [
        "m",
        "p"
      ],
      [
        "e",
        "d"
      ],
      [
        "Ġ",
        "l"
      ],
      [
        "u",
        "t"
      ],
      [
        "Ġa",
        "nd"
      ],
      [
        "ur",
        "n"
      ],
      [
        "t",
        "urn"
      ],
      [
        ")",
        ":"
      ],
      [
        "Ġ",
        "d"
      ],
      [
        "ct",
        "ion"
      ],
      [
        "u",
        "m"
      ],
      [
        "g",
        "e"
      ],
      [
        "Ġ",
        "b"
      ],
      [
        "\"\"",
        "\""
      ],
      [
        "Ġre",
        "turn"
      ],
      [
        "de",
        "f"
      ],
      [
        "Ġ",
        "m"
      ],
      [
        "ĠĠĠĠ",
        "ĠĠĠĠĠĠĠ"
      ],
      [
        "u",
        "n"
      ],
      [
        "t",
        "h"
      ],
      [
        "Ġo",
        "f"
      ],
      [
        "i",
        "st"
      ],
      [
        "Ġf",
        "or"
      ],
      [
        "at",
        "e"
      ],
      [
        "i",
        "c"
      ],
      [
        "a",
        "n"
      ],
      [
        "Ġ",
        "e"
      ],
      [
        "Ġs",
        "t"
      ],
      [
        "Ġ",
        "\""
      ],
      [
        "Ġi",
        "s"
      ],
      [
        "un",
        "ction"
      ],
      [
        "l",
        "o"
      ],
      [
        "Ġ",
        "#"
      ],
      [
        "at",
        "ion"
      ],
      [
        "a",
        "me"
      ],
      [
        "Ġf",
        "unction"
      ],
      [
        "mp",
        "le"
      ],
      [
        "l",
        "d"
      ],
      [
        "m",
        "ent"
      ],
      [
        "Ġ",
        "'"
      ],
      [
        "`",
        "`"
      ],
      [
        "Ġ",
        "T"
      ],
      [
        "Ġt",
        "h"
      ],
      [
        "u",
        "l"
      ],
      [
        "Ġc",
        "o"
      ],
      [
        "Ġi",
        "f"
      ],
      [
        "in",
        "t"
      ],
      [
        "p",
        "e"
      ],
      [
        "c",
        "e"
      ],
      [
        "it",
        "h"
      ],
      [
        "Ġs",
        "el"
      ],
      [
        "at",
        "a"
      ],
      [
        "p",
        "ut"
      ],
      [
        "Ġsel",
        "f"
      ],
      [
        "f",
        "i"
      ],
      [
        "r",
        "i"
      ],
      [
        "Ġ",
        "g"
      ],
      [
        "Ġs",
        "h"
      ],
      [
        "Y",
        "ou"
      ],
      [
        "c",
        "h"
      ],
      [
        "Ġp",
        "ro"
      ],
      [
        "as",
        "s"
      ],
      [
        "u",
        "e"
      ],
      [
        "Ġ",
        "v"
      ],
      [
        "Ġ",
        "1"
      ],
      [
        "re",
        "s"
      ],
      [
        "ou",
        "ld"
      ],
      [
        "er",
        "s"
      ],
      [
        "Ġ",
        "\"\"\""
      ],
      [
        "t",
        "e"
      ],
      [
        "Ġsh",
        "ould"
      ],
      [
        "Ġth",
        "at"
      ],
      [
        "i",
        "v"
      ],
      [
        "m",
        "a"
      ],
      [
        "Ġw",
        "ith"
      ],
      [
        "n",
        "t"
      ],
      [
        "o",
        "l"
      ],
      [
        "o",
        "d"
      ],
      [
        "Ġ",
        "def"
      ],
      [
        "se",
        "l"
      ],
      [
        "u",
        "s"
      ],
      [
        "sel",
        "f"
      ],
      [
        "_",
        "_"
      ],
      [
        "Ġst",
        "r"
      ],
      [
        "y",
        "th"
      ],
      [
        "yth",
        "on"
      ],
      [
        "Ġc",
        "on"
      ],
      [
        "i",
        "s"
      ],
      [
        "es",
        "s"
      ],
      [
        "Ġ",
        "P"
      ],
      [
        "Ġf",
        "i"
      ],
      [
        "Ġ",
        "čĊ"
      ],
      [
        "or",
        "d"
      ],
      [
        "i",
        "d"
      ],
      [
        "o",
        "t"
      ],
      [
        "c",
        "k"
      ],
      [
        "ĠT",
        "he"
      ],
      [
        "es",
        "t"
      ],
      [
        "a",
        "d"
      ],
      [
        "as",
        "k"
      ],
      [
        "q",
        "u"
      ],
      [
        "Ġa",
        "s"
      ],
      [
        "x",
        "t"
      ],
      [
        "Ġ",
        "["
      ],
      [
        "l",
        "ass"
      ],
      [
        "(",
        ")"
      ],
      [
        "Ġn",
        "um"
      ],
      [
        "Ġl",
        "ist"
      ],
      [
        "Ġ",
        "-"
      ],
      [
        "Ġ",
        "("
      ],
      [
        "r",
        "int"
      ],
      [
        "e",
        "t"
      ],
      [
        "st",
        "r"
      ],
      [
        "p",
        "p"
      ],
      [
        "Ġa",
        "re"
      ],
      [
        "c",
        "o"
      ],
      [
        "a",
        "ge"
      ],
      [
        "Ġ",
        "h"
      ],
      [
        "p",
        "t"
      ],
      [
        "Ġt",
        "ask"
      ],
      [
        "mple",
        "ment"
      ],
      [
        "i",
        "g"
      ],
      [
        "Ġ",
        "me"
      ],
      [
        "ĠĠĠĠ",
        "ĠĠĠĠ"
      ],
      [
        "a",
        "b"
      ],
      [
        "k",
        "e"
      ],
      [
        "Ġp",
        "rint"
      ],
      [
        "Ġ",
        "0"
      ],
      [
        "i",
        "f"
      ],
      [
        "``",
        "`"
      ],
      [
        "Ġc",
        "lass"
      ],
      [
        "or",
        "t"
      ],
      [
        "Ġ",
        "+"
      ],
      [
        "ĠP",
        "ython"
      ],
      [
        "i",
        "z"
      ],
      [
        "\"",
        ","
      ],
      [
        "n",
        "ame"
      ],
      [
        "en",
        "d"
      ],
      [
        "t",
        "er"
      ],
      [
        "'",
        ","
      ],
      [
        "ul",
        "t"
      ],
      [
        "it",
        "e"
      ],
      [
        "ou",
        "nt"
      ],
      [
        "Ġa",
        "n"
      ],
      [
        "Ġi",
        "mplement"
      ],
      [
        "Ġd",
        "ata"
      ],
      [
        "i",
        "l"
      ],
      [
        "iv",
        "en"
      ],
      [
        "v",
        "e"
      ],
      [
        "Ġv",
        "al"
      ],
      [
        "ge",
        "t"
      ],
      [
        "Ġa",
        "r"
      ],
      [
        "Ġ",
        "A"
      ],
      [
        "lo",
        "w"
      ],
      [
        "Ġe",
        "x"
      ],
      [
        "th",
        "od"
      ],
      [
        "Ġ",
        "2"
      ],
      [
        "Ġ",
        "us"
      ],
      [
        "i",
        "m"
      ],
      [
        "Ġg",
        "iven"
      ],
      [
        "Ġ",
        "ra"
      ],
      [
        "v",
        "er"
      ],
      [
        "Ġ",
        "I"
      ],
      [
        "Ġin",
        "put"
      ],
      [
        "o",
        "de"
      ],
      [
        "a",
        "se"
      ],
      [
        "Ġstr",
        "ing"
      ],
      [
        "p",
        "l"
      ],
      [
        "You",
        "r"
      ],
      [
        "at",
        "h"
      ],
      [
        "c",
        "ess"
      ],
      [
        "Ġre",
        "s"
      ],
      [
        "ar",
        "y"
      ],
      [
        "Ġ",
        "{"
      ],
      [
        "t",
        "a"
      ],
      [
        "Ġme",
        "thod"
      ],
      [
        ".",
        "\"\"\""
      ],
      [
        "on",
        "e"
      ],
      [
        "Ġb",
        "e"
      ],
      [
        "d",
        "i"
      ],
      [
        "ro",
        "m"
      ],
      [
        "Ġn",
        "e"
      ],
      [
        "v",
        "al"
      ],
      [
        "Ġm",
        "a"
      ],
      [
        "Ġnum",
        "b"
      ],
      [
        "or",
        "m"
      ],
      [
        "Ġ=",
        "="
      ],
      [
        "Ġa",
        "l"
      ],
      [
        "Ġt",
        "a"
      ],
      [
        "Ġ",
        "el"
      ],
      [
        "ĠĠĠĠ",
        "ĠĠĠĠĠĠĠĠĠĠĠ"
      ],
      [
        "'",
        ":"
      ],
      [
        "Ġd",
        "i"
      ],
      [
        "ou",
        "t"
      ],
      [
        "(",
        "\""
      ],
      [
        "\"",
        ")"
      ],
      [
        "Ġfi",
        "le"
      ],
      [
        "ke",
        "y"
      ],
      [
        "Ġp",
        "ar"
      ],
      [
        "n",
        "um"
      ],
      [
        "a",
        "m"
      ],
      [
        "Ġ",
        "de"
      ],
      [
        "d",
        "ata"
      ],
      [
        "a",
        "y"
      ],
      [
        "i",
        "p"
      ],
      [
        "Ġ",
        "C"
      ],
      [
        "g",
        "ra"
      ],
      [
        "v",
        "i"
      ],
      [
        "Ġ",
        "N"
      ],
      [
        "c",
        "on"
      ],
      [
        ")",
        ")"
      ],
      [
        "Ġ",
        "on"
      ],
      [
        "l",
        "ist"
      ],
      [
        "c",
        "i"
      ],
      [
        "ol",
        "low"
      ],
      [
        "u",
        "re"
      ],
      [
        "u",
        "p"
      ],
      [
        "Ġf",
        "ollow"
      ],
      [
        "Ġco",
        "de"
      ],
      [
        "f",
        "orm"
      ],
      [
        "h",
        "t"
      ],
      [
        "Ġn",
        "ot"
      ],
      [
        "a",
        "mple"
      ],
      [
        "Ġl",
        "o"
      ],
      [
        "Ġ",
        "F"
      ],
      [
        "re",
        "ate"
      ],
      [
        "t",
        "o"
      ],
      [
        "u",
        "b"
      ],
      [
        "Ġre",
        "p"
      ],
      [
        "e",
        "ct"
      ],
      [
        "r",
        "ite"
      ],
      [
        "\"",
        ":"
      ],
      [
        "Ġs",
        "pe"
      ],
      [
        "a",
        "nd"
      ],
      [
        "p",
        "er"
      ],
      [
        "de",
        "d"
      ],
      [
        "se",
        "t"
      ],
      [
        "Ġf",
        "rom"
      ],
      [
        "res",
        "ent"
      ],
      [
        "Ġ",
        "S"
      ],
      [
        "l",
        "y"
      ],
      [
        "o",
        "m"
      ],
      [
        "gra",
        "m"
      ],
      [
        "Ġc",
        "h"
      ],
      [
        "iz",
        "e"
      ],
      [
        "Ġfollow",
        "ing"
      ],
      [
        "-",
        "-"
      ],
      [
        "ra",
        "y"
      ],
      [
        "ab",
        "le"
      ],
      [
        "=",
        "="
      ],
      [
        "in",
        "d"
      ],
      [
        "o",
        "s"
      ],
      [
        "in",
        "e"
      ],
      [
        "ar",
        "t"
      ],
      [
        "'",
        ")"
      ],
      [
        "en",
        "er"
      ],
      [
        "i",
        "me"
      ],
      [
        "o",
        "w"
      ],
      [
        "n",
        "ge"
      ],
      [
        "d",
        "d"
      ],
      [
        "Ġ",
        "3"
      ],
      [
        "Ġi",
        "t"
      ],
      [
        "(",
        "'"
      ],
      [
        "ta",
        "in"
      ],
      [
        "Ġrep",
        "resent"
      ],
      [
        "a",
        "c"
      ],
      [
        "Ġ-",
        ">"
      ],
      [
        "a",
        "ck"
      ],
      [
        "Ġl",
        "en"
      ],
      [
        "Ġs",
        "e"
      ],
      [
        "y",
        "pe"
      ],
      [
        "0",
        "0"
      ],
      [
        "p",
        "ath"
      ],
      [
        "w",
        "ord"
      ],
      [
        "Ġta",
        "k"
      ],
      [
        "Ġel",
        "se"
      ],
      [
        "Ġc",
        "al"
      ],
      [
        "Ġn",
        "ame"
      ],
      [
        "r",
        "or"
      ],
      [
        "a",
        "g"
      ],
      [
        "Ġ",
        "y"
      ],
      [
        "str",
        "ing"
      ],
      [
        "Ġnumb",
        "er"
      ],
      [
        "an",
        "ce"
      ],
      [
        "Ġ",
        "__"
      ],
      [
        "a",
        "pp"
      ],
      [
        "Ġtak",
        "es"
      ],
      [
        "]",
        ","
      ],
      [
        "Ġra",
        "nge"
      ],
      [
        "Ġ",
        "or"
      ],
      [
        "i",
        "al"
      ],
      [
        "e",
        "xt"
      ],
      [
        "Ġ",
        "*"
      ],
      [
        "pt",
        "ion"
      ],
      [
        "r",
        "ue"
      ],
      [
        "ĠN",
        "one"
      ],
      [
        "Ġpro",
        "gram"
      ],
      [
        "fi",
        "le"
      ],
      [
        "it",
        "y"
      ],
      [
        "in",
        "it"
      ],
      [
        "c",
        "ount"
      ],
      [
        "en",
        "s"
      ],
      [
        "re",
        "nt"
      ],
      [
        "n",
        "s"
      ],
      [
        "Ġres",
        "ult"
      ],
      [
        "l",
        "es"
      ],
      [
        "c",
        "ul"
      ],
      [
        "Ġ",
        "E"
      ],
      [
        "or",
        "y"
      ],
      [
        "R",
        "e"
      ],
      [
        "j",
        "ect"
      ],
      [
        "Ġ",
        "x"
      ],
      [
        "Ġ",
        "<"
      ],
      [
        "]",
        ")"
      ],
      [
        "a",
        "ct"
      ],
      [
        "`",
        ":"
      ],
      [
        "Ġtask",
        "ed"
      ],
      [
        "Ġb",
        "y"
      ],
      [
        "Ġval",
        "ue"
      ],
      [
        "Ġ",
        "key"
      ],
      [
        "l",
        "en"
      ],
      [
        "a",
        "ch"
      ],
      [
        "ode",
        "l"
      ],
      [
        "Ġma",
        "x"
      ],
      [
        "at",
        "es"
      ],
      [
        "he",
        "r"
      ],
      [
        "re",
        "d"
      ],
      [
        "Ġcon",
        "tain"
      ],
      [
        "__",
        "("
      ],
      [
        "ic",
        "e"
      ],
      [
        "g",
        "s"
      ],
      [
        "Ġs",
        "et"
      ],
      [
        "at",
        "ing"
      ],
      [
        "Ġ",
        "L"
      ],
      [
        "p",
        "ro"
      ],
      [
        "t",
        "ri"
      ],
      [
        "se",
        "d"
      ],
      [
        "ation",
        "s"
      ],
      [
        "Ġ",
        "D"
      ],
      [
        "le",
        "ment"
      ],
      [
        ".",
        "_"
      ],
      [
        "at",
        "ed"
      ],
      [
        "i",
        "b"
      ],
      [
        "Ġco",
        "m"
      ],
      [
        "s",
        "er"
      ],
      [
        "o",
        "p"
      ],
      [
        "Ġw",
        "h"
      ],
      [
        "re",
        "ct"
      ],
      [
        "T",
        "he"
      ],
      [
        "Ġus",
        "ing"
      ],
      [
        "Ġdi",
        "ction"
      ],
      [
        "fi",
        "g"
      ],
      [
        "Ġ",
        "O"
      ],
      [
        "W",
        "rite"
      ],
      [
        "Ġw",
        "ord"
      ],
      [
        "m",
        "at"
      ],
      [
        "al",
        "se"
      ],
      [
        "ma",
        "ge"
      ],
      [
        "Ġreturn",
        "s"
      ],
      [
        "Ġpro",
        "cess"
      ],
      [
        "i",
        "r"
      ],
      [
        "ra",
        "ct"
      ],
      [
        "out",
        "put"
      ],
      [
        "c",
        "ri"
      ],
      [
        "Ġpro",
        "vi"
      ],
      [
        "p",
        "on"
      ],
      [
        "Ġre",
        "qu"
      ],
      [
        "u",
        "es"
      ],
      [
        "fi",
        "ed"
      ],
      [
        "ĠĠĠĠ",
        "Ġ"
      ],
      [
        "Ġ",
        "5"
      ],
      [
        "it",
        "ion"
      ],
      [
        "m",
        "o"
      ],
      [
        "p",
        "ython"
      ],
      [
        "Ġa",
        "t"
      ],
      [
        "i",
        "es"
      ],
      [
        "he",
        "ck"
      ],
      [
        "Ġin",
        "t"
      ],
      [
        "Ġ",
        "r"
      ],
      [
        "pe",
        "t"
      ],
      [
        "Ġb",
        "ase"
      ],
      [
        "Ġdiction",
        "ary"
      ],
      [
        "e",
        "x"
      ],
      [
        "ou",
        "r"
      ],
      [
        "ig",
        "n"
      ],
      [
        "n",
        "ip"
      ],
      [
        "he",
        "re"
      ],
      [
        "Ġ",
        "4"
      ],
      [
        "nip",
        "pet"
      ],
      [
        "if",
        "ic"
      ],
      [
        "p",
        "ar"
      ],
      [
        "Ġne",
        "w"
      ],
      [
        "o",
        "int"
      ],
      [
        "Ġa",
        "c"
      ],
      [
        "ess",
        "age"
      ],
      [
        "a",
        "ve"
      ],
      [
        "c",
        "l"
      ],
      [
        "app",
        "end"
      ],
      [
        "Ġo",
        "b"
      ],
      [
        "Ġe",
        "ach"
      ],
      [
        "de",
        "x"
      ],
      [
        "Ġprovi",
        "ded"
      ],
      [
        "Ġt",
        "ra"
      ],
      [
        "Ġs",
        "nippet"
      ],
      [
        "Ġa",
        "dd"
      ],
      [
        "Ġc",
        "ur"
      ],
      [
        "ener",
        "ate"
      ],
      [
        "u",
        "ct"
      ],
      [
        "iv",
        "e"
      ],
      [
        "Ġ",
        "u"
      ],
      [
        "Ġ",
        "U"
      ],
      [
        "Ġ+",
        "="
      ],
      [
        "ar",
        "r"
      ],
      [
        "ma",
        "nd"
      ],
      [
        "mp",
        "ort"
      ],
      [
        "f",
        "o"
      ],
      [
        "te",
        "xt"
      ],
      [
        "Ġb",
        "o"
      ],
      [
        "a",
        "ce"
      ],
      [
        "Ġar",
        "ray"
      ],
      [
        "r",
        "y"
      ],
      [
        "`",
        ","
      ],
      [
        "Ġ",
        "ro"
      ],
      [
        "cul",
        "ate"
      ],
      [
        "co",
        "m"
      ],
      [
        "Ġp",
        "er"
      ],
      [
        "ut",
        "put"
      ],
      [
        "f",
        "e"
      ],
      [
        "Ġ",
        "Your"
      ],
      [
        "Ġpar",
        "ame"
      ],
      [
        "Ġch",
        "ar"
      ],
      [
        "Ġspe",
        "ci"
      ],
      [
        "Ġc",
        "ount"
      ],
      [
        "i",
        "le"
      ],
      [
        "Ġus",
        "er"
      ],
      [
        "b",
        "ut"
      ],
      [
        "t",
        "ers"
      ],
      [
        "Ġ",
        "j"
      ],
      [
        "Ġar",
        "r"
      ],
      [
        "Ġe",
        "xt"
      ],
      [
        "Ġa",
        "pp"
      ],
      [
        "e",
        "m"
      ],
      [
        "en",
        "c"
      ],
      [
        ")",
        ","
      ],
      [
        "Ġ",
        "le"
      ],
      [
        "Ġs",
        "um"
      ],
      [
        "Ġp",
        "ass"
      ],
      [
        "val",
        "ue"
      ],
      [
        "num",
        "b"
      ],
      [
        "Ġc",
        "re"
      ],
      [
        "Ġe",
        "lement"
      ],
      [
        "w",
        "o"
      ],
      [
        "Ġbase",
        "d"
      ],
      [
        "c",
        "ur"
      ],
      [
        "ar",
        "d"
      ],
      [
        "ĠI",
        "f"
      ],
      [
        "al",
        "l"
      ],
      [
        "g",
        "th"
      ],
      [
        "ad",
        "d"
      ],
      [
        "res",
        "s"
      ],
      [
        "um",
        "ent"
      ],
      [
        "ou",
        "nd"
      ],
      [
        "d",
        "ate"
      ],
      [
        "ur",
        "l"
      ],
      [
        "Ġal",
        "l"
      ],
      [
        "u",
        "st"
      ],
      [
        "Ġrepresent",
        "ing"
      ],
      [
        "Ġ",
        "get"
      ],
      [
        "en",
        "ce"
      ],
      [
        "Ġco",
        "l"
      ],
      [
        "Ġspeci",
        "fied"
      ],
      [
        "ĠT",
        "rue"
      ],
      [
        "ĠF",
        "alse"
      ],
      [
        "or",
        "k"
      ],
      [
        "[",
        "'"
      ],
      [
        "ar",
        "i"
      ],
      [
        "g",
        "er"
      ],
      [
        "b",
        "o"
      ],
      [
        "t",
        "ime"
      ],
      [
        "Ġ[",
        "]"
      ],
      [
        "Ġin",
        "te"
      ],
      [
        "C",
        "reate"
      ],
      [
        "Ġnumb",
        "ers"
      ],
      [
        "Ġ",
        ">"
      ],
      [
        "Ġlo",
        "g"
      ],
      [
        "Ġh",
        "and"
      ],
      [
        "di",
        "ct"
      ],
      [
        "Ġt",
        "wo"
      ],
      [
        "r",
        "ror"
      ],
      [
        "a",
        "p"
      ],
      [
        "Ġs",
        "y"
      ],
      [
        "Ġspe",
        "c"
      ],
      [
        "e",
        "c"
      ],
      [
        "m",
        "s"
      ],
      [
        "o",
        "k"
      ],
      [
        "'",
        "]"
      ],
      [
        "Ġimplement",
        "ing"
      ],
      [
        "ig",
        "ht"
      ],
      [
        "==",
        "=="
      ],
      [
        "E",
        "rror"
      ],
      [
        "Ġimplement",
        "ation"
      ],
      [
        "u",
        "le"
      ],
      [
        "Ġ",
        "output"
      ],
      [
        "Ġs",
        "ub"
      ],
      [
        "Ġ",
        "un"
      ],
      [
        "ers",
        "ion"
      ],
      [
        "c",
        "ol"
      ],
      [
        "n",
        "e"
      ],
      [
        "c",
        "es"
      ],
      [
        "el",
        "d"
      ],
      [
        "Ġob",
        "ject"
      ],
      [
        "p",
        "h"
      ],
      [
        "at",
        "ure"
      ],
      [
        "Ġm",
        "odel"
      ],
      [
        "Ġ",
        "M"
      ],
      [
        "Ġt",
        "ext"
      ],
      [
        "Ġm",
        "od"
      ],
      [
        "i",
        "se"
      ],
      [
        "Ġspec",
        "ific"
      ],
      [
        "t",
        "her"
      ],
      [
        "x",
        "ample"
      ],
      [
        "Ġ",
        "up"
      ],
      [
        "an",
        "g"
      ],
      [
        "mple",
        "te"
      ],
      [
        "Ġval",
        "ues"
      ],
      [
        "Ġfor",
        "mat"
      ],
      [
        "Ġ",
        "Re"
      ],
      [
        "ĠĠĠĠ",
        "čĊ"
      ],
      [
        "ĠĠ",
        "čĊ"
      ],
      [
        "t",
        "ype"
      ],
      [
        "re",
        "n"
      ],
      [
        "re",
        "qu"
      ],
      [
        "Ġco",
        "mp"
      ],
      [
        "Ġp",
        "ath"
      ],
      [
        "`",
        "."
      ],
      [
        "Ġcur",
        "rent"
      ],
      [
        "q",
        "ue"
      ],
      [
        "Ġh",
        "ave"
      ],
      [
        "tri",
        "but"
      ],
      [
        "ar",
        "gs"
      ],
      [
        "s",
        "o"
      ],
      [
        "at",
        "ch"
      ],
      [
        "s",
        "s"
      ],
      [
        "Ġcre",
        "ating"
      ],
      [
        "it",
        "ial"
      ],
      [
        "er",
        "ror"
      ],
      [
        "t",
        "ra"
      ],
      [
        "Ġs",
        "ort"
      ],
      [
        "st",
        "em"
      ],
      [
        "at",
        "or"
      ],
      [
        "t",
        "ent"
      ],
      [
        "o",
        "b"
      ],
      [
        "I",
        "n"
      ],
      [
        "Ġt",
        "est"
      ],
      [
        "t",
        "al"
      ],
      [
        "Ġp",
        "re"
      ],
      [
        "ec",
        "ut"
      ],
      [
        "(",
        "):"
      ],
      [
        "Ġext",
        "ract"
      ],
      [
        "t",
        "y"
      ],
      [
        "f",
        "f"
      ],
      [
        "--",
        "--"
      ],
      [
        "Ġ",
        "he"
      ],
      [
        "ĠO",
        "utput"
      ],
      [
        "o",
        "st"
      ],
      [
        "Ġp",
        "l"
      ],
      [
        "Ġ",
        "H"
      ],
      [
        "w",
        "e"
      ],
      [
        "t",
        "r"
      ],
      [
        "e",
        "p"
      ],
      [
        "Ġc",
        "or"
      ],
      [
        "pl",
        "it"
      ],
      [
        "c",
        "lass"
      ],
      [
        "in",
        "put"
      ],
      [
        "an",
        "t"
      ],
      [
        "el",
        "s"
      ],
      [
        "ĠĠĠĠĠĠĠĠ",
        "ĠĠĠĠĠĠĠĠĠĠĠ"
      ],
      [
        "r",
        "ou"
      ],
      [
        "nd",
        "om"
      ],
      [
        "ic",
        "h"
      ],
      [
        "Ġo",
        "per"
      ],
      [
        "Ġto",
        "tal"
      ],
      [
        "a",
        "st"
      ],
      [
        "am",
        "es"
      ],
      [
        "Ġel",
        "if"
      ],
      [
        "Ġs",
        "u"
      ],
      [
        "Ġc",
        "reate"
      ],
      [
        "Ġ",
        "/"
      ],
      [
        "Ġcom",
        "mand"
      ],
      [
        "ma",
        "in"
      ],
      [
        "rect",
        "ory"
      ],
      [
        "b",
        "ase"
      ],
      [
        "ĠL",
        "ist"
      ],
      [
        "'",
        "s"
      ],
      [
        "s",
        "ize"
      ],
      [
        "i",
        "ent"
      ],
      [
        "Ġi",
        "mport"
      ],
      [
        "Ġh",
        "as"
      ],
      [
        "f",
        "t"
      ],
      [
        "Ġ",
        "G"
      ],
      [
        "l",
        "ic"
      ],
      [
        "Ġst",
        "art"
      ],
      [
        "Ġwh",
        "ich"
      ],
      [
        "Ġc",
        "heck"
      ],
      [
        "Ġi",
        "te"
      ],
      [
        "a",
        "re"
      ],
      [
        "Ġc",
        "an"
      ],
      [
        "g",
        "ument"
      ],
      [
        "Ġf",
        "ind"
      ],
      [
        "e",
        "v"
      ],
      [
        "Ġ",
        "R"
      ],
      [
        "cri",
        "pt"
      ],
      [
        "re",
        "ad"
      ],
      [
        "Ġm",
        "essage"
      ],
      [
        "o",
        "re"
      ],
      [
        "pon",
        "se"
      ],
      [
        "Ġparame",
        "ters"
      ],
      [
        "Ġ",
        "B"
      ],
      [
        "ri",
        "g"
      ],
      [
        "Ġt",
        "ime"
      ],
      [
        "o",
        "c"
      ],
      [
        "Ġi",
        "mage"
      ],
      [
        "Ġex",
        "ample"
      ],
      [
        "form",
        "ation"
      ],
      [
        "s",
        "h"
      ],
      [
        "Ġw",
        "e"
      ],
      [
        "co",
        "de"
      ],
      [
        "Ġcontain",
        "ing"
      ],
      [
        "Ġ1",
        "0"
      ],
      [
        "lo",
        "ad"
      ],
      [
        "]",
        ":"
      ],
      [
        "Ġ",
        "qu"
      ],
      [
        "an",
        "ag"
      ],
      [
        "Ġcal",
        "culate"
      ],
      [
        "il",
        "l"
      ],
      [
        "Ġ",
        "6"
      ],
      [
        "Ġrequ",
        "est"
      ],
      [
        "ar",
        "ch"
      ],
      [
        "us",
        "er"
      ],
      [
        "ar",
        "get"
      ],
      [
        "c",
        "al"
      ],
      [
        "mo",
        "ve"
      ],
      [
        "Ġs",
        "er"
      ],
      [
        "Ġex",
        "ce"
      ],
      [
        "ar",
        "ray"
      ],
      [
        "Ġne",
        "ed"
      ],
      [
        "Ġco",
        "mplete"
      ],
      [
        "g",
        "or"
      ],
      [
        "Ġmethod",
        "s"
      ],
      [
        "ma",
        "il"
      ],
      [
        "s",
        "on"
      ],
      [
        "Ġv",
        "ari"
      ],
      [
        "c",
        "he"
      ],
      [
        "ĠĠĠĠĠĠĠĠ",
        "ĠĠĠĠĠĠĠĠ"
      ],
      [
        "pl",
        "ay"
      ],
      [
        "Ġ",
        "_"
      ],
      [
        "Ġchar",
        "act"
      ],
      [
        "Ġval",
        "id"
      ],
      [
        "Ġcon",
        "fig"
      ],
      [
        "on",
        "g"
      ],
      [
        "Ġ",
        "en"
      ],
      [
        "Ġt",
        "ype"
      ],
      [
        "Ġg",
        "enerate"
      ],
      [
        "Ġ",
        "%"
      ],
      [
        "s",
        "um"
      ],
      [
        "is",
        "s"
      ],
      [
        "p",
        "y"
      ],
      [
        "Ġrequ",
        "i"
      ],
      [
        "]",
        "["
      ],
      [
        "Ġ",
        "8"
      ],
      [
        "Ġat",
        "tribut"
      ],
      [
        "le",
        "d"
      ],
      [
        ".",
        "."
      ],
      [
        "re",
        "e"
      ],
      [
        "rig",
        "ht"
      ],
      [
        "Ġth",
        "is"
      ],
      [
        "ment",
        "s"
      ],
      [
        "e",
        "mp"
      ],
      [
        "Ġsy",
        "stem"
      ],
      [
        "Ġm",
        "in"
      ],
      [
        "lo",
        "at"
      ],
      [
        "m",
        "in"
      ],
      [
        "ord",
        "er"
      ],
      [
        ")",
        "."
      ],
      [
        "Ġin",
        "formation"
      ],
      [
        "d",
        "ing"
      ],
      [
        "ust",
        "om"
      ],
      [
        "r",
        "st"
      ],
      [
        "it",
        "le"
      ],
      [
        "ro",
        "w"
      ],
      [
        "lo",
        "g"
      ],
      [
        "l",
        "l"
      ],
      [
        "in",
        "dex"
      ],
      [
        "Ġ",
        "k"
      ],
      [
        "Ġ",
        "end"
      ],
      [
        "t",
        "est"
      ],
      [
        "Ġper",
        "form"
      ],
      [
        "a",
        "ult"
      ],
      [
        "Ġw",
        "here"
      ],
      [
        "Ġd",
        "es"
      ],
      [
        "k",
        "en"
      ],
      [
        "```",
        "\"\"\""
      ],
      [
        "res",
        "ult"
      ],
      [
        "ver",
        "t"
      ],
      [
        "ow",
        "n"
      ],
      [
        "ic",
        "es"
      ],
      [
        "i",
        "e"
      ],
      [
        "p",
        "os"
      ],
      [
        "in",
        "fo"
      ],
      [
        "if",
        "y"
      ],
      [
        "con",
        "fig"
      ],
      [
        "cl",
        "u"
      ],
      [
        "at",
        "us"
      ],
      [
        "Ġ",
        "error"
      ],
      [
        "st",
        "ance"
      ],
      [
        "Ġit",
        "s"
      ],
      [
        "Ġin",
        "itial"
      ],
      [
        "Ġd",
        "is"
      ],
      [
        "Ġword",
        "s"
      ],
      [
        "Ġ",
        "V"
      ],
      [
        "Ġhand",
        "le"
      ],
      [
        "m",
        "l"
      ],
      [
        "val",
        "id"
      ],
      [
        "\"",
        "]"
      ],
      [
        "c",
        "ord"
      ],
      [
        "*",
        "*"
      ],
      [
        "Ġwh",
        "ile"
      ],
      [
        "st",
        "art"
      ],
      [
        "f",
        "rom"
      ],
      [
        "s",
        "plit"
      ],
      [
        "Ġp",
        "oint"
      ],
      [
        "F",
        "or"
      ],
      [
        "h",
        "is"
      ],
      [
        "ma",
        "x"
      ],
      [
        "m",
        "on"
      ],
      [
        "O",
        "N"
      ],
      [
        "o",
        "ld"
      ],
      [
        "numb",
        "er"
      ],
      [
        "T",
        "rue"
      ],
      [
        "our",
        "ce"
      ],
      [
        "ction",
        "s"
      ],
      [
        "al",
        "ance"
      ],
      [
        "p",
        "oint"
      ],
      [
        "ur",
        "ation"
      ],
      [
        "pro",
        "cess"
      ],
      [
        "at",
        "ter"
      ],
      [
        "t",
        "ing"
      ],
      [
        "Ġw",
        "rite"
      ],
      [
        "Ġs",
        "cript"
      ],
      [
        "Ġ{",
        "}"
      ],
      [
        "Ġpar",
        "t"
      ],
      [
        "Ġar",
        "gument"
      ],
      [
        "ra",
        "me"
      ],
      [
        "it",
        "er"
      ],
      [
        "i",
        "que"
      ],
      [
        "i",
        "de"
      ],
      [
        "Ġa",
        "b"
      ],
      [
        "1",
        "0"
      ],
      [
        "Ġo",
        "ther"
      ],
      [
        "ĠI",
        "n"
      ],
      [
        "w",
        "ork"
      ],
      [
        "Ġp",
        "os"
      ],
      [
        "Ġin",
        "d"
      ],
      [
        "anag",
        "er"
      ],
      [
        "Ġan",
        "y"
      ],
      [
        "Ġite",
        "m"
      ],
      [
        "a",
        "mp"
      ],
      [
        "Ġstring",
        "s"
      ],
      [
        "Ġcontain",
        "s"
      ],
      [
        "m",
        "odel"
      ],
      [
        "R",
        "L"
      ],
      [
        "=",
        "\""
      ],
      [
        "gor",
        "ith"
      ],
      [
        "up",
        "le"
      ],
      [
        "ct",
        "ed"
      ],
      [
        "i",
        "ld"
      ],
      [
        "Ġta",
        "ke"
      ],
      [
        "s",
        "ub"
      ],
      [
        "ion",
        "s"
      ],
      [
        "Ġra",
        "ndom"
      ],
      [
        "i",
        "mage"
      ],
      [
        "Ġin",
        "dex"
      ],
      [
        "Ġtra",
        "ns"
      ],
      [
        "u",
        "res"
      ],
      [
        "Ġw",
        "ill"
      ],
      [
        "ri",
        "x"
      ],
      [
        "ag",
        "es"
      ],
      [
        "#",
        "#"
      ],
      [
        "ib",
        "r"
      ],
      [
        "d",
        "es"
      ],
      [
        "n",
        "ing"
      ],
      [
        "Ġra",
        "ise"
      ],
      [
        "ut",
        "h"
      ],
      [
        "Ġelement",
        "s"
      ],
      [
        "Ġm",
        "at"
      ],
      [
        "u",
        "al"
      ],
      [
        "o",
        "in"
      ],
      [
        "=",
        "'"
      ],
      [
        "v",
        "ice"
      ],
      [
        "er",
        "y"
      ],
      [
        "Ġn",
        "p"
      ],
      [
        "in",
        "al"
      ],
      [
        "gorith",
        "m"
      ],
      [
        "Ġ",
        "W"
      ],
      [
        "Ġin",
        "ter"
      ],
      [
        "Ġw",
        "he"
      ],
      [
        "C",
        "on"
      ],
      [
        "it",
        "s"
      ],
      [
        "t",
        "p"
      ],
      [
        "Ġl",
        "ine"
      ],
      [
        ")",
        "`"
      ],
      [
        "Ġd",
        "o"
      ],
      [
        "numb",
        "ers"
      ],
      [
        "enc",
        "y"
      ],
      [
        "u",
        "me"
      ],
      [
        "Ġp",
        "a"
      ],
      [
        "v",
        "ent"
      ],
      [
        "[",
        "\""
      ],
      [
        "Ġ",
        "7"
      ],
      [
        "d",
        "ent"
      ],
      [
        "ic",
        "al"
      ],
      [
        "or",
        "s"
      ],
      [
        "Ġin",
        "clu"
      ],
      [
        "im",
        "um"
      ],
      [
        "/",
        "/"
      ],
      [
        "word",
        "s"
      ],
      [
        "ab",
        "el"
      ],
      [
        "Ġdata",
        "set"
      ],
      [
        "Ġsort",
        "ed"
      ],
      [
        "Ġres",
        "ponse"
      ],
      [
        "im",
        "ul"
      ],
      [
        "ay",
        "er"
      ],
      [
        "pl",
        "ace"
      ],
      [
        "Ġinte",
        "ger"
      ],
      [
        "Ġdi",
        "rectory"
      ],
      [
        "ack",
        "age"
      ],
      [
        "o",
        "ck"
      ],
      [
        "l",
        "ine"
      ],
      [
        "Ġmod",
        "ule"
      ],
      [
        "Ġal",
        "gorithm"
      ],
      [
        "Ġlen",
        "gth"
      ],
      [
        "Ġ",
        ":"
      ],
      [
        "p",
        "rint"
      ],
      [
        "ign",
        "ature"
      ],
      [
        "p",
        "re"
      ],
      [
        "ri",
        "me"
      ],
      [
        "ch",
        "ar"
      ],
      [
        "Ġt",
        "arget"
      ],
      [
        "Ġcon",
        "tent"
      ],
      [
        "}",
        ","
      ],
      [
        "Ġv",
        "ersion"
      ],
      [
        "con",
        "d"
      ],
      [
        "Ġre",
        "tri"
      ],
      [
        "Ġinte",
        "g"
      ],
      [
        "len",
        "gth"
      ],
      [
        "Ġfi",
        "rst"
      ],
      [
        "Ġthe",
        "ir"
      ],
      [
        "ite",
        "m"
      ],
      [
        "a",
        "il"
      ],
      [
        "lo",
        "ck"
      ],
      [
        "Ġt",
        "emp"
      ],
      [
        "r",
        "on"
      ],
      [
        "()",
        ")"
      ],
      [
        "ĠA",
        "dd"
      ],
      [
        "Ġro",
        "w"
      ],
      [
        "ra",
        "w"
      ],
      [
        "a",
        "v"
      ],
      [
        "====",
        "===="
      ],
      [
        "co",
        "re"
      ],
      [
        "E",
        "xample"
      ],
      [
        "in",
        "k"
      ],
      [
        ")",
        "):"
      ],
      [
        "ou",
        "s"
      ],
      [
        "ĠU",
        "RL"
      ],
      [
        "Ġwith",
        "in"
      ],
      [
        "ver",
        "se"
      ],
      [
        "c",
        "re"
      ],
      [
        "Ġ<",
        "="
      ],
      [
        "j",
        "oin"
      ],
      [
        "Ġex",
        "ecut"
      ],
      [
        "Ġfi",
        "les"
      ],
      [
        "ver",
        "age"
      ],
      [
        "Ġg",
        "ener"
      ],
      [
        "qu",
        "ence"
      ],
      [
        "ri",
        "d"
      ],
      [
        "ibr",
        "ary"
      ],
      [
        "rou",
        "p"
      ],
      [
        "p",
        "en"
      ],
      [
        "ser",
        "t"
      ],
      [
        "di",
        "r"
      ],
      [
        "(",
        "["
      ],
      [
        "str",
        "uct"
      ],
      [
        "ĠE",
        "xample"
      ],
      [
        "co",
        "mp"
      ],
      [
        "y",
        "n"
      ],
      [
        "Ġdi",
        "ct"
      ],
      [
        "Ġd",
        "ist"
      ],
      [
        "Ġ",
        "9"
      ],
      [
        "Ġd",
        "if"
      ],
      [
        "le",
        "an"
      ],
      [
        ")",
        "`:"
      ],
      [
        "Ġex",
        "ist"
      ],
      [
        "u",
        "pl"
      ],
      [
        "par",
        "am"
      ],
      [
        "Ġn",
        "ames"
      ],
      [
        "Ġfi",
        "l"
      ],
      [
        "ar",
        "g"
      ],
      [
        "\"",
        "."
      ],
      [
        "Ġg",
        "ra"
      ],
      [
        "Ġf",
        "loat"
      ],
      [
        "lic",
        "ation"
      ],
      [
        "ĠRe",
        "turn"
      ],
      [
        "Ġac",
        "count"
      ],
      [
        "ption",
        "s"
      ],
      [
        "Ġin",
        "to"
      ],
      [
        "Ġcal",
        "cul"
      ],
      [
        "s",
        "ort"
      ],
      [
        "fe",
        "ren"
      ],
      [
        "Ġc",
        "l"
      ],
      [
        "p",
        "ort"
      ],
      [
        "Ġc",
        "ustom"
      ],
      [
        "Ġus",
        "age"
      ],
      [
        "Ġn",
        "ode"
      ],
      [
        "Ġa",
        "m"
      ],
      [
        "v",
        "el"
      ],
      [
        "c",
        "or"
      ],
      [
        "res",
        "pon"
      ],
      [
        "Ġu",
        "se"
      ],
      [
        "ite",
        "ms"
      ],
      [
        "b",
        "y"
      ],
      [
        "Ġfi",
        "eld"
      ],
      [
        "Ġexce",
        "pt"
      ],
      [
        "b",
        "u"
      ],
      [
        "m",
        "essage"
      ],
      [
        "Ġu",
        "sed"
      ],
      [
        "iz",
        "ed"
      ],
      [
        "Ġinteg",
        "ers"
      ],
      [
        "Ġun",
        "ique"
      ],
      [
        "1",
        "2"
      ],
      [
        "Ġf",
        "e"
      ],
      [
        "in",
        "ary"
      ],
      [
        "f",
        "or"
      ],
      [
        "ition",
        "al"
      ],
      [
        "a",
        "pe"
      ],
      [
        "p",
        "a"
      ],
      [
        "Ġw",
        "ork"
      ],
      [
        "Ġdata",
        "base"
      ],
      [
        "at",
        "ures"
      ],
      [
        "Ġ{",
        "'"
      ],
      [
        "id",
        "th"
      ],
      [
        "Ġcor",
        "respon"
      ],
      [
        "Ġ",
        "J"
      ],
      [
        "Ġs",
        "ent"
      ],
      [
        "Ġa",
        "d"
      ],
      [
        "ac",
        "he"
      ],
      [
        "en",
        "se"
      ],
      [
        "v",
        "ersion"
      ],
      [
        "Ġthe",
        "n"
      ],
      [
        "Ġf",
        "ound"
      ],
      [
        "lo",
        "t"
      ],
      [
        "ĠT",
        "his"
      ],
      [
        "n",
        "er"
      ],
      [
        "d",
        "uct"
      ],
      [
        "Ġ",
        "ens"
      ],
      [
        "Ġe",
        "mp"
      ],
      [
        "o",
        "f"
      ],
      [
        "in",
        "ed"
      ],
      [
        "Ġfunction",
        "al"
      ],
      [
        "ac",
        "ci"
      ],
      [
        "S",
        "T"
      ],
      [
        "on",
        "acci"
      ],
      [
        "p",
        "r"
      ],
      [
        "e",
        "ar"
      ],
      [
        "E",
        "R"
      ],
      [
        "in",
        "es"
      ],
      [
        "Ġm",
        "ult"
      ],
      [
        "w",
        "ith"
      ],
      [
        "Ġb",
        "u"
      ],
      [
        "Ġparame",
        "ter"
      ],
      [
        "Ġt",
        "ry"
      ],
      [
        "P",
        "I"
      ],
      [
        "Ġam",
        "ount"
      ],
      [
        "ig",
        "h"
      ],
      [
        "Ġre",
        "ad"
      ],
      [
        "m",
        "b"
      ],
      [
        "num",
        "s"
      ],
      [
        "n",
        "ode"
      ],
      [
        "w",
        "args"
      ],
      [
        "Ġb",
        "et"
      ],
      [
        "Ġcorrespon",
        "ding"
      ],
      [
        "he",
        "ad"
      ],
      [
        "Ġoper",
        "ations"
      ],
      [
        "Ġconfig",
        "uration"
      ],
      [
        "j",
        "son"
      ],
      [
        "Ġ",
        "!"
      ],
      [
        "]",
        "\"\"\""
      ],
      [
        "Ġrequi",
        "re"
      ],
      [
        "val",
        "ues"
      ],
      [
        "Ġ",
        "order"
      ],
      [
        "Ġo",
        "s"
      ],
      [
        "Ġl",
        "ibrary"
      ],
      [
        "Ġdef",
        "ault"
      ],
      [
        "ĠI",
        "mplement"
      ],
      [
        "Ġkey",
        "s"
      ],
      [
        "er",
        "t"
      ],
      [
        "al",
        "ue"
      ],
      [
        "Ġrepresent",
        "s"
      ],
      [
        "Ġ[",
        "'"
      ],
      [
        "Ġcol",
        "um"
      ],
      [
        "Ġy",
        "ou"
      ],
      [
        "form",
        "at"
      ],
      [
        "Ġ",
        "out"
      ],
      [
        "Ġ!",
        "="
      ],
      [
        "2",
        "0"
      ],
      [
        "M",
        "L"
      ],
      [
        "we",
        "en"
      ],
      [
        "I",
        "N"
      ],
      [
        "t",
        "ed"
      ],
      [
        "l",
        "i"
      ],
      [
        "Ġs",
        "imul"
      ],
      [
        "Ġd",
        "ate"
      ],
      [
        "ĠH",
        "T"
      ],
      [
        "Ġdis",
        "play"
      ],
      [
        "Ġ",
        "z"
      ],
      [
        "Ġcharact",
        "ers"
      ],
      [
        "ic",
        "k"
      ],
      [
        "ĠE",
        "x"
      ],
      [
        "Ġprocess",
        "es"
      ],
      [
        "----",
        "----"
      ],
      [
        "}",
        "\")"
      ],
      [
        "o",
        "ice"
      ],
      [
        "Ġattribut",
        "es"
      ],
      [
        ":",
        "//"
      ],
      [
        "ib",
        "le"
      ],
      [
        "N",
        "one"
      ],
      [
        "ht",
        "ml"
      ],
      [
        "ul",
        "es"
      ],
      [
        "Ġcon",
        "vert"
      ],
      [
        "L",
        "ist"
      ],
      [
        "i",
        "x"
      ],
      [
        "o",
        "g"
      ],
      [
        "Ġm",
        "an"
      ],
      [
        "o",
        "me"
      ],
      [
        "iz",
        "ation"
      ],
      [
        "Ġbet",
        "ween"
      ],
      [
        "c",
        "a"
      ],
      [
        "cri",
        "ption"
      ],
      [
        "end",
        "ing"
      ],
      [
        "te",
        "mp"
      ],
      [
        "u",
        "mp"
      ],
      [
        "t",
        "itle"
      ],
      [
        "i",
        "mport"
      ],
      [
        "Ġbo",
        "ol"
      ],
      [
        "r",
        "un"
      ],
      [
        "requ",
        "ency"
      ],
      [
        "feren",
        "ce"
      ],
      [
        "Ġst",
        "ate"
      ],
      [
        "pt",
        "im"
      ],
      [
        "l",
        "ing"
      ],
      [
        "Ġ",
        "\"\""
      ],
      [
        "Ġwe",
        "b"
      ],
      [
        "Ġ*",
        "*"
      ],
      [
        "y",
        "p"
      ],
      [
        "m",
        "od"
      ],
      [
        "st",
        "ate"
      ],
      [
        "b",
        "ack"
      ],
      [
        "atter",
        "n"
      ],
      [
        "pp",
        "er"
      ],
      [
        "Ġs",
        "ize"
      ],
      [
        "Ġrequire",
        "ments"
      ],
      [
        "ro",
        "p"
      ],
      [
        "e",
        "ve"
      ],
      [
        "Ġ",
        "here"
      ],
      [
        "Ġargument",
        "s"
      ],
      [
        "Ġre",
        "g"
      ],
      [
        "low",
        "er"
      ],
      [
        "F",
        "alse"
      ],
      [
        "Ġst",
        "ore"
      ],
      [
        "g",
        "es"
      ],
      [
        "Ġ",
        "}"
      ],
      [
        "Ġre",
        "move"
      ],
      [
        "Ġapp",
        "lication"
      ],
      [
        "com",
        "mand"
      ],
      [
        "ne",
        "ction"
      ],
      [
        "Ġup",
        "date"
      ],
      [
        "Ġ",
        "enc"
      ],
      [
        "Ġo",
        "pen"
      ],
      [
        "il",
        "s"
      ],
      [
        "Ġto",
        "ken"
      ],
      [
        "uth",
        "or"
      ],
      [
        "P",
        "ro"
      ],
      [
        "Ġ",
        ")"
      ],
      [
        "h",
        "old"
      ],
      [
        "Ġ1",
        "00"
      ],
      [
        "e",
        "lement"
      ],
      [
        "b",
        "alance"
      ],
      [
        "Ġ",
        "|"
      ],
      [
        "ar",
        "k"
      ],
      [
        "c",
        "cur"
      ],
      [
        "in",
        "stance"
      ],
      [
        "ens",
        "or"
      ],
      [
        "Ġpass",
        "word"
      ],
      [
        "Ġ",
        "@"
      ],
      [
        "Ġa",
        "v"
      ],
      [
        "Ġm",
        "o"
      ],
      [
        "Ġ[",
        "\""
      ],
      [
        "Ġ",
        "one"
      ],
      [
        "iz",
        "er"
      ],
      [
        "]",
        "]"
      ],
      [
        "ption",
        "al"
      ],
      [
        "ex",
        "ample"
      ],
      [
        "ĠC",
        "on"
      ],
      [
        "el",
        "l"
      ],
      [
        "ht",
        "tp"
      ],
      [
        "D",
        "ata"
      ],
      [
        "Ġse",
        "arch"
      ],
      [
        "Ġstr",
        "uct"
      ],
      [
        "n",
        "ot"
      ],
      [
        "c",
        "cess"
      ],
      [
        "ces",
        "sed"
      ],
      [
        "Ġa",
        "ct"
      ],
      [
        "Ġs",
        "i"
      ],
      [
        "Ġcal",
        "led"
      ],
      [
        "ar",
        "s"
      ],
      [
        "re",
        "q"
      ],
      [
        "ong",
        "est"
      ],
      [
        "l",
        "er"
      ],
      [
        "p",
        "o"
      ],
      [
        "p",
        "ass"
      ],
      [
        "le",
        "t"
      ],
      [
        "col",
        "or"
      ],
      [
        "et",
        "work"
      ],
      [
        "()",
        "."
      ],
      [
        "Ġn",
        "o"
      ],
      [
        "Ġtra",
        "in"
      ],
      [
        "ĠI",
        "D"
      ],
      [
        "Ġcharact",
        "er"
      ],
      [
        "i",
        "fi"
      ],
      [
        "Ġemp",
        "ty"
      ],
      [
        "Ġoper",
        "ation"
      ],
      [
        "Ġon",
        "ly"
      ],
      [
        "Ġo",
        "ccur"
      ],
      [
        "pe",
        "cted"
      ],
      [
        "ĠA",
        "n"
      ],
      [
        "fi",
        "les"
      ],
      [
        "Ġmat",
        "rix"
      ],
      [
        "vi",
        "e"
      ],
      [
        "Ġ",
        "ent"
      ],
      [
        "ar",
        "ning"
      ],
      [
        "g",
        "h"
      ],
      [
        "f",
        "ul"
      ],
      [
        "Ġmax",
        "imum"
      ],
      [
        "Ġe",
        "mail"
      ],
      [
        "f",
        "ind"
      ],
      [
        "O",
        "utput"
      ],
      [
        "A",
        "T"
      ],
      [
        "ot",
        "al"
      ],
      [
        "tra",
        "ns"
      ],
      [
        "c",
        "ase"
      ],
      [
        "Ġlo",
        "w"
      ],
      [
        "data",
        "set"
      ],
      [
        "Ġens",
        "ure"
      ],
      [
        "Ġ",
        "You"
      ],
      [
        "cess",
        "ary"
      ],
      [
        "[",
        ":"
      ],
      [
        "Ġs",
        "ignature"
      ],
      [
        "Ġcon",
        "t"
      ],
      [
        "b",
        "le"
      ],
      [
        "it",
        "ies"
      ],
      [
        "Ġnum",
        "s"
      ],
      [
        "Ġcal",
        "l"
      ],
      [
        "Ġ'",
        "'"
      ],
      [
        "ĠĠĠĠ",
        "ĠĠ"
      ],
      [
        "al",
        "y"
      ],
      [
        "Ġattribut",
        "e"
      ],
      [
        "ut",
        "e"
      ],
      [
        "co",
        "res"
      ],
      [
        "Ġne",
        "cessary"
      ],
      [
        "ic",
        "s"
      ],
      [
        "l",
        "ate"
      ],
      [
        "vi",
        "ron"
      ],
      [
        "Ġas",
        "s"
      ],
      [
        "Ġs",
        "p"
      ],
      [
        "iz",
        "es"
      ],
      [
        "Ġind",
        "ic"
      ],
      [
        "Ġde",
        "p"
      ],
      [
        "k",
        "wargs"
      ],
      [
        "Ġst",
        "ack"
      ],
      [
        "t",
        "xt"
      ],
      [
        "Ġt",
        "uple"
      ],
      [
        "Ġvari",
        "able"
      ],
      [
        "L",
        "E"
      ],
      [
        "]",
        "."
      ],
      [
        "len",
        "ame"
      ],
      [
        "Ġf",
        "l"
      ],
      [
        "con",
        "tent"
      ],
      [
        "a",
        "k"
      ],
      [
        "Ġlog",
        "ic"
      ],
      [
        "ro",
        "ot"
      ],
      [
        "ab",
        "les"
      ],
      [
        "Ġcor",
        "rect"
      ],
      [
        "E",
        "x"
      ],
      [
        "m",
        "iss"
      ],
      [
        "or",
        "ld"
      ],
      [
        "Ġp",
        "ackage"
      ],
      [
        "st",
        "atus"
      ],
      [
        "Ġstruct",
        "ure"
      ],
      [
        "Ġpro",
        "per"
      ],
      [
        "a",
        "in"
      ],
      [
        "ce",
        "ption"
      ],
      [
        "Ġhe",
        "ad"
      ],
      [
        "c",
        "heck"
      ],
      [
        "C",
        "o"
      ],
      [
        "Ġc",
        "ase"
      ],
      [
        "par",
        "se"
      ],
      [
        "re",
        "am"
      ],
      [
        "S",
        "ON"
      ],
      [
        "n",
        "ames"
      ],
      [
        "ind",
        "ow"
      ],
      [
        "v",
        "ol"
      ],
      [
        "or",
        "ch"
      ],
      [
        "Ġm",
        "atch"
      ],
      [
        "t",
        "ask"
      ],
      [
        "act",
        "or"
      ],
      [
        "ate",
        "g"
      ],
      [
        "at",
        "ive"
      ],
      [
        "fe",
        "rent"
      ],
      [
        "Ġser",
        "ver"
      ],
      [
        "ail",
        "able"
      ],
      [
        ".",
        "\")"
      ],
      [
        "Ġse",
        "cond"
      ],
      [
        "t",
        "es"
      ],
      [
        "un",
        "c"
      ],
      [
        "l",
        "is"
      ],
      [
        "requ",
        "est"
      ],
      [
        "n",
        "ect"
      ],
      [
        "v",
        "es"
      ],
      [
        ")",
        "]"
      ],
      [
        "bo",
        "ok"
      ],
      [
        "upl",
        "ic"
      ],
      [
        "Ġg",
        "ame"
      ],
      [
        "ck",
        "et"
      ],
      [
        "Ġ2",
        "0"
      ],
      [
        "cord",
        "ing"
      ],
      [
        "w",
        "ise"
      ],
      [
        "ad",
        "ata"
      ],
      [
        "Ġfunctional",
        "ity"
      ],
      [
        "le",
        "ft"
      ],
      [
        "Ġr",
        "un"
      ],
      [
        "i",
        "ct"
      ],
      [
        "Ġin",
        "st"
      ],
      [
        "tra",
        "in"
      ],
      [
        "Ġprocess",
        "ing"
      ],
      [
        "Ġ",
        "\\"
      ],
      [
        "Ġdif",
        "ferent"
      ],
      [
        "g",
        "ing"
      ],
      [
        "ting",
        "s"
      ],
      [
        "fi",
        "x"
      ],
      [
        "a",
        "ction"
      ],
      [
        "pp",
        "ing"
      ],
      [
        "ne",
        "w"
      ],
      [
        "f",
        "ter"
      ],
      [
        "as",
        "es"
      ],
      [
        "Ġth",
        "an"
      ],
      [
        "t",
        "able"
      ],
      [
        "ff",
        "ic"
      ],
      [
        "le",
        "te"
      ],
      [
        "pass",
        "word"
      ],
      [
        "Ġ1",
        "2"
      ],
      [
        "id",
        "d"
      ],
      [
        "R",
        "E"
      ],
      [
        "ma",
        "p"
      ],
      [
        "e",
        "mail"
      ],
      [
        "Re",
        "turn"
      ],
      [
        "ord",
        "in"
      ],
      [
        "i",
        "fied"
      ],
      [
        "Ġt",
        "able"
      ],
      [
        "Ġst",
        "ep"
      ],
      [
        "Ġex",
        "p"
      ],
      [
        "Ġp",
        "rime"
      ],
      [
        "ĠA",
        "PI"
      ],
      [
        "<",
        "/"
      ],
      [
        "di",
        "rectory"
      ],
      [
        "ess",
        "ion"
      ],
      [
        "Ġfi",
        "b"
      ],
      [
        "F",
        "unction"
      ],
      [
        "el",
        "lo"
      ],
      [
        "il",
        "ity"
      ],
      [
        "ow",
        "els"
      ],
      [
        "m",
        "y"
      ],
      [
        "Ġb",
        "inary"
      ],
      [
        "ens",
        "ion"
      ],
      [
        "Ġbo",
        "ok"
      ],
      [
        "Ġcol",
        "or"
      ],
      [
        "ĠD",
        "ata"
      ],
      [
        "p",
        "op"
      ],
      [
        "ent",
        "s"
      ],
      [
        "Ġro",
        "ot"
      ],
      [
        "ress",
        "ion"
      ],
      [
        "oc",
        "ument"
      ],
      [
        "t",
        "adata"
      ],
      [
        "l",
        "abel"
      ],
      [
        "od",
        "es"
      ],
      [
        "pp",
        "ort"
      ],
      [
        "Ġrepresent",
        "ed"
      ],
      [
        "In",
        "put"
      ],
      [
        "ra",
        "ndom"
      ],
      [
        "alue",
        "Error"
      ],
      [
        "S",
        "E"
      ],
      [
        "ay",
        "s"
      ],
      [
        "ig",
        "r"
      ],
      [
        "fi",
        "eld"
      ],
      [
        "at",
        "er"
      ],
      [
        "Ġal",
        "low"
      ],
      [
        "Ġt",
        "yp"
      ],
      [
        "Ġp",
        "ython"
      ],
      [
        "qu",
        "al"
      ],
      [
        "le",
        "ct"
      ],
      [
        "Ġac",
        "cording"
      ],
      [
        "Ġst",
        "atus"
      ],
      [
        "Ġrequi",
        "red"
      ],
      [
        "Ġwork",
        "ing"
      ],
      [
        "Ġ",
        "right"
      ],
      [
        "Ġg",
        "re"
      ],
      [
        "Ġa",
        "verage"
      ],
      [
        "Ġpos",
        "ition"
      ],
      [
        "n",
        "ext"
      ],
      [
        "ic",
        "ense"
      ],
      [
        "Ġo",
        "ver"
      ],
      [
        "Ġadd",
        "ress"
      ],
      [
        "u",
        "g"
      ],
      [
        "Ġpa",
        "ir"
      ],
      [
        "Ġse",
        "quence"
      ],
      [
        "ĠC",
        "reate"
      ],
      [
        "ĠJ",
        "SON"
      ],
      [
        "to",
        "ken"
      ],
      [
        "viron",
        "ment"
      ],
      [
        "Ġi",
        "ter"
      ],
      [
        "Ġretri",
        "eve"
      ],
      [
        "r",
        "iter"
      ],
      [
        "ry",
        "pt"
      ],
      [
        "S",
        "t"
      ],
      [
        "s",
        "y"
      ],
      [
        "d",
        "is"
      ],
      [
        "ab",
        "els"
      ],
      [
        "l",
        "st"
      ],
      [
        "ta",
        "ils"
      ],
      [
        "d",
        "f"
      ],
      [
        "Ġi",
        "dent"
      ],
      [
        "Ġwhe",
        "n"
      ],
      [
        "it",
        "ive"
      ],
      [
        "ĠE",
        "ach"
      ],
      [
        "Ġd",
        "iv"
      ],
      [
        "Ġle",
        "t"
      ],
      [
        "t",
        "on"
      ],
      [
        "Ġ",
        "url"
      ],
      [
        "Ġname",
        "d"
      ],
      [
        "(",
        "("
      ],
      [
        "Ġt",
        "im"
      ],
      [
        "Ġfunction",
        "s"
      ],
      [
        "d",
        "ist"
      ],
      [
        "i",
        "eld"
      ],
      [
        "Ġwhe",
        "ther"
      ],
      [
        "f",
        "unction"
      ],
      [
        "Ġup",
        "d"
      ],
      [
        "ĠT",
        "est"
      ],
      [
        "n",
        "el"
      ],
      [
        "d",
        "a"
      ],
      [
        "M",
        "anager"
      ],
      [
        "d",
        "raw"
      ],
      [
        "Ġin",
        "stance"
      ],
      [
        "s",
        "p"
      ],
      [
        "A",
        "r"
      ],
      [
        "I",
        "mplement"
      ],
      [
        "ĠĠĠĠĠĠĠĠ",
        "ĠĠĠĠĠĠĠĠĠĠĠĠĠĠĠ"
      ],
      [
        "ci",
        "es"
      ],
      [
        "Ġthe",
        "m"
      ],
      [
        "ri",
        "p"
      ],
      [
        "cur",
        "rent"
      ],
      [
        "E",
        "N"
      ],
      [
        "ĠAdd",
        "itional"
      ],
      [
        "Ġis",
        "instance"
      ],
      [
        "G",
        "enerate"
      ],
      [
        "t",
        "otal"
      ],
      [
        "H",
        "ello"
      ],
      [
        "Ġfor",
        "m"
      ],
      [
        "Ġa",
        "ch"
      ],
      [
        "re",
        "g"
      ],
      [
        "c",
        "ent"
      ],
      [
        "Ġqu",
        "ery"
      ],
      [
        "Ġpar",
        "se"
      ],
      [
        "ur",
        "ing"
      ],
      [
        "Ġg",
        "o"
      ],
      [
        "nd",
        "er"
      ],
      [
        "an",
        "ge"
      ],
      [
        "Ġt",
        "itle"
      ],
      [
        "##",
        "##"
      ],
      [
        "T",
        "P"
      ],
      [
        "Ġle",
        "ft"
      ],
      [
        "Ġcon",
        "struct"
      ],
      [
        "Ġsi",
        "mple"
      ],
      [
        "own",
        "load"
      ],
      [
        "Ġe",
        "vent"
      ],
      [
        "Ġs",
        "ol"
      ],
      [
        "Ġre",
        "verse"
      ],
      [
        "Ġsent",
        "ence"
      ],
      [
        "Ġcon",
        "d"
      ],
      [
        "ut",
        "ion"
      ],
      [
        "que",
        "ue"
      ],
      [
        "Ġp",
        "r"
      ],
      [
        "c",
        "reate"
      ],
      [
        "amp",
        "les"
      ],
      [
        "O",
        "R"
      ],
      [
        "ig",
        "inal"
      ],
      [
        "ing",
        "le"
      ],
      [
        "Ġex",
        "pected"
      ],
      [
        "g",
        "n"
      ],
      [
        "b",
        "ed"
      ],
      [
        "Ġs",
        "o"
      ],
      [
        "Ġstart",
        "ing"
      ],
      [
        "w",
        "ard"
      ],
      [
        "Ġma",
        "in"
      ],
      [
        "Ġthe",
        "se"
      ],
      [
        "int",
        "er"
      ],
      [
        "Ġcon",
        "s"
      ],
      [
        "Ġfil",
        "ter"
      ],
      [
        "Ġrequest",
        "s"
      ],
      [
        "se",
        "arch"
      ],
      [
        "Ġl",
        "st"
      ],
      [
        "Ġl",
        "ongest"
      ],
      [
        "Ġpro",
        "ject"
      ],
      [
        "ess",
        "ages"
      ],
      [
        "ĠIn",
        "itial"
      ],
      [
        "ĠHT",
        "ML"
      ],
      [
        "Ġj",
        "son"
      ],
      [
        "Ġo",
        "ptim"
      ],
      [
        "ie",
        "ve"
      ],
      [
        "as",
        "h"
      ],
      [
        "ang",
        "u"
      ],
      [
        "Ġresult",
        "s"
      ],
      [
        "Ġsu",
        "ccess"
      ],
      [
        "Ġpro",
        "cessed"
      ],
      [
        "ight",
        "s"
      ],
      [
        "en",
        "cies"
      ],
      [
        "Ġal",
        "so"
      ],
      [
        "ĠV",
        "alueError"
      ],
      [
        "Ġdo",
        "es"
      ],
      [
        "..",
        "."
      ],
      [
        "Ġn",
        "etwork"
      ],
      [
        ".",
        "__"
      ],
      [
        "v",
        "en"
      ],
      [
        "a",
        "x"
      ],
      [
        "Ġv",
        "is"
      ],
      [
        "a",
        "it"
      ],
      [
        "ar",
        "ies"
      ],
      [
        "b",
        "in"
      ],
      [
        "ch",
        "oice"
      ],
      [
        "me",
        "thod"
      ],
      [
        "Ġ{",
        "\""
      ],
      [
        "ffic",
        "ient"
      ],
      [
        "Ġs",
        "c"
      ],
      [
        "iss",
        "ing"
      ],
      [
        "g",
        "roup"
      ],
      [
        "ent",
        "ial"
      ],
      [
        "ĠI",
        "t"
      ],
      [
        "rou",
        "gh"
      ],
      [
        "Ġl",
        "ast"
      ],
      [
        "arg",
        "est"
      ],
      [
        "im",
        "it"
      ],
      [
        "m",
        "it"
      ],
      [
        "Ġv",
        "er"
      ],
      [
        "Ġs",
        "ame"
      ],
      [
        "Ġlo",
        "ad"
      ],
      [
        "cal",
        "culate"
      ],
      [
        "ob",
        "ject"
      ],
      [
        "Ġa",
        "ut"
      ],
      [
        "Ġpoint",
        "s"
      ],
      [
        "ce",
        "pt"
      ],
      [
        "Ġg",
        "rid"
      ],
      [
        "S",
        "tr"
      ],
      [
        "Ġne",
        "xt"
      ],
      [
        "Ġb",
        "alance"
      ],
      [
        "D",
        "es"
      ],
      [
        "g",
        "enerate"
      ],
      [
        "ie",
        "w"
      ],
      [
        "Ġf",
        "requency"
      ],
      [
        "Ġ`",
        "__"
      ],
      [
        "1",
        "1"
      ],
      [
        "di",
        "us"
      ],
      [
        "Ġadd",
        "ing"
      ],
      [
        "Ġde",
        "c"
      ],
      [
        "ac",
        "count"
      ],
      [
        "Ġ1",
        "5"
      ],
      [
        "w",
        "idth"
      ],
      [
        "Ġpro",
        "duct"
      ],
      [
        "w",
        "rite"
      ],
      [
        "Ġ",
        "X"
      ],
      [
        "i",
        "pl"
      ],
      [
        "ro",
        "me"
      ],
      [
        "al",
        "ind"
      ],
      [
        "Ġav",
        "ailable"
      ],
      [
        "Ġar",
        "gs"
      ],
      [
        "u",
        "dent"
      ],
      [
        "vie",
        "w"
      ],
      [
        "p",
        "art"
      ],
      [
        "Ġm",
        "y"
      ],
      [
        "h",
        "and"
      ],
      [
        "[",
        "-"
      ],
      [
        "Ġto",
        "p"
      ],
      [
        "Ġindic",
        "ating"
      ],
      [
        "Ġach",
        "ieve"
      ],
      [
        "c",
        "ation"
      ],
      [
        "so",
        "ci"
      ],
      [
        "Ġcolum",
        "n"
      ],
      [
        "Ġpl",
        "ayer"
      ],
      [
        "Ġth",
        "rough"
      ],
      [
        "Ġ/",
        "/"
      ],
      [
        "Ġde",
        "ter"
      ],
      [
        "'",
        "],"
      ],
      [
        "Ġite",
        "ms"
      ],
      [
        "h",
        "a"
      ],
      [
        "Ġ'",
        "__"
      ],
      [
        "s",
        "ent"
      ],
      [
        "ma",
        "ges"
      ],
      [
        "1",
        "00"
      ],
      [
        "ib",
        "onacci"
      ],
      [
        "angu",
        "age"
      ],
      [
        "s",
        "pe"
      ],
      [
        "========",
        "========"
      ],
      [
        "al",
        "culate"
      ],
      [
        "Ġother",
        "wise"
      ],
      [
        "Ġsu",
        "ch"
      ],
      [
        "an",
        "k"
      ],
      [
        "Ġcond",
        "ition"
      ],
      [
        "ĠAdditional",
        "ly"
      ],
      [
        "M",
        "E"
      ],
      [
        "Ġre",
        "mo"
      ],
      [
        "F",
        "rame"
      ],
      [
        "d",
        "o"
      ],
      [
        "D",
        "E"
      ],
      [
        "est",
        "amp"
      ],
      [
        "che",
        "s"
      ],
      [
        "5",
        "6"
      ],
      [
        "c",
        "s"
      ],
      [
        "o",
        "lean"
      ],
      [
        "Ġinclu",
        "de"
      ],
      [
        "ateg",
        "ory"
      ],
      [
        "Ġme",
        "an"
      ],
      [
        "ĠC",
        "heck"
      ],
      [
        "Ġfollow",
        "s"
      ],
      [
        "Ġm",
        "id"
      ],
      [
        "w",
        "are"
      ],
      [
        "A",
        "R"
      ],
      [
        "Ġa",
        "fter"
      ],
      [
        "at",
        "tr"
      ],
      [
        "up",
        "date"
      ],
      [
        "Ġb",
        "lock"
      ],
      [
        "l",
        "ib"
      ],
      [
        "Ġ",
        "K"
      ],
      [
        "}",
        "'"
      ],
      [
        "Ġ(",
        "'"
      ],
      [
        "Ġas",
        "soci"
      ],
      [
        "read",
        "y"
      ],
      [
        "Ġp",
        "attern"
      ],
      [
        "w",
        "w"
      ],
      [
        "h",
        "ost"
      ],
      [
        "ext",
        "ract"
      ],
      [
        "Ġa",
        "ge"
      ],
      [
        "ordin",
        "ates"
      ],
      [
        "N",
        "o"
      ],
      [
        "i",
        "a"
      ],
      [
        "Ġb",
        "ack"
      ],
      [
        "__",
        "':"
      ],
      [
        "val",
        "u"
      ],
      [
        "c",
        "at"
      ],
      [
        "pos",
        "it"
      ],
      [
        "Ġlist",
        "s"
      ],
      [
        "t",
        "arget"
      ],
      [
        "Ġas",
        "sert"
      ],
      [
        "Ġgra",
        "ph"
      ],
      [
        "re",
        "place"
      ],
      [
        "le",
        "ction"
      ],
      [
        "param",
        "s"
      ],
      [
        "ifi",
        "er"
      ],
      [
        "Ġare",
        "a"
      ],
      [
        "orm",
        "al"
      ],
      [
        "Ġcom",
        "mon"
      ],
      [
        "uplic",
        "ates"
      ],
      [
        "Ġb",
        "ut"
      ],
      [
        "gra",
        "ph"
      ],
      [
        "f",
        "loat"
      ],
      [
        "Ġpar",
        "ser"
      ],
      [
        "pr",
        "ice"
      ],
      [
        "Ġdist",
        "ance"
      ],
      [
        "Ġsu",
        "pport"
      ],
      [
        "fi",
        "l"
      ],
      [
        "s",
        "es"
      ],
      [
        "che",
        "d"
      ],
      [
        "Ġf",
        "rame"
      ],
      [
        "ac",
        "es"
      ],
      [
        "f",
        "ace"
      ],
      [
        "col",
        "um"
      ],
      [
        "Ġobject",
        "s"
      ],
      [
        "el",
        "y"
      ],
      [
        "ific",
        "ation"
      ],
      [
        "r",
        "it"
      ],
      [
        "qu",
        "ery"
      ],
      [
        "Ġ>",
        "="
      ],
      [
        "T",
        "ype"
      ],
      [
        "Ġn",
        "on"
      ],
      [
        "Ġs",
        "core"
      ],
      [
        "Ġm",
        "issing"
      ],
      [
        "Ġa",
        "g"
      ],
      [
        "ap",
        "i"
      ],
      [
        "um",
        "b"
      ],
      [
        "Ġs",
        "ingle"
      ],
      [
        "b",
        "atch"
      ],
      [
        "un",
        "k"
      ],
      [
        "Ġman",
        "age"
      ],
      [
        "d",
        "iv"
      ],
      [
        "Ġs",
        "ource"
      ],
      [
        "ang",
        "le"
      ],
      [
        "Ġextract",
        "ed"
      ],
      [
        "ul",
        "l"
      ],
      [
        "Ġal",
        "ready"
      ],
      [
        "Ġl",
        "ink"
      ],
      [
        "de",
        "p"
      ],
      [
        "mod",
        "ule"
      ],
      [
        "ob",
        "j"
      ],
      [
        "m",
        "es"
      ],
      [
        "}",
        "\""
      ],
      [
        "alind",
        "rome"
      ],
      [
        "k",
        "ens"
      ],
      [
        "re",
        "ak"
      ],
      [
        "I",
        "T"
      ],
      [
        "i",
        "o"
      ],
      [
        "Ġp",
        "age"
      ],
      [
        "Ġassoci",
        "ated"
      ],
      [
        "re",
        "move"
      ],
      [
        "nt",
        "er"
      ],
      [
        "http",
        "s"
      ],
      [
        "Ġan",
        "aly"
      ],
      [
        ".",
        ","
      ],
      [
        "Ġcon",
        "nection"
      ],
      [
        "Ġre",
        "l"
      ],
      [
        "rop",
        "ri"
      ],
      [
        "lo",
        "se"
      ],
      [
        "Ġma",
        "y"
      ],
      [
        "Ġst",
        "o"
      ],
      [
        "Ġapp",
        "ropri"
      ],
      [
        "d",
        "b"
      ],
      [
        "i",
        "ment"
      ],
      [
        "Ġdes",
        "cri"
      ],
      [
        "te",
        "red"
      ],
      [
        "Ġen",
        "vironment"
      ],
      [
        "S",
        "S"
      ],
      [
        "Ġb",
        "atch"
      ],
      [
        "ang",
        "o"
      ],
      [
        "mat",
        "rix"
      ],
      [
        "Des",
        "ign"
      ],
      [
        "d",
        "u"
      ],
      [
        "ca",
        "le"
      ],
      [
        "od",
        "ing"
      ],
      [
        "Ġh",
        "igh"
      ],
      [
        "e",
        "f"
      ],
      [
        "Ġtyp",
        "es"
      ],
      [
        "ip",
        "le"
      ],
      [
        "\"",
        "{"
      ],
      [
        "ul",
        "ar"
      ],
      [
        "Ġg",
        "roup"
      ],
      [
        "'",
        "))"
      ],
      [
        "er",
        "o"
      ],
      [
        "ĠP",
        "ro"
      ],
      [
        "()",
        "`"
      ],
      [
        "Ġab",
        "le"
      ],
      [
        "yn",
        "c"
      ],
      [
        "Ġa",
        "ction"
      ],
      [
        "Ġor",
        "iginal"
      ],
      [
        "in",
        "s"
      ],
      [
        "s",
        "ible"
      ],
      [
        "A",
        "n"
      ],
      [
        "c",
        "all"
      ],
      [
        "I",
        "D"
      ],
      [
        "o",
        "per"
      ],
      [
        "Ġac",
        "cess"
      ],
      [
        "od",
        "y"
      ],
      [
        "Ġp",
        "resent"
      ],
      [
        "Ġ",
        "ed"
      ],
      [
        "0",
        "1"
      ],
      [
        "Ġprint",
        "s"
      ],
      [
        "Ġspecific",
        "ations"
      ],
      [
        "lo",
        "b"
      ],
      [
        "Ġi",
        "d"
      ],
      [
        "bo",
        "ve"
      ],
      [
        "m",
        "anager"
      ],
      [
        "o",
        "h"
      ],
      [
        "l",
        "ay"
      ],
      [
        "def",
        "ault"
      ],
      [
        "A",
        "L"
      ],
      [
        "Ġtrain",
        "ing"
      ],
      [
        "'",
        "])"
      ],
      [
        "Ġhe",
        "l"
      ],
      [
        "d",
        "im"
      ],
      [
        "Ġde",
        "te"
      ],
      [
        "re",
        "turn"
      ],
      [
        "R",
        "es"
      ],
      [
        "st",
        "rip"
      ],
      [
        "Ġsimul",
        "ates"
      ],
      [
        "Ġa",
        "bove"
      ],
      [
        "add",
        "ress"
      ],
      [
        "to",
        "p"
      ],
      [
        "Ġcomp",
        "ut"
      ],
      [
        "Ġp",
        "ort"
      ],
      [
        "}",
        ")"
      ],
      [
        "an",
        "ces"
      ],
      [
        "Ġth",
        "ree"
      ],
      [
        "me",
        "d"
      ],
      [
        "ic",
        "le"
      ],
      [
        "sh",
        "ape"
      ],
      [
        "user",
        "name"
      ],
      [
        "fe",
        "atures"
      ],
      [
        "Ġ[",
        "["
      ],
      [
        "ĠF",
        "or"
      ],
      [
        "C",
        "h"
      ],
      [
        "v",
        "ed"
      ],
      [
        "am",
        "b"
      ],
      [
        "Ġhe",
        "ight"
      ],
      [
        "Ġt",
        "orch"
      ],
      [
        "Ġw",
        "idth"
      ],
      [
        "Ġl",
        "abel"
      ],
      [
        "Ġp",
        "ri"
      ],
      [
        "d",
        "ig"
      ],
      [
        "Ġ2",
        "5"
      ],
      [
        "co",
        "ded"
      ],
      [
        "s",
        "c"
      ],
      [
        "ĠĠĠĠĠĠĠĠ",
        "čĊ"
      ],
      [
        "Ġperform",
        "s"
      ],
      [
        "Ġcommand",
        "s"
      ],
      [
        "v",
        "ari"
      ],
      [
        "Ġf",
        "req"
      ],
      [
        "point",
        "s"
      ],
      [
        "f",
        "l"
      ],
      [
        "f",
        "unc"
      ],
      [
        "j",
        "ango"
      ],
      [
        "Ġsuccess",
        "ful"
      ],
      [
        "N",
        "ame"
      ],
      [
        "ra",
        "n"
      ],
      [
        "ic",
        "ation"
      ],
      [
        "id",
        "x"
      ],
      [
        "fi",
        "lename"
      ],
      [
        "Ġvari",
        "ous"
      ],
      [
        "os",
        "it"
      ],
      [
        "T",
        "his"
      ],
      [
        "t",
        "he"
      ],
      [
        "Ġe",
        "ven"
      ],
      [
        "ĠF",
        "ibonacci"
      ],
      [
        "Ġcomp",
        "on"
      ],
      [
        "igr",
        "ation"
      ],
      [
        "i",
        "red"
      ],
      [
        "ĠU",
        "n"
      ],
      [
        "p",
        "rime"
      ],
      [
        "e",
        "y"
      ],
      [
        "In",
        "valid"
      ],
      [
        "res",
        "ponse"
      ],
      [
        "Ġfe",
        "atures"
      ],
      [
        "ha",
        "vi"
      ],
      [
        "lo",
        "y"
      ],
      [
        "ur",
        "al"
      ],
      [
        "is",
        "ion"
      ],
      [
        "Ġs",
        "ample"
      ],
      [
        "le",
        "vel"
      ],
      [
        "Ġbo",
        "olean"
      ],
      [
        "le",
        "ase"
      ],
      [
        "Ġy",
        "ear"
      ],
      [
        "P",
        "ar"
      ],
      [
        "s",
        "core"
      ],
      [
        "id",
        "s"
      ],
      [
        "F",
        "ile"
      ],
      [
        "s",
        "q"
      ],
      [
        "an",
        "a"
      ],
      [
        "Ġs",
        "qu"
      ],
      [
        "ss",
        "ume"
      ],
      [
        "Ġmod",
        "ified"
      ],
      [
        "ex",
        "ecut"
      ],
      [
        "des",
        "cription"
      ],
      [
        "pe",
        "ct"
      ],
      [
        "S",
        "e"
      ],
      [
        "t",
        "en"
      ],
      [
        "Ġerror",
        "s"
      ],
      [
        "Ġp",
        "h"
      ],
      [
        "Ġbu",
        "ild"
      ],
      [
        "ĠInitial",
        "ize"
      ],
      [
        "Ġf",
        "actor"
      ],
      [
        "Ġta",
        "g"
      ],
      [
        "v",
        "id"
      ],
      [
        "Ġc",
        "lean"
      ],
      [
        "Ġb",
        "reak"
      ],
      [
        "Ġcl",
        "ient"
      ],
      [
        "fo",
        "re"
      ],
      [
        "Ġle",
        "arning"
      ],
      [
        "ĉ",
        "ĉ"
      ],
      [
        "Ġdep",
        "end"
      ],
      [
        "Ġdef",
        "ined"
      ],
      [
        "ĠC",
        "alculate"
      ],
      [
        "ev",
        "el"
      ],
      [
        "Ġreg",
        "ist"
      ],
      [
        "Ġ",
        "."
      ],
      [
        "Ġtask",
        "s"
      ],
      [
        "idd",
        "en"
      ],
      [
        "Ġstep",
        "s"
      ],
      [
        "Ġm",
        "er"
      ],
      [
        "Ġma",
        "ke"
      ],
      [
        "me",
        "an"
      ],
      [
        "s",
        "ing"
      ],
      [
        "c",
        "ache"
      ],
      [
        "r",
        "c"
      ],
      [
        "g",
        "rid"
      ],
      [
        "w",
        "ait"
      ],
      [
        "Ġde",
        "vice"
      ],
      [
        "Ġlo",
        "op"
      ],
      [
        "ren",
        "ces"
      ],
      [
        "mat",
        "ch"
      ],
      [
        "Ġact",
        "ual"
      ],
      [
        "'",
        "."
      ],
      [
        "havi",
        "or"
      ],
      [
        "a",
        "ctions"
      ],
      [
        "Ġv",
        "iew"
      ],
      [
        "Ġl",
        "argest"
      ],
      [
        "Ġretri",
        "ev"
      ],
      [
        "ĠEx",
        "ecut"
      ],
      [
        "r",
        "ate"
      ],
      [
        "A",
        "l"
      ],
      [
        "p",
        "i"
      ],
      [
        "oh",
        "n"
      ],
      [
        "string",
        "s"
      ],
      [
        "b",
        "ot"
      ],
      [
        "Ġt",
        "ree"
      ],
      [
        "Ġ-",
        "="
      ],
      [
        "he",
        "l"
      ],
      [
        "ri",
        "ver"
      ],
      [
        "s",
        "u"
      ],
      [
        "Ġh",
        "t"
      ],
      [
        "Ġm",
        "ost"
      ],
      [
        "')",
        ","
      ],
      [
        "amb",
        "da"
      ],
      [
        "Ġappropri",
        "ate"
      ],
      [
        "u",
        "di"
      ],
      [
        "im",
        "al"
      ],
      [
        "or",
        "ies"
      ],
      [
        "ers",
        "on"
      ],
      [
        "Ġvari",
        "ables"
      ],
      [
        "Ġlog",
        "ging"
      ],
      [
        "f",
        "it"
      ],
      [
        "p",
        "ack"
      ],
      [
        "Ġs",
        "plit"
      ],
      [
        "se",
        "quence"
      ],
      [
        "p",
        "age"
      ],
      [
        "Ġset",
        "tings"
      ],
      [
        "Ġbo",
        "th"
      ],
      [
        "m",
        "ine"
      ],
      [
        "res",
        "hold"
      ],
      [
        "Ġd",
        "ig"
      ],
      [
        "Ġdescri",
        "bed"
      ],
      [
        "Ġv",
        "owels"
      ],
      [
        "Ġde",
        "cor"
      ],
      [
        "p",
        "ackage"
      ],
      [
        "um",
        "er"
      ],
      [
        "Ġs",
        "end"
      ],
      [
        "y",
        "ear"
      ],
      [
        "Ġm",
        "on"
      ],
      [
        "Ġrep",
        "osit"
      ],
      [
        "Ġy",
        "our"
      ],
      [
        "che",
        "ma"
      ],
      [
        "ock",
        "et"
      ],
      [
        "st",
        "ack"
      ],
      [
        "ro",
        "l"
      ],
      [
        "Ġbe",
        "havior"
      ],
      [
        "Ġ(",
        "\""
      ],
      [
        "Ġfe",
        "ature"
      ],
      [
        "ass",
        "ert"
      ],
      [
        "Ġmult",
        "iple"
      ],
      [
        "bo",
        "ard"
      ],
      [
        "Ġhand",
        "ling"
      ],
      [
        "Ġcolum",
        "ns"
      ],
      [
        "\"\"",
        "\"\""
      ],
      [
        "n",
        "et"
      ],
      [
        "Ġs",
        "ign"
      ],
      [
        "miss",
        "ion"
      ],
      [
        "e",
        "e"
      ],
      [
        "Ġun",
        "it"
      ],
      [
        "Str",
        "ing"
      ],
      [
        "Ġin",
        "vol"
      ],
      [
        "qu",
        "est"
      ],
      [
        "Ġe",
        "qual"
      ],
      [
        "ri",
        "but"
      ],
      [
        "a",
        "ke"
      ],
      [
        "Ġm",
        "essages"
      ],
      [
        "Ġexecut",
        "e"
      ],
      [
        "a",
        "ut"
      ],
      [
        "Ġ\"",
        ")"
      ],
      [
        "Ġde",
        "tails"
      ],
      [
        "t",
        "im"
      ],
      [
        "Ġthe",
        "re"
      ],
      [
        "st",
        "ep"
      ],
      [
        "Ġapp",
        "ly"
      ],
      [
        "Ġass",
        "ume"
      ],
      [
        "Ġcalcul",
        "ates"
      ],
      [
        "Ġm",
        "anag"
      ],
      [
        "p",
        "s"
      ],
      [
        "cur",
        "s"
      ],
      [
        "er",
        "ature"
      ],
      [
        "Ġp",
        "lot"
      ],
      [
        "ev",
        "ent"
      ],
      [
        "he",
        "ight"
      ],
      [
        ":",
        "\","
      ],
      [
        "ant",
        "ity"
      ],
      [
        "12",
        "3"
      ],
      [
        "1",
        "6"
      ],
      [
        "Ġm",
        "ode"
      ],
      [
        "ex",
        "p"
      ],
      [
        "ble",
        "m"
      ],
      [
        "Ġpr",
        "ice"
      ],
      [
        "Ġ",
        "ut"
      ],
      [
        "Ġfield",
        "s"
      ],
      [
        "Ġclass",
        "es"
      ],
      [
        "3",
        "3"
      ],
      [
        "Ġlet",
        "ter"
      ],
      [
        "Ġc",
        "ases"
      ],
      [
        "Ġr",
        "ules"
      ],
      [
        "ta",
        "g"
      ],
      [
        "2",
        "2"
      ],
      [
        "Ġd",
        "im"
      ],
      [
        "Ġl",
        "abels"
      ],
      [
        "Ġco",
        "ordinates"
      ],
      [
        "ĠO",
        "ptional"
      ],
      [
        "ra",
        "nge"
      ],
      [
        "Ġprovi",
        "de"
      ],
      [
        "an",
        "c"
      ],
      [
        "up",
        "er"
      ],
      [
        "Ġf",
        "inal"
      ],
      [
        "p",
        "lot"
      ],
      [
        "key",
        "s"
      ],
      [
        "Ġ(",
        "`"
      ],
      [
        "ot",
        "her"
      ],
      [
        "Ġa",
        "uthor"
      ],
      [
        "pos",
        "ition"
      ],
      [
        "ro",
        "ll"
      ],
      [
        "le",
        "cted"
      ],
      [
        "Ġpar",
        "am"
      ],
      [
        "ĠS",
        "ignature"
      ],
      [
        "\")",
        ")"
      ],
      [
        "Ġcon",
        "text"
      ],
      [
        "l",
        "ines"
      ],
      [
        "n",
        "p"
      ],
      [
        "C",
        "T"
      ],
      [
        "m",
        "ory"
      ],
      [
        "Ġo",
        "ptions"
      ],
      [
        "1",
        "5"
      ],
      [
        "ump",
        "y"
      ],
      [
        "Ġres",
        "pon"
      ],
      [
        "ar",
        "gument"
      ],
      [
        "Ġ\"",
        "__"
      ],
      [
        "Ġd",
        "ocument"
      ],
      [
        "3",
        "2"
      ],
      [
        "upl",
        "es"
      ],
      [
        "--------",
        "--------"
      ],
      [
        "E",
        "T"
      ],
      [
        "z",
        "e"
      ],
      [
        "p",
        "ol"
      ],
      [
        "Ġ\"",
        ","
      ],
      [
        ".",
        "\""
      ],
      [
        "Ġgo",
        "al"
      ],
      [
        "udi",
        "o"
      ],
      [
        "ra",
        "nd"
      ],
      [
        "ist",
        "s"
      ],
      [
        "l",
        "ink"
      ],
      [
        "Ġpl",
        "t"
      ],
      [
        "Ġmult",
        "ipl"
      ],
      [
        "a",
        "uthor"
      ],
      [
        "Ġal",
        "ph"
      ],
      [
        "Ġl",
        "ines"
      ],
      [
        "Ġse",
        "par"
      ],
      [
        "Ġcorrect",
        "ly"
      ],
      [
        "s",
        "cores"
      ],
      [
        "ĠReturn",
        "s"
      ],
      [
        "o",
        "se"
      ],
      [
        "Ġpath",
        "s"
      ],
      [
        "on",
        "t"
      ],
      [
        "Ġlo",
        "ss"
      ],
      [
        "Ġlow",
        "er"
      ],
      [
        "m",
        "ut"
      ],
      [
        "g",
        "ed"
      ],
      [
        "ate",
        "gor"
      ],
      [
        "Ġexist",
        "s"
      ],
      [
        "Ġ",
        "..."
      ],
      [
        "ens",
        "ions"
      ],
      [
        "Ġre",
        "cord"
      ],
      [
        "Co",
        "mplete"
      ],
      [
        "ĠA",
        "r"
      ],
      [
        "et",
        "ch"
      ],
      [
        "Ġvalid",
        "ate"
      ],
      [
        "Ġ",
        "Y"
      ],
      [
        "Ġme",
        "tadata"
      ],
      [
        "Ġse",
        "en"
      ],
      [
        "A",
        "N"
      ],
      [
        "s",
        "ource"
      ],
      [
        "m",
        "id"
      ],
      [
        "F",
        "ield"
      ],
      [
        "ĠS",
        "t"
      ],
      [
        "Ġmo",
        "ve"
      ],
      [
        "Ġp",
        "op"
      ],
      [
        "Ġsh",
        "ape"
      ],
      [
        "Ġle",
        "vel"
      ],
      [
        "mb",
        "ol"
      ],
      [
        "Ġd",
        "uring"
      ],
      [
        "he",
        "nt"
      ],
      [
        "n",
        "o"
      ],
      [
        "Ġl",
        "icense"
      ],
      [
        "Ġpro",
        "vid"
      ],
      [
        "sent",
        "ence"
      ],
      [
        "Ġset",
        "s"
      ],
      [
        "Ġformat",
        "ted"
      ],
      [
        "Ġe",
        "valu"
      ],
      [
        "()",
        ","
      ],
      [
        "Ġ1",
        "1"
      ],
      [
        "a",
        "res"
      ],
      [
        "m",
        "all"
      ],
      [
        "ou",
        "p"
      ],
      [
        "it",
        "u"
      ],
      [
        "m",
        "ode"
      ],
      [
        "o",
        "ff"
      ],
      [
        "ay",
        "load"
      ],
      [
        "ĠS",
        "et"
      ],
      [
        "Ġ`",
        "_"
      ],
      [
        "Ġl",
        "anguage"
      ],
      [
        "ch",
        "an"
      ],
      [
        "atter",
        "ns"
      ],
      [
        "N",
        "ot"
      ],
      [
        "ce",
        "iv"
      ],
      [
        "Ġcur",
        "r"
      ],
      [
        "U",
        "n"
      ],
      [
        "hold",
        "er"
      ],
      [
        "Ġm",
        "ust"
      ],
      [
        "ff",
        "er"
      ],
      [
        "cl",
        "ient"
      ],
      [
        "Ġuser",
        "name"
      ],
      [
        "c",
        "d"
      ],
      [
        "element",
        "s"
      ],
      [
        "Ġinitial",
        "izes"
      ],
      [
        "(",
        "{"
      ],
      [
        "s",
        "with"
      ],
      [
        "t",
        "s"
      ],
      [
        "A",
        "B"
      ],
      [
        "F",
        "ix"
      ],
      [
        "fi",
        "ll"
      ],
      [
        "Ġ''",
        "'"
      ],
      [
        "u",
        "se"
      ],
      [
        "Ġpro",
        "blem"
      ],
      [
        "Ġr",
        "ou"
      ],
      [
        "Ġhas",
        "h"
      ],
      [
        "Ġp",
        "y"
      ],
      [
        "ser",
        "ver"
      ],
      [
        "Ġab",
        "out"
      ],
      [
        "Ġpair",
        "s"
      ],
      [
        "f",
        "rame"
      ],
      [
        "Ġexce",
        "ption"
      ],
      [
        "D",
        "ict"
      ],
      [
        "ft",
        "ware"
      ],
      [
        "count",
        "s"
      ],
      [
        "Ġw",
        "rit"
      ],
      [
        "n",
        "g"
      ],
      [
        "bo",
        "x"
      ],
      [
        "er",
        "tain"
      ],
      [
        "Ġgre",
        "ater"
      ],
      [
        "ard",
        "s"
      ],
      [
        "Ġinvol",
        "ves"
      ],
      [
        "path",
        "s"
      ],
      [
        "m",
        "ary"
      ],
      [
        "b",
        "lock"
      ],
      [
        "he",
        "st"
      ],
      [
        "Ġinclu",
        "des"
      ],
      [
        "ra",
        "dius"
      ],
      [
        "er",
        "form"
      ],
      [
        "Q",
        "L"
      ],
      [
        "6",
        "4"
      ],
      [
        "ab",
        "ility"
      ],
      [
        "m",
        "ing"
      ],
      [
        "fi",
        "rst"
      ],
      [
        "Ġdeter",
        "mine"
      ],
      [
        "Ġsy",
        "s"
      ],
      [
        "it",
        "ed"
      ],
      [
        "s",
        "ol"
      ],
      [
        "Ġc",
        "ache"
      ],
      [
        "Ġs",
        "cores"
      ],
      [
        "evel",
        "op"
      ],
      [
        "ile",
        "d"
      ],
      [
        "l",
        "ast"
      ],
      [
        "g",
        "ative"
      ],
      [
        "est",
        "ed"
      ],
      [
        "Ġmin",
        "imum"
      ],
      [
        "Ġc",
        "ertain"
      ],
      [
        "fil",
        "ter"
      ],
      [
        "it",
        "or"
      ],
      [
        "vent",
        "ory"
      ],
      [
        "Ġdecor",
        "ator"
      ],
      [
        "C",
        "H"
      ],
      [
        "Ġ3",
        "0"
      ],
      [
        "us",
        "h"
      ],
      [
        "Ġw",
        "indow"
      ],
      [
        "ect",
        "or"
      ],
      [
        "00",
        "0"
      ],
      [
        "Ġdate",
        "time"
      ],
      [
        "ig",
        "hest"
      ],
      [
        "R",
        "O"
      ],
      [
        "Ġdiction",
        "aries"
      ],
      [
        "Ġreposit",
        "ory"
      ],
      [
        "umb",
        "er"
      ],
      [
        "Ġtemp",
        "late"
      ],
      [
        "Ġs",
        "uper"
      ],
      [
        "]",
        "))"
      ],
      [
        "di",
        "ction"
      ],
      [
        "ĠHT",
        "TP"
      ],
      [
        "m",
        "ark"
      ],
      [
        "Ġcon",
        "st"
      ],
      [
        "st",
        "at"
      ],
      [
        "c",
        "le"
      ],
      [
        "u",
        "nd"
      ],
      [
        "__",
        "\":"
      ],
      [
        "di",
        "an"
      ],
      [
        "Ġus",
        "ers"
      ],
      [
        "Ġvalid",
        "ation"
      ],
      [
        "Ġre",
        "ference"
      ],
      [
        "ty",
        "p"
      ],
      [
        "Ġby",
        "tes"
      ],
      [
        "Ġgener",
        "ated"
      ],
      [
        "igh",
        "b"
      ],
      [
        "s",
        "end"
      ],
      [
        "Ġco",
        "st"
      ],
      [
        "our",
        "ces"
      ],
      [
        "Ġj",
        "ob"
      ],
      [
        "re",
        "l"
      ],
      [
        "S",
        "I"
      ],
      [
        "re",
        "f"
      ],
      [
        "Ġ",
        "Q"
      ],
      [
        "Ġl",
        "ayer"
      ],
      [
        "x",
        "y"
      ],
      [
        "st",
        "d"
      ],
      [
        "Ġ'",
        "{"
      ],
      [
        "pp",
        "ed"
      ],
      [
        "Ġde",
        "lete"
      ],
      [
        "s",
        "l"
      ],
      [
        "g",
        "ress"
      ],
      [
        "Ġpar",
        "sed"
      ],
      [
        "2",
        "5"
      ],
      [
        "bu",
        "g"
      ],
      [
        "Ġfl",
        "ag"
      ],
      [
        "it",
        "al"
      ],
      [
        "Ġcheck",
        "s"
      ],
      [
        "or",
        "age"
      ],
      [
        "fi",
        "b"
      ],
      [
        "r",
        "ound"
      ],
      [
        "Ġre",
        "place"
      ],
      [
        "s",
        "ave"
      ],
      [
        "ĠC",
        "o"
      ],
      [
        "ĠExecut",
        "ing"
      ],
      [
        "Ġm",
        "ark"
      ],
      [
        "im",
        "il"
      ],
      [
        "itu",
        "de"
      ],
      [
        "Ġkey",
        "word"
      ],
      [
        "dist",
        "ance"
      ],
      [
        "T",
        "est"
      ],
      [
        "ow",
        "er"
      ],
      [
        "pa",
        "rent"
      ],
      [
        "Ġi",
        "mages"
      ],
      [
        "ĠAn",
        "y"
      ],
      [
        "Ġco",
        "py"
      ],
      [
        "a",
        "verage"
      ],
      [
        "at",
        "est"
      ],
      [
        "Ġinput",
        "s"
      ],
      [
        "riter",
        "ia"
      ],
      [
        "Ġa",
        "x"
      ],
      [
        "p",
        "attern"
      ],
      [
        "a",
        "ded"
      ],
      [
        "Ġdes",
        "cription"
      ],
      [
        "s",
        "is"
      ],
      [
        "enc",
        "es"
      ],
      [
        "pro",
        "duct"
      ],
      [
        "h",
        "o"
      ],
      [
        "Ġt",
        "uples"
      ],
      [
        "Ġst",
        "udent"
      ],
      [
        "Ġser",
        "vice"
      ],
      [
        "t",
        "ies"
      ],
      [
        "\"",
        "],"
      ],
      [
        "ĠEx",
        "ception"
      ],
      [
        "in",
        "st"
      ],
      [
        "imil",
        "ar"
      ],
      [
        "Ġin",
        "sert"
      ],
      [
        "G",
        "iven"
      ],
      [
        "N",
        "A"
      ],
      [
        "Ġde",
        "l"
      ],
      [
        "Ġupd",
        "ated"
      ],
      [
        "ĠData",
        "Frame"
      ],
      [
        "Ġ",
        "queue"
      ],
      [
        "c",
        "ending"
      ],
      [
        "Ġt",
        "er"
      ],
      [
        "v",
        "ing"
      ],
      [
        "Ġ'",
        "/"
      ],
      [
        "Ġfil",
        "tered"
      ],
      [
        "Ġhel",
        "p"
      ],
      [
        "d",
        "ay"
      ],
      [
        "i",
        "an"
      ],
      [
        "int",
        "e"
      ],
      [
        "Ġh",
        "ost"
      ],
      [
        "d",
        "own"
      ],
      [
        "Ġs",
        "ession"
      ],
      [
        "Ġser",
        "ies"
      ],
      [
        "Ġn",
        "odes"
      ],
      [
        "Ġgener",
        "ates"
      ],
      [
        "lo",
        "ss"
      ],
      [
        "Ġthe",
        "y"
      ],
      [
        "Ġp",
        "ol"
      ],
      [
        "sort",
        "ed"
      ],
      [
        "'",
        "):"
      ],
      [
        "6",
        "6"
      ],
      [
        "D",
        "evelop"
      ],
      [
        "Ġcondition",
        "s"
      ],
      [
        "ĠD",
        "jango"
      ],
      [
        "g",
        "en"
      ],
      [
        "Ġst",
        "at"
      ],
      [
        "for",
        "med"
      ],
      [
        "3",
        "0"
      ],
      [
        "Ġr",
        "ate"
      ],
      [
        "et",
        "s"
      ],
      [
        "in",
        "f"
      ],
      [
        "Ġu",
        "pper"
      ],
      [
        "Ġres",
        "pect"
      ],
      [
        "ide",
        "o"
      ],
      [
        "fo",
        "ld"
      ],
      [
        "Ġc",
        "lo"
      ],
      [
        "Ġma",
        "pping"
      ],
      [
        "A",
        "c"
      ],
      [
        "char",
        "act"
      ],
      [
        ":",
        "-"
      ],
      [
        "rypt",
        "ed"
      ],
      [
        "in",
        "ation"
      ],
      [
        "Ġc",
        "v"
      ],
      [
        "Ġm",
        "ore"
      ],
      [
        "Ġind",
        "ices"
      ],
      [
        "Ġd",
        "f"
      ],
      [
        "xt",
        "ract"
      ],
      [
        "mon",
        "str"
      ],
      [
        "f",
        "req"
      ],
      [
        "Ġextract",
        "s"
      ],
      [
        "Ġde",
        "monstr"
      ],
      [
        "op",
        "en"
      ],
      [
        "Ġpre",
        "dict"
      ],
      [
        "Ġexp",
        "ression"
      ],
      [
        "ĠF",
        "l"
      ],
      [
        "ch",
        "ine"
      ],
      [
        "Ġdiv",
        "is"
      ],
      [
        "C",
        "O"
      ],
      [
        "ip",
        "el"
      ],
      [
        "at",
        "form"
      ],
      [
        "Ġsto",
        "red"
      ],
      [
        "re",
        "ction"
      ],
      [
        "lis",
        "h"
      ],
      [
        "di",
        "rect"
      ],
      [
        "S",
        "er"
      ],
      [
        "en",
        "u"
      ],
      [
        "me",
        "tadata"
      ],
      [
        "im",
        "g"
      ],
      [
        "Ġfi",
        "lename"
      ],
      [
        "v",
        "ers"
      ],
      [
        "Ġcon",
        "nect"
      ],
      [
        "by",
        "tes"
      ],
      [
        "s",
        "ample"
      ],
      [
        "lo",
        "cal"
      ],
      [
        "1",
        "9"
      ],
      [
        "Ġ`",
        "<"
      ],
      [
        "d",
        "if"
      ],
      [
        "result",
        "s"
      ],
      [
        "as",
        "ure"
      ],
      [
        "de",
        "vice"
      ],
      [
        "s",
        "w"
      ],
      [
        "â",
        "Ķ"
      ],
      [
        "M",
        "A"
      ],
      [
        "cs",
        "v"
      ],
      [
        "E",
        "nter"
      ],
      [
        "Ġcalcul",
        "ated"
      ],
      [
        "p",
        "ace"
      ],
      [
        "er",
        "nel"
      ],
      [
        "Ġd",
        "ownload"
      ],
      [
        "Ġo",
        "ptional"
      ],
      [
        "Ġto",
        "ol"
      ],
      [
        "pro",
        "per"
      ],
      [
        "U",
        "T"
      ],
      [
        "Ġcount",
        "s"
      ],
      [
        "__",
        "`"
      ],
      [
        "Ġl",
        "imit"
      ],
      [
        "Ġ",
        "]"
      ],
      [
        "Ġc",
        "ir"
      ],
      [
        "ĠW",
        "orld"
      ],
      [
        "Ġm",
        "anager"
      ],
      [
        "Pro",
        "cess"
      ],
      [
        "ver",
        "sed"
      ],
      [
        "b",
        "e"
      ],
      [
        "re",
        "st"
      ],
      [
        "Ġm",
        "ath"
      ],
      [
        "Ġpos",
        "itive"
      ],
      [
        "Ġc",
        "ell"
      ],
      [
        "'",
        "}"
      ],
      [
        "g",
        "o"
      ],
      [
        "A",
        "ssume"
      ],
      [
        "Ġc",
        "ategory"
      ],
      [
        "Ġd",
        "p"
      ],
      [
        "am",
        "ount"
      ],
      [
        "par",
        "ame"
      ],
      [
        "Ġfib",
        "onacci"
      ],
      [
        "Ġconstruct",
        "or"
      ],
      [
        "Ġus",
        "es"
      ],
      [
        "Ġob",
        "tain"
      ],
      [
        "o",
        "ptions"
      ],
      [
        "co",
        "st"
      ],
      [
        "Ġexist",
        "ing"
      ],
      [
        "Ġc",
        "riteria"
      ],
      [
        "id",
        "get"
      ],
      [
        "Ġrow",
        "s"
      ],
      [
        "Ġwith",
        "out"
      ],
      [
        "Ġof",
        "f"
      ],
      [
        "Ġco",
        "mple"
      ],
      [
        "Ġ`",
        "`"
      ],
      [
        "str",
        "u"
      ],
      [
        "]",
        "`"
      ],
      [
        "Ġwe",
        "ight"
      ],
      [
        "Ġexecut",
        "ion"
      ],
      [
        "Ġrepresent",
        "ation"
      ],
      [
        "s",
        "cript"
      ],
      [
        "g",
        "re"
      ],
      [
        "Ġsub",
        "string"
      ],
      [
        "9",
        "9"
      ],
      [
        "Ġch",
        "oice"
      ],
      [
[...]
