{
  "version": "1.0",
  "truncation": null,
  "padding": null,
  "added_tokens": [
    {
      "id": 0,
      "content": "<pad>",
      "single_word": false,
      "lstrip": false,
      "rstrip": false,
      "normalized": false,
      "special": true
    },
    {
      "id": 1,
      "content": "<eos>",
      "single_word": false,
      "lstrip": false,
      "rstrip": false,
      "normalized": false,
      "special": true
    },
    {
      "id": 2,
      "content": "<unk>",
      "single_word": false,
      "lstrip": false,
      "rstrip": false,
      "normalized": false,
      "special": true
    },
    {
      "id": 3,
      "content": "<bos>",
      "single_word": false,
      "lstrip": false,
      "rstrip": false,
      "normalized": false,
      "special": true
    },
    {
      "id": 4,
      "content": "<|im_start|>",
      "single_word": false,
      "lstrip": false,
      "rstrip": false,
      "normalized": false,
      "special": true
    },
    {
      "id": 5,
      "content": "<|im_end|>",
      "single_word": false,
      "lstrip": false,
      "rstrip": false,
      "normalized": false,
      "special": true
    },
    {
      "id": 6,
      "content": "<|thought|>",
      "single_word": false,
      "lstrip": false,
      "rstrip": false,
      "normalized": false,
      "special": true
    },
    {
      "id": 7,
      "content": "<|thought_end|>",
      "single_word": false,
      "lstrip": false,
      "rstrip": false,
      "normalized": false,
      "special": true
    },
    {
      "id": 8,
      "content": "<|code|>",
      "single_word": false,
      "lstrip": false,
      "rstrip": false,
      "normalized": false,
      "special": true
    },
    {
      "id": 9,
      "content": "<|code_end|>",
      "single_word": false,
      "lstrip": false,
      "rstrip": false,
      "normalized": false,
      "special": true
    },
    {
      "id": 10,
      "content": "<|python|>",
      "single_word": false,
      "lstrip": false,
      "rstrip": false,
      "normalized": false,
      "special": true
    },
    {
      "id": 11,
      "content": "<|json|>",
      "single_word": false,
      "lstrip": false,
      "rstrip": false,
      "normalized": false,
      "special": true
    }
  ],
  "normalizer": {
    "type": "NFKC"
  },
  "pre_tokenizer": {
    "type": "ByteLevel",
    "add_prefix_space": false,
    "trim_offsets": true,
    "use_regex": true
  },
  "post_processor": null,
  "decoder": {
    "type": "ByteLevel",
    "add_prefix_space": true,
    "trim_offsets": true,
    "use_regex": true
  },
  "model": {
    "type": "BPE",
    "dropout": null,
    "unk_token": "<unk>",
    "continuing_subword_prefix": null,
    "end_of_word_suffix": null,
    "fuse_unk": false,
    "byte_fallback": false,
    "ignore_merges": false,
    "vocab": {
      "<pad>": 0,
      "<eos>": 1,
      "<unk>": 2,
      "<bos>": 3,
      "<|im_start|>": 4,
      "<|im_end|>": 5,
      "<|thought|>": 6,
      "<|thought_end|>": 7,
      "<|code|>": 8,
      "<|code_end|>": 9,
      "<|python|>": 10,
      "<|json|>": 11,
      "!": 12,
      "\"": 13,
      "#": 14,
      "$": 15,
      "%": 16,
      "&": 17,
      "'": 18,
      "(": 19,
      ")": 20,
      "*": 21,
      "+": 22,
      ",": 23,
      "-": 24,
      ".": 25,
      "/": 26,
      "0": 27,
      "1": 28,
      "2": 29,
      "3": 30,
      "4": 31,
      "5": 32,
      "6": 33,
      "7": 34,
      "8": 35,
      "9": 36,
      ":": 37,
      ";": 38,
      "<": 39,
      "=": 40,
      ">": 41,
      "?": 42,
      "@": 43,
      "A": 44,
      "B": 45,
      "C": 46,
      "D": 47,
      "E": 48,
      "F": 49,
      "G": 50,
      "H": 51,
      "I": 52,
      "J": 53,
      "K": 54,
      "L": 55,
      "M": 56,
      "N": 57,
      "O": 58,
      "P": 59,
      "Q": 60,
      "R": 61,
      "S": 62,
      "T": 63,
      "U": 64,
      "V": 65,
      "W": 66,
      "X": 67,
      "Y": 68,
      "Z": 69,
      "[": 70,
      "\\": 71,
      "]": 72,
      "^": 73,
      "_": 74,
      "`": 75,
      "a": 76,
      "b": 77,
      "c": 78,
      "d": 79,
      "e": 80,
      "f": 81,
      "g": 82,
      "h": 83,
      "i": 84,
      "j": 85,
      "k": 86,
      "l": 87,
      "m": 88,
      "n": 89,
      "o": 90,
      "p": 91,
      "q": 92,
      "r": 93,
      "s": 94,
      "t": 95,
      "u": 96,
      "v": 97,
      "w": 98,
      "x": 99,
      "y": 100,
      "z": 101,
      "{": 102,
      "|": 103,
      "}": 104,
      "~": 105,
      "¡": 106,
      "¢": 107,
      "£": 108,
      "¤": 109,
      "¥": 110,
      "¦": 111,
      "§": 112,
      "¨": 113,
      "©": 114,
      "ª": 115,
      "«": 116,
      "¬": 117,
      "®": 118,
      "¯": 119,
      "°": 120,
      "±": 121,
      "²": 122,
      "³": 123,
      "´": 124,
      "µ": 125,
      "¶": 126,
      "·": 127,
      "¸": 128,
      "¹": 129,
      "º": 130,
      "»": 131,
      "¼": 132,
      "½": 133,
      "¾": 134,
      "¿": 135,
      "Â": 136,
      "Ã": 137,
      "Ä": 138,
      "Å": 139,
      "Æ": 140,
      "Ç": 141,
      "È": 142,
      "É": 143,
      "Ê": 144,
      "Ë": 145,
      "Ì": 146,
      "Í": 147,
      "Î": 148,
      "Ï": 149,
      "Ð": 150,
      "Ñ": 151,
      "Ò": 152,
      "Ó": 153,
      "Ô": 154,
      "Õ": 155,
      "Ö": 156,
      "×": 157,
      "Ø": 158,
      "Ù": 159,
      "Ú": 160,
      "Û": 161,
      "Ü": 162,
      "Ý": 163,
      "Þ": 164,
      "ß": 165,
      "à": 166,
      "á": 167,
      "â": 168,
      "ã": 169,
      "ä": 170,
      "å": 171,
      "æ": 172,
      "ç": 173,
      "è": 174,
      "é": 175,
      "ê": 176,
      "ë": 177,
      "ì": 178,
      "í": 179,
      "ï": 180,
      "ð": 181,
      "ó": 182,
      "Ċ": 183,
      "č": 184,
      "Ġ": 185,
      "Ģ": 186,
      "ģ": 187,
      "Ĥ": 188,
      "ĥ": 189,
      "Ħ": 190,
      "ħ": 191,
      "Ĩ": 192,
      "ĩ": 193,
      "Ī": 194,
      "ī": 195,
      "Ĭ": 196,
      "ĭ": 197,
      "Į": 198,
      "į": 199,
      "İ": 200,
      "ı": 201,
      "Ĳ": 202,
      "ĳ": 203,
      "Ĵ": 204,
      "ĵ": 205,
      "Ķ": 206,
      "ķ": 207,
      "ĸ": 208,
      "Ĺ": 209,
      "ĺ": 210,
      "Ļ": 211,
      "ļ": 212,
      "Ľ": 213,
      "ľ": 214,
      "Ŀ": 215,
      "ŀ": 216,
      "Ł": 217,
      "ł": 218,
      "Ń": 219,
      "Ġt": 220,
      "Ġa": 221,
      "he": 222,
      "in": 223,
      "re": 224,
      "on": 225,
      "Ġthe": 226,
      "er": 227,
      "Ġs": 228,
      "at": 229,
      "Ġo": 230,
      "en": 231,
      "ĠĠ": 232,
      "Ġc": 233,
      "es": 234,
      "Ġw": 235,
      "is": 236,
      "nd": 237,
      "it": 238,
      "or": 239,
      "Ġp": 240,
      "Ġf": 241,
      "al": 242,
      "ed": 243,
      "Ġb": 244,
      "an": 245,
      "ing": 246,
      "ou": 247,
      "Ġof": 248,
      "ar": 249,
      "Ġin": 250,
      "Ġm": 251,
      "Ġto": 252,
      "Ġand": 253,
      "ion": 254,
      "le": 255,
      "Ġd": 256,
      "ic": 257,
      "ro": 258,
      "as": 259,
      "ent": 260,
      "Ġh": 261,
      "Ġth": 262,
      "ct": 263,
      "Ġre": 264,
      "om": 265,
      "Ġl": 266,
      "Ġe": 267,
      "Ġn": 268,
      ".\\": 269,
      "il": 270,
      "st": 271,
      "el": 272,
      "et": 273,
      "Ġg": 274,
      "Ġis": 275,
      "ĠT": 276,
      "ĠĠĠĠ": 277,
      "im": 278,
      "\\\"": 279,
      "ve": 280,
      "ut": 281,
      "ol": 282,
      "ur": 283,
      "id": 284,
      "us": 285,
      "ra": 286,
      "ation": 287,
      "âĢ": 288,
      "Ġbe": 289,
      "ot": 290,
      "ly": 291,
      "ce": 292,
      "Ġst": 293,
      "Ġfor": 294,
      "ow": 295,
      "ch": 296,
      "ig": 297,
      "ĠĠĠ": 298,
      "ĠS": 299,
      "am": 300,
      "Ġ\"": 301,
      "ĠA": 302,
      "Ġthat": 303,
      "ĠI": 304,
      "ir": 305,
      "Ġon": 306,
      "ver": 307,
      "Ġy": 308,
      "ay": 309,
      "ul": 310,
      "se": 311,
      "ith": 312,
      "ad": 313,
      "\":": 314,
      "if": 315,
      "ĠC": 316,
      "Ġas": 317,
      "un": 318,
      "her": 319,
      "od": 320,
      "Ġpro": 321,
      "Ġwith": 322,
      "ist": 323,
      "um": 324,
      "Ġan": 325,
      "Ġit": 326,
      "Ġare": 327,
      "Ġcon": 328,
      "ĠThe": 329,
      "Ġ1": 330,
      "th": 331,
      "Ġyou": 332,
      "ag": 333,
      ":\\": 334,
      "Ġal": 335,
      "Ġ(": 336,
      "Ġwh": 337,
      "ers": 338,
      "ess": 339,
      "rom": 340,
      "Ġor": 341,
      "ate": 342,
      "ĠP": 343,
      "Ġde": 344,
      "ple": 345,
      "ĠM": 346,
      "ment": 347,
      "Ġhe": 348,
      "est": 349,
      "ri": 350,
      "ld": 351,
      "pt": 352,
      "Ġex": 353,
      "ab": 354,
      "ant": 355,
      "res": 356,
      "ter": 357,
      "ac": 358,
      "ect": 359,
      "ĠB": 360,
      "pp": 361,
      "qu": 362,
      "Ġwas": 363,
      "ĠH": 364,
      "ak": 365,
      "Ġha": 366,
      "Ġcom": 367,
      "Ġv": 368,
      "iv": 369,
      "ill": 370,
      "Ġwe": 371,
      "em": 372,
      "ore": 373,
      "ain": 374,
      "os": 375,
      "ity": 376,
      "Ġ=": 377,
      "{\"": 378,
      "nt": 379,
      "ies": 380,
      "Ġ2": 381,
      "Ġby": 382,
      "ĠR": 383,
      "Ġsu": 384,
      "Ġne": 385,
      "igh": 386,
      "Ġus": 387,
      "âĢĻ": 388,
      "Ġat": 389,
      "Ġr": 390,
      "ort": 391,
      "ction": 392,
      "ĠW": 393,
      "Ġsh": 394,
      "Ġch": 395,
      "ĠD": 396,
      "and": 397,
      "ĠE": 398,
      "oc": 399,
      "00": 400,
      "Ġcan": 401,
      "Ġfrom": 402,
      "Ġk": 403,
      "ive": 404,
      "pe": 405,
      "ud": 406,
      "Ġse": 407,
      "Ġ\\\"": 408,
      "ĠF": 409,
      "Ġnot": 410,
      "te": 411,
      "nT": 412,
      "\"}": 413,
      "ĠĠĠĠĠĠĠ": 414,
      "ould": 415,
      "ĠL": 416,
      "art": 417,
      "ical": 418,
      "og": 419,
      "ure": 420,
      "end": 421,
      "Ġthis": 422,
      "Ġle": 423,
      "ial": 424,
      "op": 425,
      "Ġhave": 426,
      "\",": 427,
      "ĠN": 428,
      "ge": 429,
      "our": 430,
      "ĠG": 431,
      "pl": 432,
      "all": 433,
      "Ġu": 434,
      "ru": 435,
      "Ġim": 436,
      "Ġab": 437,
      "ass": 438,
      "ĠâĢ": 439,
      ")\\": 440,
      "ight": 441,
      "Ġwor": 442,
      "rou": 443,
      "com": 444,
      "red": 445,
      "Ġpl": 446,
      "out": 447,
      "age": 448,
      "čĊ": 449,
      "##": 450,
      "iz": 451,
      "ated": 452,
      "ine": 453,
      "gh": 454,
      "ell": 455,
      "con": 456,
      "ost": 457,
      "per": 458,
      "ich": 459,
      "==": 460,
      "ard": 461,
      "ide": 462,
      "ther": 463,
      "ult": 464,
      "du": 465,
      "ĠIn": 466,
      "ĠO": 467,
      "nThe": 468,
      "Ġen": 469,
      "Ġtheir": 470,
      "urn": 471,
      "ind": 472,
      "Ġthey": 473,
      "Ġres": 474,
      "Ġall": 475,
      "ff": 476,
      "ok": 477,
      "Ġcl": 478,
      "act": 479,
      "ans": 480,
      "Ġwhe": 481,
      "Ġyour": 482,
      "ions": 483,
      "ast": 484,
      "xt": 485,
      "orm": 486,
      "ame": 487,
      "ear": 488,
      "ep": 489,
      "ĠJ": 490,
      "ib": 491,
      "Ġad": 492,
      "ome": 493,
      "ary": 494,
      "Ġcont": 495,
      "ust": 496,
      "Ġwhich": 497,
      "cc": 498,
      "ous": 499,
      "ood": 500,
      "Ġwill": 501,
      "Ġint": 502,
      "int": 503,
      "ĠU": 504,
      "'s": 505,
      "ew": 506,
      "cl": 507,
      "Ġdo": 508,
      "ong": 509,
      "Ġper": 510,
      "ach": 511,
      "ime": 512,
      "ile": 513,
      "Ġmore": 514,
      "Ġhas": 515,
      "ack": 516,
      "rit": 517,
      "ik": 518,
      "ber": 519,
      "ations": 520,
      "able": 521,
      "are": 522,
      "ence": 523,
      "ry": 524,
      "Ġret": 525,
      "elf": 526,
      "Ġar": 527,
      "Ġdis": 528,
      "Ġsa": 529,
      "Ġif": 530,
      "Ġman": 531,
      "ake": 532,
      "pon": 533,
      "Ġso": 534,
      "ia": 535,
      "ents": 536,
      "Ġbut": 537,
      "ef": 538,
      "ater": 539,
      "Ġun": 540,
      "Ġme": 541,
      "vel": 542,
      "Ġte": 543,
      "ĠTh": 544,
      "ount": 545,
      "so": 546,
      "ild": 547,
      "very": 548,
      "ip": 549,
      "Ġj": 550,
      "Ġother": 551,
      "Ġwere": 552,
      "âĢĿ": 553,
      "Ġout": 554,
      "ue": 555,
      "ory": 556,
      "ase": 557,
      "one": 558,
      "ice": 559,
      "ord": 560,
      "Ġsc": 561,
      "ap": 562,
      "ance": 563,
      "ally": 564,
      "Ġhis": 565,
      "\\\"\\\"": 566,
      "Ġreturn": 567,
      "Ġabout": 568,
      "tion": 569,
      "Ġ\\": 570,
      "Ġ3": 571,
      "ren": 572,
      "Ġone": 573,
      "reat": 574,
      "ign": 575,
      "ress": 576,
      "port": 577,
      "Ġ-": 578,
      "Ġapp": 579,
      "nA": 580,
      "Ġ`": 581,
      "low": 582,
      "ook": 583,
      "ire": 584,
      "ks": 585,
      "ace": 586,
      "Ä±": 587,
      "ram": 588,
      "put": 589,
      "ely": 590,
      "Ġalso": 591,
      "Ġ[": 592,
      "tent": 593,
      "ens": 594,
      "ose": 595,
      "av": 596,
      "fe": 597,
      "Ġsp": 598,
      "aus": 599,
      "Ġfun": 600,
      "Ġnum": 601,
      "nI": 602,
      "ĠâĢľ": 603,
      "ĠIt": 604,
      "form": 605,
      "pec": 606,
      "Ġev": 607,
      "ound": 608,
      "Ġthem": 609,
      "Ġqu": 610,
      "Ġpr": 611,
      "ition": 612,
      "ub": 613,
      "Ġtime": 614,
      "ree": 615,
      "ang": 616,
      "Ġpart": 617,
      "ces": 618,
      "ĠHe": 619,
      "role": 620,
      "Ġcomm": 621,
      "Ġshould": 622,
      "Ġthere": 623,
      "ish": 624,
      "):\\": 625,
      "Ġwho": 626,
      "Ġ19": 627,
      "Ġsy": 628,
      "Ġpe": 629,
      "ors": 630,
      "Ġits": 631,
      "ings": 632,
      "Ġstud": 633,
      "ays": 634,
      "--": 635,
      "Ġher": 636,
      "Ġup": 637,
      "ail": 638,
      "Ġhad": 639,
      "now": 640,
      "ates": 641,
      "Ġpre": 642,
      "Ġ'": 643,
      "Ġthan": 644,
      "content": 645,
      "ath": 646,
      "Ġgo": 647,
      "ĠK": 648,
      "prom": 649,
      "ne": 650,
      "ific": 651,
      "====": 652,
      "pletion": 653,
      "Ġsome": 654,
      "nW": 655,
      "prompt": 656,
      "ning": 657,
      "Ġlik": 658,
      "ata": 659,
      "ĠY": 660,
      "completion": 661,
      "ĠSt": 662,
      "ie": 663,
      "Ġra": 664,
      "eth": 665,
      "cess": 666,
      "Ġstr": 667,
      "Ġfunction": 668,
      "Ġinto": 669,
      "ating": 670,
      "ph": 671,
      "rent": 672,
      "nS": 673,
      "ite": 674,
      "ough": 675,
      "text": 676,
      "ove": 677,
      "Ġag": 678,
      "olog": 679,
      "ys": 680,
      "Ġwhen": 681,
      "Ġ20": 682,
      "Ġyear": 683,
      "Ġtra": 684,
      "Ġmay": 685,
      "ink": 686,
      "Ġcol": 687,
      "Ġtw": 688,
      "ily": 689,
      "vers": 690,
      "ages": 691,
      "Ġnew": 692,
      "row": 693,
      "ople": 694,
      ".\"}": 695,
      "ĠĠĠĠĠĠĠĠĠĠĠ": 696,
      "nder": 697,
      "Ġwork": 698,
      "ject": 699,
      "ck": 700,
      "cre": 701,
      "ian": 702,
      "ĠThis": 703,
      "``": 704,
      "Ġ4": 705,
      "Ġhow": 706,
      "we": 707,
      "Ġbeen": 708,
      "ric": 709,
      "rough": 710,
      "Ġneed": 711,
      "Ġover": 712,
      "ĠCh": 713,
      "ĠV": 714,
      "Ġ5": 715,
      "Ġspec": 716,
      "stem": 717,
      "ual": 718,
      "Ġdif": 719,
      "irst": 720,
      "ient": 721,
      "ved": 722,
      "Ġhel": 723,
      "ause": 724,
      "Ġcomp": 725,
      "Ġ#": 726,
      "clud": 727,
      "Ġbl": 728,
      "mer": 729,
      "Ġgen": 730,
      "Ġdef": 731,
      "Ġwould": 732,
      "###": 733,
      "ange": 734,
      "ool": 735,
      "Ġbet": 736,
      "Ġthese": 737,
      "yth": 738,
      "Ġpeople": 739,
      "hed": 740,
      "Ġacc": 741,
      "ob": 742,
      "Ġro": 743,
      "Ġcons": 744,
      "lic": 745,
      "ments": 746,
      "),": 747,
      "Ġdes": 748,
      ").": 749,
      "Ġshe": 750,
      "Ġknow": 751,
      "\\\\": 752,
      "ĠThey": 753,
      "Ġour": 754,
      "Ġhelp": 755,
      ".\\\"": 756,
      "Ġmost": 757,
      "ble": 758,
      "ark": 759,
      "Ġsaid": 760,
      "ious": 761,
      "Ġuse": 762,
      "Ġwhat": 763,
      "les": 764,
      "get": 765,
      "Ġprov": 766,
      "Ġunder": 767,
      "ll": 768,
      "Ġlist": 769,
      "stru": 770,
      "round": 771,
      "Ġtwo": 772,
      "erm": 773,
      "lect": 774,
      "ise": 775,
      "Ġfe": 776,
      "ities": 777,
      "Ġact": 778,
      "Ġmany": 779,
      "Ġind": 780,
      "Ġam": 781,
      "oss": 782,
      "Ġfol": 783,
      "alth": 784,
      "ied": 785,
      "Ġno": 786,
      "Ġsm": 787,
      "Ġrel": 788,
      "Ġsuch": 789,
      "Ġinclud": 790,
      "velop": 791,
      "Ġany": 792,
      "tern": 793,
      "ds": 794,
      "Ġfirst": 795,
      "Ġtr": 796,
      "Ġrec": 797,
      "Ġonly": 798,
      "Ġused": 799,
      "Ġmod": 800,
      "erv": 801,
      "ask": 802,
      "Ġem": 803,
      "Ġform": 804,
      "rib": 805,
      "Ġass": 806,
      "Ġob": 807,
      "fter": 808,
      "Ġchild": 809,
      "ular": 810,
      "Ġthrough": 811,
      "ased": 812,
      "Ġ0": 813,
      "Ġself": 814,
      "ffect": 815,
      "Ġprodu": 816,
      "Ġlike": 817,
      "Ġval": 818,
      "..": 819,
      "ced": 820,
      "Ġph": 821,
      "Ġget": 822,
      "Ġadd": 823,
      "?\\": 824,
      "itt": 825,
      "als": 826,
      "Ġgiv": 827,
      "hen": 828,
      "Ġ+": 829,
      "ful": 830,
      "str": 831,
      "Ġmake": 832,
      "Ġbec": 833,
      "ational": 834,
      "iss": 835,
      "ython": 836,
      "Ġday": 837,
      "ax": 838,
      "oth": 839,
      "Ġfl": 840,
      "__": 841,
      "ick": 842,
      "ode": 843,
      "Ġac": 844,
      "Ġpo": 845,
      "Ġfollow": 846,
      "ft": 847,
      "ically": 848,
      "own": 849,
      "Ġsystem": 850,
      "Ġdiffe": 851,
      "Ġeach": 852,
      "Ġke": 853,
      "Ġclass": 854,
      "ract": 855,
      "Ġrem": 856,
      "ponse": 857,
      "Ġvery": 858,
      "Ġcould": 859,
      "Ġreg": 860,
      "ade": 861,
      "ert": 862,
      "ĠRes": 863,
      "self": 864,
      "hes": 865,
      "Ġsub": 866,
      "Ġco": 867,
      "Ġprog": 868,
      "Ġoff": 869,
      "ĠShe": 870,
      "ex": 871,
      "Ġexp": 872,
      "ible": 873,
      "ics": 874,
      "Ġbu": 875,
      "Ġdevelop": 876,
      "]\\": 877,
      "uring": 878,
      "ĠUn": 879,
      "Ġnumber": 880,
      "arch": 881,
      "nO": 882,
      "ative": 883,
      "Ġimp": 884,
      "cy": 885,
      "Ġwater": 886,
      "ize": 887,
      "ures": 888,
      "Ġdata": 889,
      "ons": 890,
      "ility": 891,
      "its": 892,
      "20": 893,
      "Ġresult": 894,
      "iet": 895,
      "Ġwhere": 896,
      "rite": 897,
      "resent": 898,
      "ng": 899,
      "struction": 900,
      "oy": 901,
      "ict": 902,
      "nC": 903,
      "ample": 904,
      "old": 905,
      "ween": 906,
      "ution": 907,
      "Ġsur": 908,
      "Ġimport": 909,
      "ower": 910,
      "blem": 911,
      "Ġthen": 912,
      "Ġ6": 913,
      "ited": 914,
      "ĠâĢĵ": 915,
      "Ġcount": 916,
      "uch": 917,
      "Ġcor": 918,
      "ty": 919,
      "Ġinv": 920,
      "wn": 921,
      "Ġset": 922,
      "ov": 923,
      "hat": 924,
      "Ã¼": 925,
      "Ġwell": 926,
      "ife": 927,
      "Ġyears": 928,
      "Ġbetween": 929,
      "ec": 930,
      "fore": 931,
      "Ġplay": 932,
      "Ġhigh": 933,
      "Ġfound": 934,
      "ss": 935,
      "istant": 936,
      "gan": 937,
      "Ġrequ": 938,
      "ps": 939,
      "Ġproblem": 940,
      "Ġinf": 941,
      "ten": 942,
      "Ġcar": 943,
      "Ġty": 944,
      "Ġtrans": 945,
      "Ġgener": 946,
      "Ġpol": 947,
      "ues": 948,
      "Ġfind": 949,
      "10": 950,
      "Ġprocess": 951,
      "def": 952,
      "Ġ\\\"\\\"\\\"": 953,
      "nF": 954,
      "ience": 955,
      "Ġatt": 956,
      "The": 957,
      "cept": 958,
      "gin": 959,
      "Ġinter": 960,
      "**": 961,
      "Ġgiven": 962,
      "Ġ$": 963,
      "ants": 964,
      "akes": 965,
      "Ġ200": 966,
      "uc": 967,
      "nIn": 968,
      "Ġsim": 969,
      "Ġrep": 970,
      "Ġlong": 971,
      "\":\"": 972,
      "imes": 973,
      "ethod": 974,
      "ism": 975,
      "ature": 976,
      "Ġlear": 977,
      "aw": 978,
      "Ġdet": 979,
      "Ġsee": 980,
      "ines": 981,
      "Ġbecause": 982,
      "user": 983,
      "Ġpers": 984,
      "Ġhealth": 985,
      "ident": 986,
      "\\\"\\": 987,
      "apt": 988,
      "formation": 989,
      "Ġcur": 990,
      "Ġusing": 991,
      "Ġprogram": 992,
      "]}": 993,
      "Ġcall": 994,
      "Ġsupp": 995,
      "ts": 996,
      "nB": 997,
      "Ġlook": 998,
      "Ġprint": 999,
      "ĠIf": 1000,
      "Ġback": 1001,
      "Ġjust": 1002,
      "Ġexper": 1003,
      "ural": 1004,
      "Ġear": 1005,
      "chool": 1006,
      "Ġdifferent": 1007,
      "Ġeven": 1008,
      "Ġvar": 1009,
      "19": 1010,
      "Ġafter": 1011,
      "plement": 1012,
      "Ġ{\"": 1013,
      "ern": 1014,
      "You": 1015,
      "Ġ|": 1016,
      "Ġi": 1017,
      "Ġed": 1018,
      "Ġevery": 1019,
      "Ġcre": 1020,
      "ever": 1021,
      "Ġlar": 1022,
      "gy": 1023,
      "mess": 1024,
      "Ġdec": 1025,
      "Ġche": 1026,
      "bers": 1027,
      "ock": 1028,
      "Ġ10": 1029,
      "arm": 1030,
      "Ġmin": 1031,
      "chn": 1032,
      "Ġel": 1033,
      "Ġend": 1034,
      "rain": 1035,
      "ology": 1036,
      "iew": 1037,
      "========": 1038,
      "000": 1039,
      "aking": 1040,
      "der": 1041,
      "other": 1042,
      "Ġwant": 1043,
      "Ġbel": 1044,
      "Ġ<": 1045,
      "Ġext": 1046,
      "Ġcomple": 1047,
      "ices": 1048,
      "ars": 1049,
      "Ġmethod": 1050,
      "Ġ8": 1051,
      "vent": 1052,
      "Ġ18": 1053,
      "Ġway": 1054,
      "Ġstart": 1055,
      "Ġsign": 1056,
      "ists": 1057,
      "pr": 1058,
      ",\\": 1059,
      "Ġrese": 1060,
      "ually": 1061,
      "land": 1062,
      "Ġhim": 1063,
      "ting": 1064,
      "Ġworld": 1065,
      "meric": 1066,
      "Ġchar": 1067,
      "Ġstep": 1068,
      "Ġmed": 1069,
      "Ġmuch": 1070,
      "Ġincre": 1071,
      "inal": 1072,
      "nH": 1073,
      "Ġmade": 1074,
      "Ġsk": 1075,
      "\",\"": 1076,
      "messages": 1077,
      "ĠĠĠĠĠĠĠĠ": 1078,
      "Ġpat": 1079,
      "Ġwhile": 1080,
      "gg": 1081,
      "Ġcle": 1082,
      "ness": 1083,
      "ĠPython": 1084,
      "Ġhand": 1085,
      "Ġhum": 1086,
      "assistant": 1087,
      "Ġread": 1088,
      "Ġcent": 1089,
      "Ġinte": 1090,
      "ases": 1091,
      "mat": 1092,
      "nM": 1093,
      "Ġeffect": 1094,
      "Ġ[{\"": 1095,
      "```": 1096,
      "ivers": 1097,
      "Ġdoes": 1098,
      "ward": 1099,
      "ĠWe": 1100,
      "els": 1101,
      "ork": 1102,
      "Ġdid": 1103,
      "Ġfact": 1104,
      "sw": 1105,
      "Ġinformation": 1106,
      "Ġbeing": 1107,
      "Ġdisc": 1108,
      "Ġgra": 1109,
      "ized": 1110,
      "ÅŁ": 1111,
      "Ġ7": 1112,
      "Ġprovid": 1113,
      "val": 1114,
      "'t": 1115,
      "Ġmy": 1116,
      "Ġmon": 1117,
      "Ġtest": 1118,
      "Ġhapp": 1119,
      "Ġins": 1120,
      "----": 1121,
      "Ġdist": 1122,
      "Ġtask": 1123,
      "led": 1124,
      "Ġbir": 1125,
      "io": 1126,
      "Ġexpl": 1127,
      "iron": 1128,
      "Ġtake": 1129,
      "Ġthose": 1130,
      "Ġfollowing": 1131,
      "Ġent": 1132,
      "Ġgood": 1133,
      "de": 1134,
      "ron": 1135,
      "ody": 1136,
      "Ġsol": 1137,
      "ĠPro": 1138,
      "ĠAmeric": 1139,
      "Ġchildren": 1140,
      "eng": 1141,
      "ĠAn": 1142,
      "ĠResponse": 1143,
      "Ġ201": 1144,
      "ĠInstruction": 1145,
      "read": 1146,
      "Ġshow": 1147,
      "Ġart": 1148,
      "Ġloc": 1149,
      "Ġimportant": 1150,
      "iel": 1151,
      "ix": 1152,
      "cent": 1153,
      "irect": 1154,
      "Ġright": 1155,
      "Ġfam": 1156,
      "Ġ\"###": 1157,
      "Ġdep": 1158,
      ").\\": 1159,
      "Ġpub": 1160,
      "Ġfood": 1161,
      "ins": 1162,
      "Ġsame": 1163,
      "Ġpartic": 1164,
      "ĠRe": 1165,
      "ah": 1166,
      "Ġagain": 1167,
      "Ġbegin": 1168,
      "nL": 1169,
      "ittle": 1170,
      "Ġboth": 1171,
      "ather": 1172,
      "ason": 1173,
      "ĠAl": 1174,
      "ĠHow": 1175,
      "nP": 1176,
      "Ġstudents": 1177,
      "ave": 1178,
      "Ġappro": 1179,
      "Ġinput": 1180,
      "ection": 1181,
      "Ġsmall": 1182,
      "Ġlife": 1183,
      "Ġown": 1184,
      "Ġele": 1185,
      "up": 1186,
      "ĠYou": 1187,
      "Ġsoc": 1188,
      "cul": 1189,
      "Ġdown": 1190,
      ".âĢĿ": 1191,
      "Ġaround": 1192,
      "Ġaut": 1193,
      "Ġduring": 1194,
      "Ġav": 1195,
      "Ġtechn": 1196,
      "nE": 1197,
      "ĠCom": 1198,
      "ale": 1199,
      "ray": 1200,
      "Ġmain": 1201,
      "ving": 1202,
      "Ġve": 1203,
      "my": 1204,
      "Ġcontain": 1205,
      "Ġpoint": 1206,
      "Ġbefore": 1207,
      "Ġperson": 1208,
      "und": 1209,
      "Ġcommun": 1210,
      "air": 1211,
      "ger": 1212,
      "Ġlevel": 1213,
      "Ġstate": 1214,
      "Ġser": 1215,
      "name": 1216,
      "Ġinst": 1217,
      "ute": 1218,
      "Ġimplement": 1219,
      "Ġmat": 1220,
      "ven": 1221,
      "iqu": 1222,
      "ĠAs": 1223,
      "app": 1224,
      "Ġlittle": 1225,
      "Ġpar": 1226,
      "',": 1227,
      "ĠCon": 1228,
      "come": 1229,
      "oh": 1230,
      "Ġgl": 1231,
      "Ġ9": 1232,
      "vern": 1233,
      "any": 1234,
      "Ġlead": 1235,
      "ential": 1236,
      "Ġbo": 1237,
      "Ġgrow": 1238,
      "hip": 1239,
      "day": 1240,
      "viron": 1241,
      "ek": 1242,
      "pect": 1243,
      "Ġschool": 1244,
      "\\\",": 1245,
      "dition": 1246,
      "swer": 1247,
      "Ġref": 1248,
      "Ġbr": 1249,
      "Ġgrou": 1250,
      "Ġquest": 1251,
      "ality": 1252,
      "ared": 1253,
      "ci": 1254,
      "ull": 1255,
      "ĠFor": 1256,
      "riend": 1257,
      "way": 1258,
      "Ġthree": 1259,
      "Ġcal": 1260,
      "ished": 1261,
      "Ġpass": 1262,
      "ined": 1263,
      "stand": 1264,
      "Ġstudy": 1265,
      "Ġx": 1266,
      "tt": 1267,
      "ĠBut": 1268,
      "ves": 1269,
      "Ġless": 1270,
      "Ġpop": 1271,
      "ince": 1272,
      ">>": 1273,
      "Ġnow": 1274,
      "gen": 1275,
      "ergy": 1276,
      "Ġsom": 1277,
      "his": 1278,
      "Ġstory": 1279,
      "Ġop": 1280,
      "tal": 1281,
      "ouse": 1282,
      "ption": 1283,
      "Ġdi": 1284,
      "ivid": 1285,
      "Ġexample": 1286,
      "ified": 1287,
      "nD": 1288,
      "ĠAr": 1289,
      ".,": 1290,
      "Ã§": 1291,
      "Ġocc": 1292,
      "Ġcare": 1293,
      "ives": 1294,
      "Ġrange": 1295,
      "ier": 1296,
      "num": 1297,
      "Ġposs": 1298,
      "Ġvis": 1299,
      "ource": 1300,
      "rest": 1301,
      "Ġname": 1302,
      "Ġcode": 1303,
      "Ġhist": 1304,
      "au": 1305,
      "Ġcell": 1306,
      "Ġtext": 1307,
      "ke": 1308,
      "acter": 1309,
      "Ġthough": 1310,
      "rol": 1311,
      "Ġconf": 1312,
      "Ġprot": 1313,
      "Ġmom": 1314,
      "Ġstring": 1315,
      "Ġplan": 1316,
      "12": 1317,
      "Ġmem": 1318,
      "Ġtreat": 1319,
      "alk": 1320,
      "omen": 1321,
      "50": 1322,
      "Ġactiv": 1323,
      "ets": 1324,
      "vironment": 1325,
      "Ġlo": 1326,
      "gs": 1327,
      "sc": 1328,
      "iversity": 1329,
      "Ġoften": 1330,
      "Ġorgan": 1331,
      "Ġbig": 1332,
      "Ġmust": 1333,
      "Ġfriend": 1334,
      "Ġequ": 1335,
      "ank": 1336,
      "ately": 1337,
      "anc": 1338,
      "Ġmet": 1339,
      "Ġ{": 1340,
      "Ġcommon": 1341,
      "ify": 1342,
      "ash": 1343,
      "Ġgreat": 1344,
      "Ġsupport": 1345,
      "Ġbody": 1346,
      "Ġpower": 1347,
      "Ġbook": 1348,
      "fect": 1349,
      "Ġcalled": 1350,
      "Ġthink": 1351,
      "ĠSe": 1352,
      "rect": 1353,
      "ired": 1354,
      "ral": 1355,
      "ĠInd": 1356,
      "Ġdesign": 1357,
      "uss": 1358,
      "Ġtem": 1359,
      "Ġgre": 1360,
      "Ġdise": 1361,
      "Ġtoo": 1362,
      "Ġ==": 1363,
      "ruct": 1364,
      "Ġrun": 1365,
      "Ġfile": 1366,
      "Ġest": 1367,
      "Ġris": 1368,
      "ĠNew": 1369,
      "oun": 1370,
      "az": 1371,
      "ital": 1372,
      "Ġhuman": 1373,
      "ner": 1374,
      "ross": 1375,
      "ted": 1376,
      "to": 1377,
      "par": 1378,
      ">\\": 1379,
      "rence": 1380,
      "Ġresearch": 1381,
      "Ġcurrent": 1382,
      "cond": 1383,
      "ids": 1384,
      "Ġcontin": 1385,
      "Ġallow": 1386,
      "ury": 1387,
      "mon": 1388,
      "ional": 1389,
      "ulation": 1390,
      "iety": 1391,
      "Ġredu": 1392,
      "rue": 1393,
      "Ġhome": 1394,
      "itions": 1395,
      "Ġbuild": 1396,
      "list": 1397,
      "Ġold": 1398,
      "||": 1399,
      "\\\"\\\"\\": 1400,
      "Ġstill": 1401,
      "Ġsum": 1402,
      "ÄŁ": 1403,
      "aj": 1404,
      "Ġbeh": 1405,
      "Ġpos": 1406,
      "the": 1407,
      "Ġnam": 1408,
      "man": 1409,
      "Ġvalue": 1410,
      "ĠAnd": 1411,
      "Ġwithin": 1412,
      "arr": 1413,
      "Ġland": 1414,
      "Ġtotal": 1415,
      "ien": 1416,
      "pro": 1417,
      "ON": 1418,
      "hers": 1419,
      "ctions": 1420,
      "Ġcapt": 1421,
      "ries": 1422,
      "Ġlog": 1423,
      "me": 1424,
      "26": 1425,
      "Ġoper": 1426,
      "ization": 1427,
      "ield": 1428,
      "Ġwrit": 1429,
      "Ġincluding": 1430,
      "Ġreport": 1431,
      "Ġdon": 1432,
      "Ġplace": 1433,
      "ĠThere": 1434,
      "Ġide": 1435,
      "Ġgu": 1436,
      ".\\\"\\\"\\\"\\": 1437,
      "Ġlearn": 1438,
      "ways": 1439,
      "Ġdirect": 1440,
      "Ġunderstand": 1441,
      "sy": 1442,
      "Ġserv": 1443,
      "):": 1444,
      "Ġelect": 1445,
      "Ġkey": 1446,
      "ĠLily": 1447,
      "ffic": 1448,
      "orn": 1449,
      "Ġbeginning": 1450,
      "ider": 1451,
      "Ġperfect": 1452,
      "Ġgovern": 1453,
      "ense": 1454,
      "Ġbased": 1455,
      "ĠEx": 1456,
      "Ġpresent": 1457,
      "(\\\"": 1458,
      "âĢĶ": 1459,
      "Ġreason": 1460,
      "Ġask": 1461,
      "ĠAd": 1462,
      "ples": 1463,
      "Ġcour": 1464,
      "ator": 1465,
      "Ġtyp": 1466,
      "Ġmus": 1467,
      "Ġenergy": 1468,
      "Ġbest": 1469,
      "lu": 1470,
      "arent": 1471,
      "Ġperform": 1472,
      "word": 1473,
      "Ġproduct": 1474,
      "lo": 1475,
      "Ġobject": 1476,
      "itive": 1477,
      "\"},": 1478,
      "Ġdesc": 1479,
      "Ġproject": 1480,
      "Ġscient": 1481,
      "ially": 1482,
      "ination": 1483,
      "Ġwithout": 1484,
      "ĠDe": 1485,
      "Ġanswer": 1486,
      "here": 1487,
      "raph": 1488,
      "Ġanim": 1489,
      "Ġstand": 1490,
      "nR": 1491,
      "oci": 1492,
      "ording": 1493,
      "Ġpract": 1494,
      "ĠWh": 1495,
      "ividual": 1496,
      "Ġrepresent": 1497,
      "Ġprof": 1498,
      "Ġterm": 1499,
      "Ġchang": 1500,
      "aterial": 1501,
      "Ġmight": 1502,
      "Ġfew": 1503,
      "Ġcreat": 1504,
      "nN": 1505,
      "Ġbre": 1506,
      "Ġadv": 1507,
      "Ġopen": 1508,
      "Ġspe": 1509,
      "ats": 1510,
      "Ġenvironment": 1511,
      "Ġident": 1512,
      "angu": 1513,
      "outh": 1514,
      ",âĢĿ": 1515,
      "Ġclear": 1516,
      "Ġtakes": 1517,
      "iction": 1518,
      "Ġ12": 1519,
      "atch": 1520,
      "Ġhere": 1521,
      ",\\\"": 1522,
      "line": 1523,
      "Ġfre": 1524,
      "osed": 1525,
      "Ġeduc": 1526,
      "Ġeas": 1527,
      "Ġorder": 1528,
      "ium": 1529,
      "ior": 1530,
      "Ġpur": 1531,
      "Ġknown": 1532,
      "nWrite": 1533,
      "Ġpublic": 1534,
      "conom": 1535,
      "ipp": 1536,
      "ĠSc": 1537,
      "Ġpres": 1538,
      "Ġupon": 1539,
      "Ġchange": 1540,
      "Ġelse": 1541,
      "oms": 1542,
      "iles": 1543,
      "ond": 1544,
      "Ġlarge": 1545,
      "Ġarea": 1546,
      "lish": 1547,
      "nce": 1548,
      "tain": 1549,
      "ources": 1550,
      "//": 1551,
      "ining": 1552,
      "Ġlight": 1553,
      "Ġpot": 1554,
      "ER": 1555,
      "err": 1556,
      "Ġanother": 1557,
      "Ġ&": 1558,
      "be": 1559,
      "Ġz": 1560,
      "ively": 1561,
      "Ġcost": 1562,
      "ertain": 1563,
      "uro": 1564,
      "bs": 1565,
      "Ġsays": 1566,
      "Ġtype": 1567,
      "Ġthings": 1568,
      "Ġben": 1569,
      "Ġcap": 1570,
      "Ġsl": 1571,
      "ĠâĢĺ": 1572,
      "Ġcaus": 1573,
      "Ġ*": 1574,
      "ething": 1575,
      "Ġput": 1576,
      "ĠIs": 1577,
      "ton": 1578,
      "ories": 1579,
      "Ġpain": 1580,
      "ug": 1581,
      "ccess": 1582,
      "Ġlast": 1583,
      "cer": 1584,
      "Ġair": 1585,
      ".\\\"\\": 1586,
      "Ġgram": 1587,
      "âĢľ": 1588,
      "Ġspecific": 1589,
      "Ġinclude": 1590,
      "oint": 1591,
      "Ġsym": 1592,
      "py": 1593,
      "Ġindividual": 1594,
      "iod": 1595,
      "ration": 1596,
      "Ġiss": 1597,
      "âĢĵ": 1598,
      "Ġhy": 1599,
      "Ġbetter": 1600,
      "Ġwords": 1601,
      "ĠThese": 1602,
      "Ġet": 1603,
      "Ġfin": 1604,
      "()\\": 1605,
      "atus": 1606,
      "18": 1607,
      "Ġrest": 1608,
      "Ġmax": 1609,
      "ĠEng": 1610,
      "Ġsaw": 1611,
      "nThis": 1612,
      "Ġmodel": 1613,
      "hor": 1614,
      "Ġmean": 1615,
      "Ġanal": 1616,
      "ived": 1617,
      "ability": 1618,
      "Ġkeep": 1619,
      "Ġimpro": 1620,
      "15": 1621,
      "Ġnumbers": 1622,
      "Ġproper": 1623,
      "Ġfeel": 1624,
      "Ġphys": 1625,
      "Ġmaterial": 1626,
      "ected": 1627,
      "Ġlow": 1628,
      "ĠAt": 1629,
      "by": 1630,
      "na": 1631,
      "erc": 1632,
      "Ġcorrect": 1633,
      "less": 1634,
      "min": 1635,
      "amp": 1636,
      "Ġmove": 1637,
      "ision": 1638,
      "Ġtri": 1639,
      "Ġsay": 1640,
      "ental": 1641,
      "Ġsent": 1642,
      "Ġtop": 1643,
      "Ġdev": 1644,
      "Ġreal": 1645,
      "Ġinc": 1646,
      "Ġsomething": 1647,
      "Ġmult": 1648,
      "Ġoccur": 1649,
      "Ġ15": 1650,
      "eral": 1651,
      "Ġdevelopment": 1652,
      "16": 1653,
      "Ġmeas": 1654,
      "Ġword": 1655,
      "Ġtre": 1656,
      "Ġcreate": 1657,
      "med": 1658,
      "view": 1659,
      "agn": 1660,
      "stit": 1661,
      "ĠâĢĶ": 1662,
      "irl": 1663,
      "ware": 1664,
      "Ġinterest": 1665,
      "ĠSh": 1666,
      "Ġsecond": 1667,
      "Ġstruct": 1668,
      "Ġpri": 1669,
      "ailable": 1670,
      "Ġfamily": 1671,
      "Ġtoget": 1672,
      "Ġtogether": 1673,
      "ĠOne": 1674,
      "iness": 1675,
      "ole": 1676,
      "Ġprovide": 1677,
      "Ġmark": 1678,
      "Ġwomen": 1679,
      "cle": 1680,
      "ox": 1681,
      "ians": 1682,
      "Ġgr": 1683,
      "ems": 1684,
      "ĠUniversity": 1685,
      "Ġhead": 1686,
      "Ġ199": 1687,
      "Ġdisease": 1688,
      "arc": 1689,
      "ological": 1690,
      "ĠWhen": 1691,
      "ead": 1692,
      "Ġfore": 1693,
      "atural": 1694,
      "âĶ": 1695,
      "Ġrespon": 1696,
      "Ġorig": 1697,
      "ĠAmerican": 1698,
      "orth": 1699,
      "Ġunt": 1700,
      "illion": 1701,
      "Ġable": 1702,
      "Ġeng": 1703,
      "ajor": 1704,
      "ots": 1705,
      "Ġamount": 1706,
      "Ġcontrol": 1707,
      "imate": 1708,
      "Ġtimes": 1709,
      "icle": 1710,
      "ument": 1711,
      "Ġsocial": 1712,
      "Ġremain": 1713,
      "Ġaway": 1714,
      "Ġgroup": 1715,
      "ards": 1716,
      "ised": 1717,
      "\\\"\\\"\\\"\\": 1718,
      "Ġblood": 1719,
      "ane": 1720,
      "Ġline": 1721,
      "ission": 1722,
      ".\"}]}": 1723,
      "Ġsit": 1724,
      "Ġpossible": 1725,
      "lished": 1726,
      "Ġbas": 1727,
      "Ġdel": 1728,
      "Ġturn": 1729,
      "Ġcho": 1730,
      "ills": 1731,
      "ently": 1732,
      "Ġant": 1733,
      "comm": 1734,
      "of": 1735,
      "Ġmeans": 1736,
      "':": 1737,
      "Ġalways": 1738,
      "```\\": 1739,
      "Ġquestion": 1740,
      "Ġhappy": 1741,
      "ns": 1742,
      "================": 1743,
      "Ġbecome": 1744,
      "Ġrisk": 1745,
      "ote": 1746,
      "Ġes": 1747,
      "ering": 1748,
      "Ġnon": 1749,
      "utes": 1750,
      "Ġopp": 1751,
      "Ġbro": 1752,
      "30": 1753,
      "Ġcult": 1754,
      "ler": 1755,
      ".\"},": 1756,
      "Ġlearning": 1757,
      "ĠHowever": 1758,
      "Ġmar": 1759,
      "iver": 1760,
      "ĠSp": 1761,
      "Ġsever": 1762,
      "ptions": 1763,
      "ength": 1764,
      "ieve": 1765,
      "Ġhig": 1766,
      "\"}]}": 1767,
      "string": 1768,
      "Ġlangu": 1769,
      "Ġaddition": 1770,
      "Ġconn": 1771,
      "eter": 1772,
      "Ġcase": 1773,
      "Ġlaw": 1774,
      "Ġflow": 1775,
      "Ġtry": 1776,
      "Ġinvol": 1777,
      "Ġnear": 1778,
      "ides": 1779,
      "ients": 1780,
      "))\\": 1781,
      "ES": 1782,
      "ours": 1783,
      "Ġbus": 1784,
      "iving": 1785,
      "Ġagainst": 1786,
      "nY": 1787,
      "Ġprovided": 1788,
      "Ġcalcul": 1789,
      "('": 1790,
      "ike": 1791,
      "ĠPh": 1792,
      "rist": 1793,
      "Ġsw": 1794,
      "ending": 1795,
      "ivating": 1796,
      "ression": 1797,
      "rop": 1798,
      "Ġgrammat": 1799,
      "lam": 1800,
      "Ġage": 1801,
      "Ġearly": 1802,
      "ered": 1803,
      "atic": 1804,
      "Ġavailable": 1805,
      "aut": 1806,
      "Ġparticular": 1807,
      "ma": 1808,
      "Ġcause": 1809,
      "Ġlim": 1810,
      "raw": 1811,
      "Ġgovernment": 1812,
      "att": 1813,
      "Ġeconom": 1814,
      "Ġlab": 1815,
      "Ġcome": 1816,
      "Ġapplic": 1817,
      "Ġnext": 1818,
      "idd": 1819,
      "...": 1820,
      "Ġleft": 1821,
      "rodu": 1822,
      "Ġhistory": 1823,
      "Ġcomplete": 1824,
      "ape": 1825,
      "ling": 1826,
      "Ġgrammatically": 1827,
      "work": 1828,
      "ique": 1829,
      "oid": 1830,
      "Ġdiff": 1831,
      "!\\": 1832,
      "Ġuntil": 1833,
      "Ġcomput": 1834,
      "ĠCl": 1835,
      "Ġmonth": 1836,
      "Ġcaptivating": 1837,
      "ww": 1838,
      "Ġ<<": 1839,
      "Ġresponse": 1840,
      "think": 1841,
      "Ġtool": 1842,
      "Ġplant": 1843,
      "Ġspecial": 1844,
      "br": 1845,
      "Ġmajor": 1846,
      "Ġwar": 1847,
      "Ġ16": 1848,
      "ograph": 1849,
      "Ġhard": 1850,
      "side": 1851,
      "not": 1852,
      "Ġview": 1853,
      "ĠQ": 1854,
      "data": 1855,
      "ĠPl": 1856,
      ".âĢĿ\\": 1857,
      "Ġperiod": 1858,
      "Ġpercent": 1859,
      "Ġfour": 1860,
      "Ġaccess": 1861,
      "40": 1862,
      "Ġseveral": 1863,
      "aper": 1864,
      "11": 1865,
      "ogn": 1866,
      "Ġsing": 1867,
      "Ġspecies": 1868,
      "Ġmen": 1869,
      "Ġbi": 1870,
      "Ġgirl": 1871,
      "Ġwent": 1872,
      "ĠZ": 1873,
      "ilar": 1874,
      "ploy": 1875,
      "ended": 1876,
      "ocus": 1877,
      "Ġsuccess": 1878,
      "ina": 1879,
      "ĠUnited": 1880,
      "Ġothers": 1881,
      "pos": 1882,
      "Ġmaking": 1883,
      "ances": 1884,
      "Ġrece": 1885,
      "ĠWhat": 1886,
      "ĠCol": 1887,
      "Ġindu": 1888,
      "Ġcharacter": 1889,
      "Ġdays": 1890,
      "plic": 1891,
      "Ġsince": 1892,
      "lar": 1893,
      "Ġuser": 1894,
      "Ġsn": 1895,
      "Ġess": 1896,
      "Ġ17": 1897,
      "ule": 1898,
      "Ġbenef": 1899,
      "idence": 1900,
      "nAn": 1901,
      "Ġpath": 1902,
      "Ġenc": 1903,
      "Ġcertain": 1904,
      "aces": 1905,
      "arget": 1906,
      "Ġcond": 1907,
      "co": 1908,
      "Ġpost": 1909,
      "Ġaffect": 1910,
      "\\\":": 1911,
      "Ġsignific": 1912,
      "08": 1913,
      "cing": 1914,
      "Ġdeterm": 1915,
      "ee": 1916,
      "Ġdog": 1917,
      "osp": 1918,
      "Ġ/": 1919,
      "Ġleg": 1920,
      "Ġ->": 1921,
      "ĠĠĠĠĠĠĠĠĠĠĠĠĠĠĠ": 1922,
      "Ã¶": 1923,
      "Ġlet": 1924,
      "Ġcomb": 1925,
      "Ġprom": 1926,
      "Ġarr": 1927,
      "ĠTo": 1928,
      "orld": 1929,
      "though": 1930,
      "Ġamong": 1931,
      "Ġwanted": 1932,
      "ither": 1933,
      "ĠGod": 1934,
      "--------": 1935,
      "Ġareas": 1936,
      "sel": 1937,
      "for": 1938,
      "aps": 1939,
      "ohn": 1940,
      "Ġassoci": 1941,
      "Ġrequire": 1942,
      "Ġexam": 1943,
      "ĠSo": 1944,
      "Ġcir": 1945,
      "aster": 1946,
      "Ġcr": 1947,
      "Ġcountry": 1948,
      "nIf": 1949,
      "Ġvol": 1950,
      "|\\": 1951,
      "Ġlocal": 1952,
      "Ġmess": 1953,
      "Ġhouse": 1954,
      "ged": 1955,
      "Ġfriends": 1956,
      "ones": 1957,
      "Ġdri": 1958,
      "ele": 1959,
      "verage": 1960,
      "Ġcells": 1961,
      "Ġsun": 1962,
      "olution": 1963,
      "Ġtreatment": 1964,
      "Ġshort": 1965,
      "Ġloss": 1966,
      "urther": 1967,
      "ency": 1968,
      "ateg": 1969,
      "alse": 1970,
      "face": 1971,
      "Ġfil": 1972,
      "Ġexc": 1973,
      "Ġnamed": 1974,
      "Ġnever": 1975,
      "Ġneeds": 1976,
      "une": 1977,
      "Ġprevent": 1978,
      "Ġnatural": 1979,
      "Ġresults": 1980,
      "âĶģ": 1981,
      "ured": 1982,
      "Ġscience": 1983,
      "Ġinit": 1984,
      "Ġbehav": 1985,
      "lease": 1986,
      "Ġfocus": 1987,
      "Ġ30": 1988,
      "Ġpress": 1989,
      "ĠStates": 1990,
      "oney": 1991,
      "SA": 1992,
      "ably": 1993,
      "Ġnecess": 1994,
      "reate": 1995,
      "ored": 1996,
      "path": 1997,
      "://": 1998,
      "init": 1999,
      "Ġgive": 2000,
      "Ġexist": 2001,
      "ames": 2002,
      "ĠBe": 2003,
      "cur": 2004,
      "Ġkind": 2005,
      "ĠCan": 2006,
      "Ä±n": 2007,
      "Ġparent": 2008,
      "âĶģâĶģ": 2009,
      "ggest": 2010,
      "Ġfree": 2011,
      "Ġver": 2012,
      "ery": 2013,
      "Ġyoung": 2014,
      "Ġ__": 2015,
      "ym": 2016,
      "Ġabove": 2017,
      "Ġrad": 2018,
      "ĠTim": 2019,
      "Ġdescrib": 2020,
      "25": 2021,
      "Ġintern": 2022,
      "Ġcheck": 2023,
      "nYour": 2024,
      "Ġconsider": 2025,
      "nG": 2026,
      "Ġey": 2027,
      "ere": 2028,
      "Ġspace": 2029,
      "ott": 2030,
      "elt": 2031,
      "Ġworking": 2032,
      "iter": 2033,
      "Ġalong": 2034,
      "por": 2035,
      "Ġproblems": 2036,
      "Ġlanguage": 2037,
      "Ġlevels": 2038,
      "ĠĠĠĠĠ": 2039,
      "ĠYour": 2040,
      "14": 2041,
      "Ġdr": 2042,
      "],": 2043,
      "Ġfar": 2044,
      "ript": 2045,
      "ume": 2046,
      "Ġobs": 2047,
      "Ġ.": 2048,
      "icult": 2049,
      "\\\")\\": 2050,
      "Ġlater": 2051,
      "Ġheart": 2052,
      "ream": 2053,
      "28": 2054,
      "Ġcame": 2055,
      "sh": 2056,
      "Ġdue": 2057,
      "13": 2058,
      "Ġappear": 2059,
      "Ġpotential": 2060,
      "ĠEn": 2061,
      "Ġconc": 2062,
      "ification": 2063,
      "Ġcontent": 2064,
      "urope": 2065,
      "Ġaccount": 2066,
      "vious": 2067,
      "Ġimpact": 2068,
      "agement": 2069,
      "Ġbrain": 2070,
      "ledge": 2071,
      "uture": 2072,
      "Ġteac": 2073,
      "etic": 2074,
      "Ġtoday": 2075,
      "Ġtemper": 2076,
      "icro": 2077,
      "Ġsignificant": 2078,
      "ĠOr": 2079,
      "Ġlikely": 2080,
      "Ġthought": 2081,
      "aken": 2082,
      "17": 2083,
      "alf": 2084,
      "Ġsuggest": 2085,
      "duct": 2086,
      "ibr": 2087,
      "Ġcourse": 2088,
      "Ġrecord": 2089,
      "Ġfac": 2090,
      "ĠOn": 2091,
      "ĠAll": 2092,
      "python": 2093,
      "augh": 2094,
      "Ġside": 2095,
      "ĠCent": 2096,
      "use": 2097,
      "ĠChrist": 2098,
      "ortun": 2099,
      "li": 2100,
      "Ġprofess": 2101,
      "Ġarg": 2102,
      "Ġmulti": 2103,
      "ĠLe": 2104,
      "Ġsort": 2105,
      "Ġcolle": 2106,
      "Ġwhy": 2107,
      "Ġgoing": 2108,
      "ĠBen": 2109,
      "Ġcrit": 2110,
      "Ġ100": 2111,
      "hy": 2112,
      "nYou": 2113,
      "Ġwind": 2114,
      "ird": 2115,
      "Ġstrong": 2116,
      "200": 2117,
      "file": 2118,
      "Ġauthor": 2119,
      "Ġens": 2120,
      "Ġindust": 2121,
      "Ġvir": 2122,
      "Ġcommand": 2123,
      "Ġcases": 2124,
      "ĠTe": 2125,
      "Ġvari": 2126,
      "ables": 2127,
      "aves": 2128,
      "asing": 2129,
      "Ġinvest": 2130,
      "ember": 2131,
      "ĠNational": 2132,
      "Ġasked": 2133,
      "Ġconditions": 2134,
      "Ġindic": 2135,
      "Ġvalues": 2136,
      "Ġincrease": 2137,
      "ret": 2138,
      "Ġfull": 2139,
      "Ġchanges": 2140,
      "Ġnet": 2141,
      "Ġdig": 2142,
      "ĠAf": 2143,
      "ann": 2144,
      "Ġpred": 2145,
      "Ġvarious": 2146,
      "Ġlen": 2147,
      "Ġtook": 2148,
      "ĠIm": 2149,
      "nFor": 2150,
      "Ġwhether": 2151,
      "Ġpolit": 2152,
      "iting": 2153,
      "Ġsimilar": 2154,
      "oot": 2155,
      "over": 2156,
      "ms": 2157,
      "nal": 2158,
      "type": 2159,
      "ush": 2160,
      "Ġworks": 2161,
      "ilit": 2162,
      "Ġsystems": 2163,
      "ĠEurope": 2164,
      "dom": 2165,
      "nOnce": 2166,
      "Ġleast": 2167,
      "Ġexperience": 2168,
      "Ġpopulation": 2169,
      "atures": 2170,
      "Ġdem": 2171,
      "Ġseen": 2172,
      "new": 2173,
      "struct": 2174,
      "son": 2175,
      "Ġprin": 2176,
      "Ġacross": 2177,
      "IN": 2178,
      "Ġcommunity": 2179,
      "pecially": 2180,
      "Ġestab": 2181,
      "Ġeducation": 2182,
      "ators": 2183,
      "ictionary": 2184,
      "yn": 2185,
      "ilt": 2186,
      "Ġground": 2187,
      "add": 2188,
      "most": 2189,
      "obal": 2190,
      "ĠEar": 2191,
      "nIt": 2192,
      "Ġrespons": 2193,
      "60": 2194,
      "ĠFr": 2195,
      "Ġdiscuss": 2196,
      "()": 2197,
      "ST": 2198,
      "len": 2199,
      "</": 2200,
      "Ġusually": 2201,
      "Ġpast": 2202,
      "Ġsize": 2203,
      "Ġimm": 2204,
      "ready": 2205,
      "Ġhaving": 2206,
      "Ġdifficult": 2207,
      "Ġoutput": 2208,
      "Ġhigher": 2209,
      "Ġfrequ": 2210,
      "Ġscientific": 2211,
      "Ġtechnology": 2212,
      "rand": 2213,
      "Ġdetail": 2214,
      "ley": 2215,
      "Ġplants": 2216,
      "Ġred": 2217,
      "ences": 2218,
      "Ġtree": 2219,
      "Ġmakes": 2220,
      "Ġsal": 2221,
      "Ġenough": 2222,
      "Ġstarted": 2223,
      "ope": 2224,
      "Ġarray": 2225,
      "Ġ**": 2226,
      "Ġtypes": 2227,
      "ysis": 2228,
      "Ġtarget": 2229,
      "acy": 2230,
      "oring": 2231,
      "ĠComm": 2232,
      "aring": 2233,
      "Ġmethods": 2234,
      "Ġmot": 2235,
      "nWhat": 2236,
      "Ġdeath": 2237,
      "place": 2238,
      "Ġweek": 2239,
      "Ġtoward": 2240,
      "Ġnorm": 2241,
      "Ġsure": 2242,
      "ires": 2243,
      "Ġlot": 2244,
      "37": 2245,
      "Ġlower": 2246,
      "Ġfuture": 2247,
      "af": 2248,
      "Ġanimals": 2249,
      "ilities": 2250,
      "Ġcancer": 2251,
      "erate": 2252,
      "ero": 2253,
      "ison": 2254,
      "Ġmillion": 2255,
      "Ġfield": 2256,
      "ference": 2257,
      "Ġ14": 2258,
      "Ġill": 2259,
      "ĠMed": 2260,
      "Ġcentury": 2261,
      "Ġimprove": 2262,
      "Ġsingle": 2263,
      "Ġalready": 2264,
      "Ġhours": 2265,
      "set": 2266,
      "Ġchem": 2267,
      "ĠWorld": 2268,
      "Ġbecame": 2269,
      "ump": 2270,
      "ights": 2271,
      "oman": 2272,
      "Ġreturns": 2273,
      "Ġteam": 2274,
      "Ġexplain": 2275,
      "ges": 2276,
      "Ġ\\\\": 2277,
      "imum": 2278,
      "index": 2279,
      "ptoms": 2280,
      "ustom": 2281,
      "let": 2282,
      "Ġaccording": 2283,
      "Ġdone": 2284,
      "Ġelements": 2285,
      "Ġdam": 2286,
      "nThere": 2287,
      "selves": 2288,
      "uation": 2289,
      "rad": 2290,
      "Ġur": 2291,
      "In": 2292,
      "Ġcy": 2293,
      "Ġach": 2294,
      "Ġlay": 2295,
      "AN": 2296,
      "Ġprim": 2297,
      "Ġreally": 2298,
      "Ġpay": 2299,
      "Ġways": 2300,
      "ued": 2301,
      "Ġgeneral": 2302,
      "Ġquick": 2303,
      "Ġvers": 2304,
      "eds": 2305,
      "Ġinteg": 2306,
      "atory": 2307,
      "ief": 2308,
      "}\\": 2309,
      "eters": 2310,
      "Ġcountries": 2311,
      "rans": 2312,
      "Ġhowever": 2313,
      "####": 2314,
      "reen": 2315,
      "ĠBl": 2316,
      "ĠBrit": 2317,
      "Ġbusiness": 2318,
      "inary": 2319,
      "ĠCal": 2320,
      "Ġespecially": 2321,
      "aching": 2322,
      "Ġclean": 2323,
      "Ġparam": 2324,
      "Ġimage": 2325,
      "Ġ>": 2326,
      "Ġdat": 2327,
      "oon": 2328,
      "Ġeither": 2329,
      "Ġsens": 2330,
      "ĠNe": 2331,
      "65": 2332,
      "Ġevent": 2333,
      "istic": 2334,
      "Ġstructure": 2335,
      "leep": 2336,
      "rel": 2337,
      "Ġaddress": 2338,
      "step": 2339,
      "Ġcity": 2340,
      "iled": 2341,
      "ĠGen": 2342,
      "Ġcomplex": 2343,
      "ring": 2344,
      "fficient": 2345,
      "utions": 2346,
      "Ġwalk": 2347,
      "Ġerr": 2348,
      "Ġabs": 2349,
      "Ġpaper": 2350,
      "Ġdoc": 2351,
      "ae": 2352,
      "ĠAfric": 2353,
      "Ġsoft": 2354,
      "Ġ50": 2355,
      "ication": 2356,
      "Ġ25": 2357,
      "Ġsimple": 2358,
      "Ġsubject": 2359,
      "Ġfund": 2360,
      "gest": 2361,
      "aim": 2362,
      "hern": 2363,
      "ounds": 2364,
      "ried": 2365,
      "Ġneg": 2366,
      "24": 2367,
      "ided": 2368,
      "print": 2369,
      "Ġmind": 2370,
      "alls": 2371,
      "Ġrelations": 2372,
      "Ġrole": 2373,
      "Ġsource": 2374,
      "eb": 2375,
      "Ġreasoning": 2376,
      "ĠSome": 2377,
      "nJ": 2378,
      "Ġsqu": 2379,
      "Ġeffects": 2380,
      "Ġgot": 2381,
      "Ġrate": 2382,
      "Ġconsum": 2383,
      "Ġwon": 2384,
      "Ġresearc": 2385,
      "Ġfish": 2386,
      "sequ": 2387,
      "ites": 2388,
      "Ġnut": 2389,
      "etimes": 2390,
      "Ġcolor": 2391,
      "Ġknowledge": 2392,
      "Ġphysical": 2393,
      "mod": 2394,
      "play": 2395,
      "ĠThat": 2396,
      "Ġlength": 2397,
      "ores": 2398,
      "Ġbelow": 2399,
      "CT": 2400,
      "ding": 2401,
      "Ġfurther": 2402,
      "Ġnecessary": 2403,
      "100": 2404,
      "ising": 2405,
      "Ġprotect": 2406,
      "Ġpatients": 2407,
      "'re": 2408,
      "Ġmeet": 2409,
      "NA": 2410,
      "Ġtell": 2411,
      "Ġoutside": 2412,
      "ĠEnglish": 2413,
      "Ġrequired": 2414,
      "Ġemploy": 2415,
      "Ġmath": 2416,
      "Ġneeded": 2417,
      ";\\": 2418,
      "reg": 2419,
      "ĠGo": 2420,
      "bon": 2421,
      "Ġapproach": 2422,
      "append": 2423,
      "Ġmoney": 2424,
      "ĠWar": 2425,
      "Ġcreating": 2426,
      "ĠX": 2427,
      "Ġtasked": 2428,
      "ey": 2429,
      "go": 2430,
      "fully": 2431,
      "80": 2432,
      "Ġstudies": 2433,
      "Ġquestions": 2434,
      "ĠGerm": 2435,
      "ĠJohn": 2436,
      "ĠWith": 2437,
      "Ġonce": 2438,
      "Ġprob": 2439,
      "Ġ13": 2440,
      "ĠUS": 2441,
      "Ġinflu": 2442,
      "Ġchall": 2443,
      "ging": 2444,
      "Ġgroups": 2445,
      "Ġpie": 2446,
      "icy": 2447,
      "Ġdictionary": 2448,
      "verse": 2449,
      "ches": 2450,
      "__(": 2451,
      "Ġrequest": 2452,
      "olve": 2453,
      "Ġeat": 2454,
      "Ġla": 2455,
      "uments": 2456,
      "ened": 2457,
      "Ġidea": 2458,
      "ĠTom": 2459,
      "illed": 2460,
      "ny": 2461,
      "overed": 2462,
      "Ġproducts": 2463,
      "ĠAss": 2464,
      "ibility": 2465,
      "ĠDo": 2466,
      "Ġmor": 2467,
      "ĠHis": 2468,
      "Ġessential": 2469,
      "Ġpattern": 2470,
      "Ġresources": 2471,
      "Ġcut": 2472,
      "ĠCar": 2473,
      "Ġwhite": 2474,
      "Ġbuilding": 2475,
      "Ġaccur": 2476,
      "Ġassociated": 2477,
      "Ġmov": 2478,
      "Ġconst": 2479,
      "49": 2480,
      "ched": 2481,
      "ze": 2482,
      "iol": 2483,
      "Ġsymptoms": 2484,
      "earch": 2485,
      "Ġport": 2486,
      "Ġarticle": 2487,
      "acc": 2488,
      "Ġdest": 2489,
      "osis": 2490,
      "`:": 2491,
      "heck": 2492,
      "Ġdeg": 2493,
      "AT": 2494,
      "ont": 2495,
      "Ġ+=": 2496,
      "Ġrele": 2497,
      "fer": 2498,
      "Ġstudent": 2499,
      "Ġactivity": 2500,
      "ules": 2501,
      "Ġmass": 2502,
      "enc": 2503,
      "Ġproduction": 2504,
      "Ġhalf": 2505,
      "Ġdom": 2506,
      "rown": 2507,
      "Ġparticip": 2508,
      "Ġeff": 2509,
      "ctor": 2510,
      "Ġcat": 2511,
      "Ġphot": 2512,
      "Ġcannot": 2513,
      "Ġactivities": 2514,
      "Ġaverage": 2515,
      "Ġbreak": 2516,
      "Ġfive": 2517,
      "Ġrecogn": 2518,
      "Ġblack": 2519,
      "!\\\"": 2520,
      "urch": 2521,
      "Ġgrowth": 2522,
      "time": 2523,
      "Ġge": 2524,
      "pped": 2525,
      "rences": 2526,
      "ung": 2527,
      "Ġfelt": 2528,
      "action": 2529,
      "Ġlive": 2530,
      "roll": 2531,
      "den": 2532,
      "Ġliving": 2533,
      "22": 2534,
      "Ġflo": 2535,
      "ends": 2536,
      "Ġfru": 2537,
      "Ġfail": 2538,
      "Ġcontrib": 2539,
      "Ġcreated": 2540,
      "Ġweight": 2541,
      "Ġrather": 2542,
      "oura": 2543,
      "Ġwhole": 2544,
      "Ġquality": 2545,
      "ips": 2546,
      "ĠMar": 2547,
      "Ġcontains": 2548,
      "medi": 2549,
      "nHow": 2550,
      "Ġsite": 2551,
      "rie": 2552,
      "Ġ11": 2553,
      "fact": 2554,
      "pper": 2555,
      "clus": 2556,
      "Ġelement": 2557,
      "Ġflu": 2558,
      "Ġmaintain": 2559,
      "ĠEm": 2560,
      "Ġsurface": 2561,
      "Ġtaken": 2562,
      "right": 2563,
      "Ġengine": 2564,
      "Ġlooked": 2565,
      "nU": 2566,
      "utput": 2567,
      "Ġoffic": 2568,
      "col": 2569,
      "<<": 2570,
      "Ġwrite": 2571,
      "ales": 2572,
      "ĠGe": 2573,
      "Ġjob": 2574,
      "mber": 2575,
      "Ġfarm": 2576,
      "')\\": 2577,
      "ĠBy": 2578,
      "Ġinside": 2579,
      "Ġdiet": 2580,
      "Ġrelated": 2581,
      "Ġissues": 2582,
      "AR": 2583,
      "ĠIntern": 2584,
      "lying": 2585,
      "ils": 2586,
      "opy": 2587,
      "ĠMay": 2588,
      "rem": 2589,
      "Ġactually": 2590,
      "Ġcondition": 2591,
      "Ġeffort": 2592,
      "Ġgreen": 2593,
      "idered": 2594,
      "ands": 2595,
      "epend": 2596,
      "Ġri": 2597,
      "Ġreduce": 2598,
      "Ġtradition": 2599,
      "ublic": 2600,
      "ĠPr": 2601,
      "Ġpoints": 2602,
      "Ġconcept": 2603,
      "Ġtraining": 2604,
      "Ġdeveloped": 2605,
      "ervation": 2606,
      "EL": 2607,
      "itud": 2608,
      "Ġlink": 2609,
      "Ġaction": 2610,
      "Ġskills": 2611,
      "pri": 2612,
      "aced": 2613,
      "ming": 2614,
      "Ġcollect": 2615,
      "inter": 2616,
      "Ġpack": 2617,
      "key": 2618,
      "sych": 2619,
      "ĠEarth": 2620,
      "Ġexcept": 2621,
      "Ġstates": 2622,
      "ca": 2623,
      "Ġevidence": 2624,
      "ĠHealth": 2625,
      "Ġconsidered": 2626,
      "Ġ--": 2627,
      "Ġtru": 2628,
      "Ġrecomm": 2629,
      "Ġentire": 2630,
      "ini": 2631,
      "iment": 2632,
      "Ġparts": 2633,
      "ĠAm": 2634,
      "Ġmembers": 2635,
      "Ġnature": 2636,
      "ety": 2637,
      "Ġdiv": 2638,
      "uck": 2639,
      "Ġclos": 2640,
      "Ġclimate": 2641,
      "Ġbal": 2642,
      "27": 2643,
      "hing": 2644,
      "oll": 2645,
      "izing": 2646,
      "ĠAfter": 2647,
      "ening": 2648,
      "Ġever": 2649,
      "Ġposition": 2650,
      "raft": 2651,
      "Ġpark": 2652,
      "nWhen": 2653,
      "Ġbar": 2654,
      "head": 2655,
      "ĠAb": 2656,
      "urs": 2657,
      "aging": 2658,
      "ivity": 2659,
      "nAs": 2660,
      "Ġprovides": 2661,
      "Ġparents": 2662,
      "yle": 2663,
      "date": 2664,
      "ention": 2665,
      "bo": 2666,
      "ises": 2667,
      "Ġunique": 2668,
      "org": 2669,
      "Ġbecom": 2670,
      "Ġability": 2671,
      "Ġmedical": 2672,
      "ĠWest": 2673,
      "Ġoriginal": 2674,
      "Ġsuper": 2675,
      "Ġtalk": 2676,
      "Ġdru": 2677,
      "sp": 2678,
      "Ġmicro": 2679,
      "'\\": 2680,
      "Ġloved": 2681,
      "Ġmessage": 2682,
      "iddle": 2683,
      "Ġfire": 2684,
      "Ġprote": 2685,
      "ndef": 2686,
      "Ġalg": 2687,
      "Ġlove": 2688,
      "Ġsat": 2689,
      "Ġsepar": 2690,
      "Ġminutes": 2691,
      "load": 2692,
      "Ġthemselves": 2693,
      "Ġann": 2694,
      "chan": 2695,
      "Ġshare": 2696,
      "ĠNorth": 2697,
      "Ġnational": 2698,
      "ivil": 2699,
      "ney": 2700,
      "Ġrelig": 2701,
      "Ġintrodu": 2702,
      "amin": 2703,
      "vert": 2704,
      "Ġitself": 2705,
      "ĠStud": 2706,
      "Ġboy": 2707,
      "Create": 2708,
      "Ġfinal": 2709,
      "Ġpractice": 2710,
      "Ġcomes": 2711,
      "ĠSy": 2712,
      "lex": 2713,
      "lab": 2714,
      "Ġpressure": 2715,
      "Ġmarket": 2716,
      "Ġattack": 2717,
      "status": 2718,
      "Ġgas": 2719,
      "Ä±r": 2720,
      "iation": 2721,
      "Ġbegan": 2722,
      "Ġfeed": 2723,
      "Ġincreased": 2724,
      "aries": 2725,
      "St": 2726,
      "ĠAmerica": 2727,
      "Ġcompon": 2728,
      "Ġut": 2729,
      "back": 2730,
      "Ġskin": 2731,
      "Ġmanagement": 2732,
      "ĠSouth": 2733,
      "Ġadult": 2734,
      "Ġstress": 2735,
      "Ġopt": 2736,
      "order": 2737,
      "Ġglobal": 2738,
      "artment": 2739,
      "))": 2740,
      "Ġcustom": 2741,
      "Ġrelationship": 2742,
      "Ġbehavior": 2743,
      "Ġunderstanding": 2744,
      "ows": 2745,
      "Ġfall": 2746,
      "Ġresearchers": 2747,
      "oph": 2748,
      "empt": 2749,
      "Ġimplementation": 2750,
      "atter": 2751,
      "ĠDr": 2752,
      "ken": 2753,
      "Ġmeasure": 2754,
      "Ġhealthy": 2755,
      "itle": 2756,
      "Ġgame": 2757,
      "oved": 2758,
      "ply": 2759,
      "AL": 2760,
      "Ġrespect": 2761,
      "Ġ40": 2762,
      "anced": 2763,
      "Ġavoid": 2764,
      "Ġformat": 2765,
      "Ġproduce": 2766,
      "Ġtrue": 2767,
      "ese": 2768,
      "Ġfactors": 2769,
      "Ġhistor": 2770,
      "Ġensure": 2771,
      "aged": 2772,
      "Ġtaking": 2773,
      "ĠTrue": 2774,
      "Ġpolitical": 2775,
      "ĠNone": 2776,
      "\\\".": 2777,
      "Ġmaterials": 2778,
      "Ġsearch": 2779,
      "uel": 2780,
      "21": 2781,
      "Ġopportun": 2782,
      "Ġfamil": 2783,
      "ĠAust": 2784,
      "ournal": 2785,
      "bed": 2786,
      "Ġwa": 2787,
      "Ġhtt": 2788,
      "Ġconcern": 2789,
      "ĠMan": 2790,
      "ront": 2791,
      "Ġsleep": 2792,
      "ius": 2793,
      "Ġcomputer": 2794,
      "erve": 2795,
      "Ġfat": 2796,
      "igure": 2797,
      "Ġuses": 2798,
      "Ġpriv": 2799,
      "Ġsafe": 2800,
      "Ġeffective": 2801,
      "ippet": 2802,
      "Ġtemperature": 2803,
      "Ġanalysis": 2804,
      "ĠYork": 2805,
      "Ġalmost": 2806,
      "gar": 2807,
      "Ġthing": 2808,
      "Ġmonths": 2809,
      "cular": 2810,
      "ription": 2811,
      "istance": 2812,
      "ift": 2813,
      "Ġexperien": 2814,
      "Ġarch": 2815,
      "Ġbox": 2816,
      "Ġwriting": 2817,
      "Ġpage": 2818,
      "light": 2819,
      "Ġap": 2820,
      "ka": 2821,
      "ror": 2822,
      "Ġrights": 2823,
      "Ġmodern": 2824,
      "Ġsett": 2825,
      "ĠÃ": 2826,
      "Ġsoil": 2827,
      "Ġsentence": 2828,
      "Ġprinci": 2829,
      "log": 2830,
      "Ġmach": 2831,
      "ober": 2832,
      "Ġlogical": 2833,
      "OR": 2834,
      "cient": 2835,
      "Ġhold": 2836,
      "One": 2837,
      "Ġchemical": 2838,
      "Ġpublished": 2839,
      "based": 2840,
      "Ġexerc": 2841,
      "Ġmultiple": 2842,
      "Ġbooks": 2843,
      "Ġbird": 2844,
      "ai": 2845,
      "Ġstore": 2846,
      "Ġdoing": 2847,
      "uted": 2848,
      "enn": 2849,
      "Ġshows": 2850,
      "Ġsuff": 2851,
      "Ġ197": 2852,
      "Ġprevious": 2853,
      "nEx": 2854,
      "ĠRet": 2855,
      "hib": 2856,
      "ĠRep": 2857,
      "ibrary": 2858,
      "Ġroom": 2859,
      "bit": 2860,
      "Ġpict": 2861,
      "ops": 2862,
      "ground": 2863,
      "ĠFalse": 2864,
      "ensive": 2865,
      "eration": 2866,
      "elling": 2867,
      "pose": 2868,
      "Ġbuilt": 2869,
      "Ġyet": 2870,
      "erous": 2871,
      "Ġreading": 2872,
      "IT": 2873,
      "cks": 2874,
      "Ġservice": 2875,
      "ĠSoc": 2876,
      "ault": 2877,
      "ana": 2878,
      "Ġoil": 2879,
      "23": 2880,
      "Ġeconomic": 2881,
      "Ġgreater": 2882,
      "Ġsaf": 2883,
      "ister": 2884,
      "imin": 2885,
      "Ġlonger": 2886,
      "Ġhol": 2887,
      "ID": 2888,
      "Ġ%": 2889,
      "Ġface": 2890,
      "ĠAct": 2891,
      "Ġâ": 2892,
      "ĠDep": 2893,
      "Ġlines": 2894,
      "wh": 2895,
      "45": 2896,
      "Ġvide": 2897,
      "Ġheav": 2898,
      "Ġslow": 2899,
      "Ġeval": 2900,
      "EN": 2901,
      "aff": 2902,
      "Ġtable": 2903,
      "ival": 2904,
      "ĠCo": 2905,
      "hold": 2906,
      "Ġregion": 2907,
      "Ġservices": 2908,
      "Ġassess": 2909,
      "OD": 2910,
      "Ġaccept": 2911,
      "Ġexec": 2912,
      "'m": 2913,
      "IC": 2914,
      "Ġdidn": 2915,
      "Ġincludes": 2916,
      "lear": 2917,
      "tention": 2918,
      "29": 2919,
      "Ġmusic": 2920,
      "ml": 2921,
      "Ġpositive": 2922,
      "Ġtools": 2923,
      "rs": 2924,
      "ĠiÃ§": 2925,
      "apan": 2926,
      "ada": 2927,
      "Ġball": 2928,
      "ĠState": 2929,
      "abet": 2930,
      "icles": 2931,
      "Ġgenerate": 2932,
      "Ġcompany": 2933,
      "Ġmeaning": 2934,
      "orith": 2935,
      "Ġfeet": 2936,
      "Ġextract": 2937,
      "Ġlooking": 2938,
      "Ġsnippet": 2939,
      "Ġran": 2940,
      "ached": 2941,
      "Ġtold": 2942,
      "`,": 2943,
      "ections": 2944,
      "ender": 2945,
      "Ġrand": 2946,
      "Ġclose": 2947,
      "Ġincreasing": 2948,
      "Ġpopular": 2949,
      "ster": 2950,
      "abit": 2951,
      "astic": 2952,
      "Ġsense": 2953,
      "like": 2954,
      "['": 2955,
      "Ġ198": 2956,
      "Ġconduct": 2957,
      "Ġbring": 2958,
      "Ġforest": 2959,
      "ĠGu": 2960,
      "room": 2961,
      "Ġang": 2962,
      "Ġgard": 2963,
      "Ġheat": 2964,
      "rought": 2965,
      "nSo": 2966,
      "Ġdraw": 2967,
      "EM": 2968,
      "itted": 2969,
      "Ġclaim": 2970,
      "Ġplaying": 2971,
      "pir": 2972,
      "Ġste": 2973,
      "Write": 2974,
      "Ġstandard": 2975,
      "Ġterms": 2976,
      "Ġregular": 2977,
      "Ġsequ": 2978,
      "nWe": 2979,
      "Ġregard": 2980,
      "Ġer": 2981,
      "Ġmatter": 2982,
      "Ġmedic": 2983,
      "ara": 2984,
      "Ġ24": 2985,
      "Ġrandom": 2986,
      "Ġdeep": 2987,
      "itor": 2988,
      "Ġcontaining": 2989,
      "Ġsix": 2990,
      "Ġpersonal": 2991,
      "ĠHist": 2992,
      "Ġnight": 2993,
      "lor": 2994,
      "inks": 2995,
      "Ġvalid": 2996,
      "Ġthroughout": 2997,
      "ĠNo": 2998,
      "Ġrecent": 2999,
      "oin": 3000,
      "pid": 3001,
      "Ġthera": 3002,
      "Ġliter": 3003,
      "Ġemer": 3004,
      "ĠHer": 3005,
      "Ġetc": 3006,
      "count": 3007,
      "Ġshown": 3008,
      "Ġnetwork": 3009,
      "ĠVal": 3010,
      "oud": 3011,
      "Ġgave": 3012,
      "Ġnormal": 3013,
      "ĠJew": 3014,
      "Ġonline": 3015,
      "Ġdecl": 3016,
      "Ġprogress": 3017,
      "Ġindividuals": 3018,
      "Ġfib": 3019,
      "Ġidentify": 3020,
      "Ġrev": 3021,
      "vere": 3022,
      "Ġmechan": 3023,
      "Ĥ¬": 3024,
      "book": 3025,
      "Ġbelieve": 3026,
      "Ġspecified": 3027,
      "ĠWhile": 3028,
      "unction": 3029,
      "It": 3030,
      "Ġwood": 3031,
      "Ġinitial": 3032,
      "Ġwarm": 3033,
      "Ġseem": 3034,
      "Ġrepresenting": 3035,
      "Ġcontact": 3036,
      "minist": 3037,
      "Ġhu": 3038,
      "Ġhom": 3039,
      "Ã©": 3040,
      "nprint": 3041,
      "ĠPe": 3042,
      "istics": 3043,
      "ĠPol": 3044,
      "?\"},": 3045,
      "bol": 3046,
      "ccording": 3047,
      "Ġbase": 3048,
      "SE": 3049,
      "Ġmiss": 3050,
      "ĠBritish": 3051,
      "rag": 3052,
      "Ġdemon": 3053,
      "Ġapplication": 3054,
      "Ġsometimes": 3055,
      "Us": 3056,
      "reng": 3057,
      "value": 3058,
      "inf": 3059,
      "hem": 3060,
      "Ġsimply": 3061,
      "Ġsoon": 3062,
      "het": 3063,
      "ulations": 3064,
      "Ġ[]\\": 3065,
      "Ġeasy": 3066,
      "Ġsolution": 3067,
      "emic": 3068,
      "Ġappropri": 3069,
      "Ġbad": 3070,
      "Ġalgorith": 3071,
      "iven": 3072,
      "ĠPar": 3073,
      "Ġdesigned": 3074,
      "task": 3075,
      "Ġenvironmental": 3076,
      "ension": 3077,
      "Ġthird": 3078,
      "aily": 3079,
      "Ġsurv": 3080,
      "Ġanimal": 3081,
      "Ġfast": 3082,
      "Ġcauses": 3083,
      "stitute": 3084,
      "Ġbit": 3085,
      "Ġdistrib": 3086,
      "esc": 3087,
      "ains": 3088,
      "Ġcaused": 3089,
      "Ġearth": 3090,
      "Ġdecided": 3091,
      "Ġsex": 3092,
      "acters": 3093,
      "Ġattention": 3094,
      "umb": 3095,
      "hood": 3096,
      "03": 3097,
      "Ġkids": 3098,
      "norm": 3099,
      "aling": 3100,
      "Ġstay": 3101,
      "Ġseries": 3102,
      "Ġbeaut": 3103,
      "nBut": 3104,
      "Ġsociety": 3105,
      "source": 3106,
      "erved": 3107,
      "point": 3108,
      "Ġprec": 3109,
      "Ġlives": 3110,
      "Ġtrees": 3111,
      "Ġselect": 3112,
      "Ġprop": 3113,
      "âĤ¬": 3114,
      "orch": 3115,
      "Ġsound": 3116,
      "nSt": 3117,
      "where": 3118,
      "nTo": 3119,
      "Ġindustry": 3120,
      "Ġprocesses": 3121,
      "Ġsmiled": 3122,
      "ĠJapan": 3123,
      "35": 3124,
      "nWh": 3125,
      "Ġbott": 3126,
      "Ġmid": 3127,
      "Ġwid": 3128,
      "Ġreview": 3129,
      "================================": 3130,
      "Ġlack": 3131,
      "lands": 3132,
      "char": 3133,
      "Ġvariety": 3134,
      "We": 3135,
      "Ġinj": 3136,
      "Ġspread": 3137,
      "Ġago": 3138,
      "Ġviol": 3139,
      "Ġbasic": 3140,
      "Ġweb": 3141,
      "urt": 3142,
      "ĠÃ§": 3143,
      "Ġachieve": 3144,
      "])\\": 3145,
      "Ġ:": 3146,
      "ĠPer": 3147,
      "asks": 3148,
      "Ġschools": 3149,
      "ban": 3150,
      "Ġdemonstr": 3151,
      "rate": 3152,
      "Ġissue": 3153,
      "uman": 3154,
      "Ġbenefits": 3155,
      "Ġsomeone": 3156,
      "la": 3157,
      "imately": 3158,
      "ĠResearch": 3159,
      "iam": 3160,
      "Ġcalculate": 3161,
      "Ġdifference": 3162,
      "ederal": 3163,
      "Ġbacter": 3164,
      "Ġcarbon": 3165,
      "Ġfem": 3166,
      "Ġtravel": 3167,
      "ĠDis": 3168,
      "Ġwild": 3169,
      "Ġdetermine": 3170,
      "joy": 3171,
      "Ġvisit": 3172,
      "plit": 3173,
      "Ġdiagn": 3174,
      "attle": 3175,
      "ellow": 3176,
      "oes": 3177,
      "nOptions": 3178,
      "atives": 3179,
      "ilk": 3180,
      "ricult": 3181,
      "aches": 3182,
      "Ġquickly": 3183,
      "ĠSu": 3184,
      "Ġgetting": 3185,
      "ene": 3186,
      "Ġfav": 3187,
      "Ġmovement": 3188,
      "ĠSchool": 3189,
      "vey": 3190,
      "Ġwritten": 3191,
      "Ġsubst": 3192,
      "Ġattrib": 3193,
      "ĠTimmy": 3194,
      "oice": 3195,
      "Ġevents": 3196,
      "nf": 3197,
      "ĠCont": 3198,
      "Ġfram": 3199,
      "ronic": 3200,
      "hemat": 3201,
      "ari": 3202,
      "iful": 3203,
      "pre": 3204,
      "ĠList": 3205,
      "uration": 3206,
      "Ġblock": 3207,
      "izes": 3208,
      "ĠUs": 3209,
      "iny": 3210,
      ",\"": 3211,
      "Ġorigin": 3212,
      "Ġwebs": 3213,
      "Ġcontinue": 3214,
      "Ġimplementing": 3215,
      "Ġmother": 3216,
      "Ġadded": 3217,
      "Ġerror": 3218,
      "Ġhelps": 3219,
      "imal": 3220,
      "ades": 3221,
      "Ġcompet": 3222,
      "Ġstatus": 3223,
      "airs": 3224,
      "rast": 3225,
      "opt": 3226,
      "vant": 3227,
      "system": 3228,
      "ufact": 3229,
      "Ġsold": 3230,
      "ners": 3231,
      "Ġled": 3232,
      "idge": 3233,
      "curity": 3234,
      "class": 3235,
      "ĠiÃ§in": 3236,
      "ĠMon": 3237,
      "Ġinstead": 3238,
      "ager": 3239,
      "ields": 3240,
      "Ġcirc": 3241,
      "Ġnames": 3242,
      "This": 3243,
      "ĠII": 3244,
      "Ġlargest": 3245,
      "rew": 3246,
      "Ġbuy": 3247,
      "Ġharm": 3248,
      "Ġforce": 3249,
      "size": 3250,
      "Ġpick": 3251,
      "ded": 3252,
      "Ġindex": 3253,
      "duc": 3254,
      "rench": 3255,
      "ĠSam": 3256,
      "Ġdou": 3257,
      "Ġcoun": 3258,
      "ĠSte": 3259,
      "Ġlate": 3260,
      "Ġprograms": 3261,
      "Ġdoesn": 3262,
      "Ġdirectly": 3263,
      "ĠFrom": 3264,
      "Ġ60": 3265,
      "ieved": 3266,
      "Ġsources": 3267,
      "nTh": 3268,
      "ĠKing": 3269,
      "Ġattempt": 3270,
      "36": 3271,
      "Ġox": 3272,
      "arily": 3273,
      "Ġstop": 3274,
      "Ġthreat": 3275,
      "ties": 3276,
      "Ġideas": 3277,
      "Ġperm": 3278,
      "Ġforms": 3279,
      "tool": 3280,
      "ĠQu": 3281,
      "Ġcross": 3282,
      "ulate": 3283,
      "Ġversion": 3284,
      "Ġdisplay": 3285,
      "ĠThen": 3286,
      "erson": 3287,
      "uk": 3288,
      "Ġbab": 3289,
      "itude": 3290,
      "Ġstreng": 3291,
      "?\\\"": 3292,
      "Ġful": 3293,
      "Ġencoura": 3294,
      "args": 3295,
      "Ġtax": 3296,
      "Ġinvolved": 3297,
      "Ġcamp": 3298,
      "Ġscript": 3299,
      "Ġculture": 3300,
      "Ġsad": 3301,
      "bor": 3302,
      "ĠMe": 3303,
      "Ġconsist": 3304,
      "Ġcook": 3305,
      "Ġmedia": 3306,
      "Ġhands": 3307,
      "thing": 3308,
      "mb": 3309,
      "Ġpatient": 3310,
      "Ġperformance": 3311,
      "âĶģâĶģâĶģâĶģ": 3312,
      "Ġscientists": 3313,
      "Ġgoal": 3314,
      "ned": 3315,
      "uth": 3316,
      "Ġsea": 3317,
      "Ġserious": 3318,
      "www": 3319,
      "**\\": 3320,
      "Ġestablished": 3321,
      "Ġappl": 3322,
      "Ġfoods": 3323,
      "2026": 3324,
      "Ġbehind": 3325,
      "Ġpoor": 3326,
      "Ġelectric": 3327,
      "Ġdamage": 3328,
      "test": 3329,
      "Ġmiles": 3330,
      "Ġmagn": 3331,
      "Ġreported": 3332,
      "Ġheld": 3333,
      "sum": 3334,
      "ĠEd": 3335,
      "...\\": 3336,
      "oe": 3337,
      "Ġenjoy": 3338,
      "Ġremove": 3339,
      "hel": 3340,
      "Ġexact": 3341,
      "ceed": 3342,
      "Ġcharacters": 3343,
      "equ": 3344,
      "Ġcompan": 3345,
      "Ġexpress": 3346,
      "Ġadditional": 3347,
      "Ġmilit": 3348,
      "Ġextra": 3349,
      "Ġveget": 3350,
      "input": 3351,
      "Ġprior": 3352,
      "Ġtown": 3353,
      "ĠOutput": 3354,
      "Ġparticularly": 3355,
      "abase": 3356,
      "Ġhandle": 3357,
      "comp": 3358,
      "Ġsoftware": 3359,
      "Ġdeb": 3360,
      "ĠCount": 3361,
      "Ġhot": 3362,
      "atively": 3363,
      "rial": 3364,
      "Ġcit": 3365,
      "ino": 3366,
      "Ġproduced": 3367,
      "stain": 3368,
      "Ġdeveloping": 3369,
      "isions": 3370,
      "mar": 3371,
      "uff": 3372,
      "Ġter": 3373,
      "ĠAustral": 3374,
      "Ġdang": 3375,
      "Ġpsych": 3376,
      "dict": 3377,
      "Ġgrowing": 3378,
      "Ġdocument": 3379,
      "iy": 3380,
      "Ġincluded": 3381,
      "ĠScience": 3382,
      "Ġrequirements": 3383,
      "Ġemot": 3384,
      "Ġexpert": 3385,
      "Ġallows": 3386,
      "respon": 3387,
      "cles": 3388,
      "eks": 3389,
      "ĠInt": 3390,
      "ĠIndia": 3391,
      "Ġhyd": 3392,
      "Ġteachers": 3393,
      "ĠWill": 3394,
      "Ġdevice": 3395,
      "gram": 3396,
      "Ġhost": 3397,
      "Ġfoot": 3398,
      "Ġquant": 3399,
      "Ġrock": 3400,
      "Ġdate": 3401,
      "created": 3402,
      "Ġspeed": 3403,
      "Ġstri": 3404,
      "Ġanaly": 3405,
      "nAl": 3406,
      "Ġpredict": 3407,
      "Ġchalleng": 3408,
      "Ġlost": 3409,
      "Ġprimary": 3410,
      "ht": 3411,
      "Ġgenerally": 3412,
      "rix": 3413,
      "ĠPres": 3414,
      "Ġeyes": 3415,
      "Ġrunning": 3416,
      "Ġstat": 3417,
      "Ġlarger": 3418,
      "rror": 3419,
      "ters": 3420,
      "Ġaff": 3421,
      "wise": 3422,
      "Ġir": 3423,
      "GE": 3424,
      "Ġbirth": 3425,
      "hest": 3426,
      "actions": 3427,
      "rig": 3428,
      "ecause": 3429,
      "Ġcard": 3430,
      "ament": 3431,
      "oke": 3432,
      "Ġfeatures": 3433,
      "Ġalgorithm": 3434,
      "Ġegg": 3435,
      "Ġpoll": 3436,
      "rows": 3437,
      "irm": 3438,
      "Ġindepend": 3439,
      "lÄ±": 3440,
      "$$": 3441,
      "odes": 3442,
      "Ġvideo": 3443,
      "ought": 3444,
      "Ġsafety": 3445,
      "izer": 3446,
      "Ġdrink": 3447,
      "Ġcool": 3448,
      "Ġroad": 3449,
      "oration": 3450,
      "Ġcolon": 3451,
      "Ġdescribed": 3452,
      "uild": 3453,
      "Ġexpected": 3454,
      "90": 3455,
      "Ġsustain": 3456,
      "Ġappropriate": 3457,
      "Ġbur": 3458,
      "ĠChina": 3459,
      "Ġrepl": 3460,
      "ything": 3461,
      "Ġparameters": 3462,
      "Ġec": 3463,
      "Ġaware": 3464,
      "Ġdire": 3465,
      "Ġleaves": 3466,
      "ocks": 3467,
      "Ġprep": 3468,
      "lim": 3469,
      "Ġdecre": 3470,
      "Ġitem": 3471,
      "Ġdaily": 3472,
      "Ġmanufact": 3473,
      "Ġcover": 3474,
      "Ġvirus": 3475,
      "Ġspir": 3476,
      "Ġlearned": 3477,
      "Ġtherefore": 3478,
      "Ġquite": 3479,
      "ĠÂ": 3480,
      "ĠJan": 3481,
      "Ġroot": 3482,
      "anks": 3483,
      "Ġlif": 3484,
      "Ġobjects": 3485,
      "Ġdark": 3486,
      "words": 3487,
      "Ġeasily": 3488,
      "aving": 3489,
      "requ": 3490,
      "nCh": 3491,
      "Ġdistance": 3492,
      "itting": 3493,
      "What": 3494,
      "Ġ28": 3495,
      "rict": 3496,
      "ev": 3497,
      "Ġtiss": 3498,
      "ancy": 3499,
      "Ġload": 3500,
      "ĠMin": 3501,
      "Ġprobably": 3502,
      "Ġgarden": 3503,
      "Ġgain": 3504,
      "cean": 3505,
      "Ġprofessional": 3506,
      "Ġson": 3507,
      "ĠMany": 3508,
      "Ġcontext": 3509,
      "Ġtowards": 3510,
      "Ġkel": 3511,
      "Ġhyp": 3512,
      "vention": 3513,
      "erg": 3514,
      "Ġfight": 3515,
      "Ġconcent": 3516,
      "Ġpolicy": 3517,
      "year": 3518,
      "bal": 3519,
      "Ġsil": 3520,
      "Ġinvestig": 3521,
      "Ġblue": 3522,
      "lection": 3523,
      "Ġdry": 3524,
      "Ġaud": 3525,
      "TM": 3526,
      "ĠEach": 3527,
      "tes": 3528,
      "Ġnegative": 3529,
      "Ġsteps": 3530,
      "ĠApp": 3531,
      "iff": 3532,
      "ham": 3533,
      "iency": 3534,
      "Ġinternational": 3535,
      "nThey": 3536,
      "isms": 3537,
      "Ġhor": 3538,
      "Ġcritical": 3539,
      "():\\": 3540,
      "Ġestim": 3541,
      "Ġobtain": 3542,
      "haps": 3543,
      "asons": 3544,
      "cial": 3545,
      "itation": 3546,
      "rated": 3547,
      "Ġaltern": 3548,
      "Ġvacc": 3549,
      "Ġoperations": 3550,
      "32": 3551,
      "Ġfinanc": 3552,
      "ĠNot": 3553,
      "ography": 3554,
      "Ġcosts": 3555,
      "uary": 3556,
      "itch": 3557,
      "Ġimages": 3558,
      "Ġthus": 3559,
      "Ġimmedi": 3560,
      "ĠCenter": 3561,
      "ashing": 3562,
      "Ġheard": 3563,
      "lation": 3564,
      "orks": 3565,
      "Ġdoctor": 3566,
      "Ġcateg": 3567,
      "Ġbrought": 3568,
      "][": 3569,
      "met": 3570,
      "nK": 3571,
      "inct": 3572,
      "Ġcompared": 3573,
      "rim": 3574,
      "ĠCons": 3575,
      "nCom": 3576,
      "Ġeye": 3577,
      "Ġfunctions": 3578,
      "bl": 3579,
      "Ġprice": 3580,
      "Ġactive": 3581,
      "nc": 3582,
      "Ġice": 3583,
      "Ġsolar": 3584,
      "ED": 3585,
      "Ġtraditional": 3586,
      "rome": 3587,
      "iÅŁ": 3588,
      "Ġeth": 3589,
      "Ġhumans": 3590,
      "Ġwaste": 3591,
      "nOne": 3592,
      "ĠRuss": 3593,
      "Ġbul": 3594,
      "Ġtheory": 3595,
      "plain": 3596,
      "ama": 3597,
      "Ġol": 3598,
      "Ġcry": 3599,
      "ĠĠĠĠĠĠĠĠĠĠĠĠĠĠĠĠ": 3600,
      "Ġfront": 3601,
      "Ġpret": 3602,
      "ĠSm": 3603,
      "----------------": 3604,
      "ĠMore": 3605,
      "Ġ21": 3606,
      "rive": 3607,
      "ha": 3608,
      "Ġanything": 3609,
      "Ġdu": 3610,
      "url": 3611,
      "nV": 3612,
      "eful": 3613,
      "Ġcommunities": 3614,
      "unch": 3615,
      "Ġelif": 3616,
      "Ġleading": 3617,
      "iforn": 3618,
      "Ġfollowed": 3619,
      "Ġprinciples": 3620,
      "ONE": 3621,
      "Ġdepend": 3622,
      "Ġprotein": 3623,
      "Ġbra": 3624,
      "model": 3625,
      "ixed": 3626,
      "Ġreach": 3627,
      "Ġmental": 3628,
      "Ġthous": 3629,
      "Ġgives": 3630,
      "aly": 3631,
      "Ġwide": 3632,
      "othes": 3633,
      "Ġweeks": 3634,
      "Error": 3635,
      "nSolve": 3636,
      "cret": 3637,
      "Ġswe": 3638,
      "Ġsecurity": 3639,
      "Ġspeak": 3640,
      "Ġsection": 3641,
      "Ġleaders": 3642,
      "IS": 3643,
      "import": 3644,
      "48": 3645,
      "wo": 3646,
      "rief": 3647,
      "ION": 3648,
      "PL": 3649,
      "oken": 3650,
      "Ġmount": 3651,
      "ĠJu": 3652,
      "Ġreceived": 3653,
      "Ġoffer": 3654,
      "ran": 3655,
      "issions": 3656,
      "ĠAg": 3657,
      "Ġequal": 3658,
      "abetes": 3659,
      "Ġeveryone": 3660,
      "Ġitems": 3661,
      "Ġnation": 3662,
      "374": 3663,
      "aec": 3664,
      "ĠAug": 3665,
      "fort": 3666,
      "Ġtend": 3667,
      "Ġbroad": 3668,
      "Ġvit": 3669,
      "Ġinstit": 3670,
      "ĠAc": 3671,
      "Ġemail": 3672,
      "Ġknew": 3673,
      "eed": 3674,
      "Ġfactor": 3675,
      "nAnswer": 3676,
      "ĠPart": 3677,
      "Ġinstruction": 3678,
      "Ġrules": 3679,
      "Ġthinking": 3680,
      "rong": 3681,
      "Ġinstall": 3682,
      "ocol": 3683,
      "ĠOther": 3684,
      "ĠEl": 3685,
      "Ġreve": 3686,
      "nHe": 3687,
      "ĠEduc": 3688,
      "Ġbirds": 3689,
      "])": 3690,
      "Ġseems": 3691,
      "Ġreflect": 3692,
      "865": 3693,
      "Ġcarry": 3694,
      "Ġtransport": 3695,
      "used": 3696,
      "Ġhimself": 3697,
      "stitution": 3698,
      "undred": 3699,
      "ĠTest": 3700,
      "Ġmole": 3701,
      "Ġmemory": 3702,
      "uous": 3703,
      "ĠFrench": 3704,
      "Ġcivil": 3705,
      "onom": 3706,
      "adf": 3707,
      "Ġproced": 3708,
      "Ġacid": 3709,
      "Ġcapital": 3710,
      "Ġshape": 3711,
      "Ġuseful": 3712,
      "Ġdiseases": 3713,
      "Ġcomponents": 3714,
      "resh": 3715,
      "run": 3716,
      "Ġchoose": 3717,
      "ĠÅŁ": 3718,
      "Ġplayed": 3719,
      "Ġfamilies": 3720,
      "Ġhighly": 3721,
      "=\\\"": 3722,
      "Ġrequires": 3723,
      "Ġhar": 3724,
      "ifornia": 3725,
      "lay": 3726,
      "yp": 3727,
      "ĠMost": 3728,
      "Ġrefer": 3729,
      "33": 3730,
      "ĠEuropean": 3731,
      "Ġones": 3732,
      "array": 3733,
      "ille": 3734,
      "term": 3735,
      "Ġexercise": 3736,
      "ĠHere": 3737,
      "ĠCO": 3738,
      "Ġcorrespon": 3739,
      "Ġaspect": 3740,
      "ula": 3741,
      "Ġemb": 3742,
      "iques": 3743,
      "8653": 3744,
      "Ġhttp": 3745,
      "rac": 3746,
      "Ġ,": 3747,
      "8374": 3748,
      "edadf": 3749,
      "Ã¢": 3750,
      "Ġmilitary": 3751,
      "Ġincor": 3752,
      "Ġcold": 3753,
      "encies": 3754,
      "Ġeverything": 3755,
      "ĠEvery": 3756,
      "rogen": 3757,
      "Ġcompanies": 3758,
      "Ġexcited": 3759,
      "Ġbalance": 3760,
      "Ġstatement": 3761,
      "box": 3762,
      "ĠPre": 3763,
      "Ġproperty": 3764,
      "ĠArt": 3765,
      "mary": 3766,
      "Ġmaximum": 3767,
      "Ġteacher": 3768,
      "Ġep": 3769,
      "aught": 3770,
      "water": 3771,
      "Ġsurpr": 3772,
      "Ġmiddle": 3773,
      "estion": 3774,
      "Con": 3775,
      "Ġexpos": 3776,
      "Ġdead": 3777,
      "nov": 3778,
      "Ġdefin": 3779,
      "Ġstrings": 3780,
      "Ġcru": 3781,
      "Ġwest": 3782,
      "Ġcred": 3783,
      "Ġwhose": 3784,
      "Ġmathemat": 3785,
      "Ġhabit": 3786,
      "Ġeating": 3787,
      "ĠJes": 3788,
      "Ġplaces": 3789,
      "ĠInstitute": 3790,
      "itect": 3791,
      "ING": 3792,
      "ĠIndian": 3793,
      "Ġwebsite": 3794,
      "Ġofficial": 3795,
      "su": 3796,
      "Ġpurpose": 3797,
      "Ġsymbol": 3798,
      "pite": 3799,
      "hens": 3800,
      "Ġwat": 3801,
      "aid": 3802,
      "sect": 3803,
      "Ġpan": 3804,
      "Ġsevere": 3805,
      "ech": 3806,
      "DONE": 3807,
      "lier": 3808,
      "Ġalthough": 3809,
      "more": 3810,
      "Ġteaching": 3811,
      "Ġsupply": 3812,
      "Ġprivate": 3813,
      "ĠChar": 3814,
      "Ġancient": 3815,
      "pril": 3816,
      "cont": 3817,
      "know": 3818,
      "Ġadj": 3819,
      "result": 3820,
      "ĠDepartment": 3821,
      "Ġconfig": 3822,
      "75": 3823,
      "yl": 3824,
      "'ll": 3825,
      "max": 3826,
      "Ġtesting": 3827,
      "Ġconstruct": 3828,
      "amples": 3829,
      "ares": 3830,
      "Ġburn": 3831,
      "do": 3832,
      "Ġinfection": 3833,
      "Ġmention": 3834,
      "olic": 3835,
      "ĠComp": 3836,
      "Ġexpect": 3837,
      "cil": 3838,
      "Ġinstance": 3839,
      "ilos": 3840,
      "Ġnuc": 3841,
      "gency": 3842,
      "70": 3843,
      "Ġwatch": 3844,
      "Ġneigh": 3845,
      "Ġnews": 3846,
      "istry": 3847,
      "Ġshowed": 3848,
      "Ġcentral": 3849,
      "Ġrob": 3850,
      "Ġtim": 3851,
      "Ġcand": 3852,
      "Ġlabor": 3853,
      "dim": 3854,
      "Ġcapac": 3855,
      "Ġbeautiful": 3856,
      "Ġoption": 3857,
      "Ġusers": 3858,
      "rote": 3859,
      "Ġadminist": 3860,
      "Ġsituation": 3861,
      "uries": 3862,
      "Ġforward": 3863,
      "RE": 3864,
      "asÄ±": 3865,
      "men": 3866,
      "ĠGerman": 3867,
      "Ġmill": 3868,
      "Ġtou": 3869,
      "Ġaim": 3870,
      "Ġdetails": 3871,
      "ĠCalifornia": 3872,
      "Ġshall": 3873,
      "Ġtried": 3874,
      "Ġstarting": 3875,
      "AM": 3876,
      "Ġjud": 3877,
      "Ġ2010": 3878,
      "chol": 3879,
      "Ġoperation": 3880,
      "Ġcenter": 3881,
      "Ġlimited": 3882,
      "iot": 3883,
      "Ġsus": 3884,
      "Ġveh": 3885,
      "Ġexplore": 3886,
      "ext": 3887,
      "Ġlocated": 3888,
      "Ġtests": 3889,
      "Ġactions": 3890,
      "Ġautom": 3891,
      "Users": 3892,
      "ĠHar": 3893,
      "ĠGree": 3894,
      "pping": 3895,
      "Ġresponsible": 3896,
      "ĠSw": 3897,
      "iers": 3898,
      "Ġlived": 3899,
      "Ġseason": 3900,
      "Ġsugar": 3901,
      "Ġtrying": 3902,
      "Ġclin": 3903,
      "Ġhope": 3904,
      "Ġbecomes": 3905,
      "ĠChild": 3906,
      "Ġden": 3907,
      "Ġ2012": 3908,
      "Ġcurrently": 3909,
      "vest": 3910,
      "ĠMy": 3911,
      "ĠMod": 3912,
      "âĢ¢": 3913,
      "aste": 3914,
      "overy": 3915,
      "otal": 3916,
      "Ġevalu": 3917,
      "Ġchoice": 3918,
      "ags": 3919,
      "Ġmis": 3920,
      "Ġdecision": 3921,
      "ĠMarch": 3922,
      "Ġkelimes": 3923,
      "yond": 3924,
      "ologies": 3925,
      "ĠCor": 3926,
      "ĠAI": 3927,
      "Ġbed": 3928,
      "umn": 3929,
      "ĠJune": 3930,
      "Ġfiles": 3931,
      "resents": 3932,
      "number": 3933,
      "38": 3934,
      "Ġadapt": 3935,
      "04": 3936,
      "orthern": 3937,
      "34": 3938,
      "Ġgoes": 3939,
      "Ġraise": 3940,
      "Ġmachine": 3941,
      "orders": 3942,
      "cal": 3943,
      "Ġletter": 3944,
      "outhern": 3945,
      "ĠTra": 3946,
      "Ġstrateg": 3947,
      "ĠFirst": 3948,
      "Ġscale": 3949,
      "Ġnothing": 3950,
      "Ġpet": 3951,
      "berka": 3952,
      "Ġnorth": 3953,
      "ĠReg": 3954,
      "Ġhundred": 3955,
      "mit": 3956,
      "inin": 3957,
      "Ġcoming": 3958,
      "ĠLet": 3959,
      "esign": 3960,
      "atur": 3961,
      "Ġlocation": 3962,
      "coh": 3963,
      "Ġmodels": 3964,
      "aur": 3965,
      "Ġtypically": 3966,
      "PA": 3967,
      "Ġcou": 3968,
      "Ġfather": 3969,
      "ĠOct": 3970,
      "numbers": 3971,
      "ĠAlthough": 3972,
      "Ġprotection": 3973,
      "ĠAfrican": 3974,
      "ĠInternational": 3975,
      "Ġaccurately": 3976,
      "gn": 3977,
      "Qu": 3978,
      "alt": 3979,
      "ĠAfrica": 3980,
      "Ġagree": 3981,
      "roy": 3982,
      "ession": 3983,
      "^^": 3984,
      "idden": 3985,
      "osy": 3986,
      "Ġsolve": 3987,
      "Ġadults": 3988,
      "ype": 3989,
      "Ġder": 3990,
      "Ġstru": 3991,
      "]:\\": 3992,
      "ulated": 3993,
      "ODEL": 3994,
      "ĠHistory": 3995,
      "nthe": 3996,
      "Ġfinancial": 3997,
      "que": 3998,
      "Ġdevices": 3999,
      "Ġbacteria": 4000,
      "ĠDav": 4001,
      "Gen": 4002,
      "ĠMus": 4003,
      "Ġcollection": 4004,
      "Ġdatabase": 4005,
      "nOn": 4006,
      "IV": 4007,
      "Ġinfluence": 4008,
      "Ġefficient": 4009,
      "aul": 4010,
      "eg": 4011,
      "Ġimag": 4012,
      "Ġimportance": 4013,
      "Ġsorted": 4014,
      "Ġcam": 4015,
      "Ġoptions": 4016,
      "Ch": 4017,
      "99": 4018,
      "Ġbreat": 4019,
      "rees": 4020,
      "Ġlibrary": 4021,
      "Ġsmaller": 4022,
      "ĠAnt": 4023,
      "Ġconnect": 4024,
      "ipment": 4025,
      "OT": 4026,
      "Ġnote": 4027,
      "Ġtrack": 4028,
      "inese": 4029,
      "ordin": 4030,
      "uz": 4031,
      "Ġtrain": 4032,
      "ester": 4033,
      "ĠGl": 4034,
      "Ġalone": 4035,
      "domain": 4036,
      "Ġtok": 4037,
      "Ġmer": 4038,
      "mak": 4039,
      "Ġscreen": 4040,
      "Ġdro": 4041,
      "Ġsurround": 4042,
      "ĠChristian": 4043,
      "state": 4044,
      "izations": 4045,
      "Ġhair": 4046,
      "Ġrates": 4047,
      "Ġleave": 4048,
      "Ġremains": 4049,
      "sub": 4050,
      "Ġvisual": 4051,
      "Ġestablish": 4052,
      "Ġdefined": 4053,
      "Ġfuel": 4054,
      "Ġprojects": 4055,
      "osition": 4056,
      "Ġworked": 4057,
      "tered": 4058,
      "Ġcommunication": 4059,
      "dd": 4060,
      "Ġrare": 4061,
      "Ġlimit": 4062,
      "Ġdemand": 4063,
      "Ġagricult": 4064,
      "Ġ2011": 4065,
      "ingu": 4066,
      "aset": 4067,
      "Ġrepresents": 4068,
      "rap": 4069,
      "Ġsuccessful": 4070,
      "Ġworkers": 4071,
      "Ġsites": 4072,
      "ĠAugust": 4073,
      "mal": 4074,
      "Ġstage": 4075,
      "Ġtechniques": 4076,
      "Ġunit": 4077,
      "illing": 4078,
      "Ġult": 4079,
      "ĠSim": 4080,
      "Ġfeeling": 4081,
      "Ġfair": 4082,
      "Ġassign": 4083,
      "rab": 4084,
      "off": 4085,
      "Ġhous": 4086,
      "Ġnearly": 4087,
      "ĠSept": 4088,
      "udd": 4089,
      "ception": 4090,
      "Ġcontinued": 4091,
      "clusion": 4092,
      "Ġborn": 4093,
      "Ġconstruction": 4094,
      "Ġreligious": 4095,
      "odies": 4096,
      "Ġcele": 4097,
      "Ġmig": 4098,
      "Ġ196": 4099,
      "Ġwoman": 4100,
      "estic": 4101,
      "MODEL": 4102,
      "oad": 4103,
      "Ġfrequency": 4104,
      "rael": 4105,
      "Ġsouth": 4106,
      "ĠRiver": 4107,
      "Ġsummer": 4108,
      "Ġsquare": 4109,
      "idents": 4110,
      "ensity": 4111,
      "osing": 4112,
      "Ġten": 4113,
      "Ġexisting": 4114,
      "reet": 4115,
      "Ġcatch": 4116,
      "arian": 4117,
      "Ġreceive": 4118,
      "ĠServ": 4119,
      "active": 4120,
      "Ġweather": 4121,
      "Ġoccurs": 4122,
      "eal": 4123,
      "ellig": 4124,
      "Ġsand": 4125,
      "Ġteeth": 4126,
      "Ġfruit": 4127,
      ".)": 4128,
      "mosp": 4129,
      "Ġconstant": 4130,
      "Ġliked": 4131,
      "Ġrapid": 4132,
      "([": 4133,
      "reed": 4134,
      "ĠJesus": 4135,
      "ĠNow": 4136,
      "Ġseek": 4137,
      "ello": 4138,
      "Ġbasis": 4139,
      "Ġefforts": 4140,
      "part": 4141,
      "Ġsave": 4142,
      "Ġdoll": 4143,
      "Ġready": 4144,
      "Ġpurch": 4145,
      "Ġactual": 4146,
      "Ġguid": 4147,
      "Ġolder": 4148,
      "Ġmoment": 4149,
      "Ġ22": 4150,
      "Ġking": 4151,
      "amb": 4152,
      "urg": 4153,
      "ĠApril": 4154,
      "rav": 4155,
      "Ġrain": 4156,
      "ĠMax": 4157,
      "Ġpiece": 4158,
      "39": 4159,
      "roup": 4160,
      "ĠHol": 4161,
      "main": 4162,
      "ĠJuly": 4163,
      "Ġapplications": 4164,
      "à¤": 4165,
      "Ġprocessing": 4166,
      "Ġtoys": 4167,
      "ĠTrans": 4168,
      "ĠMc": 4169,
      "Ġsor": 4170,
      "life": 4171,
      "Ġexamples": 4172,
      "Ġsequence": 4173,
      "tters": 4174,
      "Ġallowed": 4175,
      "Ġrepe": 4176,
      "ĠAmericans": 4177,
      "iar": 4178,
      "Ġproperties": 4179,
      "ET": 4180,
      "ĠDay": 4181,
      "process": 4182,
      "ashington": 4183,
      "ĠCanada": 4184,
      "Ġmag": 4185,
      "ðŁ": 4186,
      "Ġdied": 4187,
      "Ġinteresting": 4188,
      "ĠBar": 4189,
      "ests": 4190,
      "ĠFl": 4191,
      "Ġfa": 4192,
      "Ġ80": 4193,
      "Ġconflic": 4194,
      "ĠUse": 4195,
      "Ġpractices": 4196,
      "see": 4197,
      "Ġkept": 4198,
      "Ġconvers": 4199,
      "cohol": 4200,
      "Ġadvant": 4201,
      "Ġtrade": 4202,
      "known": 4203,
      "ĠCity": 4204,
      "Ġfavor": 4205,
      "Ġvict": 4206,
      "Ġgraph": 4207,
      "Ġdigital": 4208,
      "Ġexpression": 4209,
      "Ġwrong": 4210,
      "ĠRed": 4211,
      "oses": 4212,
      "Ġinform": 4213,
      "Ġcitiz": 4214,
      "'ve": 4215,
      "Ġcoast": 4216,
      "ĠEngland": 4217,
      "ĠPress": 4218,
      "pty": 4219,
      "with": 4220,
      "tely": 4221,
      "ira": 4222,
      "Ġcontroll": 4223,
      "ĠJack": 4224,
      "ondon": 4225,
      "Ġmatch": 4226,
      "start": 4227,
      "Ġfear": 4228,
      "ĠPark": 4229,
      "Ġarri": 4230,
      "Ġconsequ": 4231,
      "Ġspirit": 4232,
      "Ġinstr": 4233,
      "Ġcopy": 4234,
      "nLet": 4235,
      "ico": 4236,
      "Ġlat": 4237,
      "Ġyourself": 4238,
      "Ġcultural": 4239,
      "riting": 4240,
      "Ġbeyond": 4241,
      "ica": 4242,
      "itable": 4243,
      "Ġremember": 4244,
      "ifically": 4245,
      "Ġfeature": 4246,
      "unt": 4247,
      "enge": 4248,
      "Ġ2009": 4249,
      "Ġfit": 4250,
      "Ġforces": 4251,
      "Ġgold": 4252,
      "cember": 4253,
      "Ġusage": 4254,
      "ĠAssoci": 4255,
      "Ġtherapy": 4256,
      "AD": 4257,
      "')": 4258,
      "Ġvia": 4259,
      "Ġhour": 4260,
      "ony": 4261,
      "Ġsky": 4262,
      "Ġdrug": 4263,
      "board": 4264,
      "Ġmouth": 4265,
      "oday": 4266,
      "era": 4267,
      "Ġprime": 4268,
      "!\\\"\\": 4269,
      "Ġpicture": 4270,
      "ĠChinese": 4271,
      "Ġboard": 4272,
      "mark": 4273,
      "Ġproviding": 4274,
      "Ġrecommend": 4275,
      "Ġelectr": 4276,
      "ĠEven": 4277,
      "Ġsample": 4278,
      "Ġapprox": 4279,
      "ĠGovern": 4280,
      "nInput": 4281,
      "itis": 4282,
      "Ġpal": 4283,
      "Ġrecently": 4284,
      "Ġrule": 4285,
      "Ġbaby": 4286,
      "conf": 4287,
      "Ġrat": 4288,
      "Ġpatterns": 4289,
      "Ġhighest": 4290,
      "ician": 4291,
      "Ġreplace": 4292,
      "Ġbehavi": 4293,
      "anish": 4294,
      "ĠRead": 4295,
      "ĠLear": 4296,
      "iced": 4297,
      "aled": 4298,
      "rt": 4299,
      "Ġstream": 4300,
      "Ġlayer": 4301,
      "ĠCoun": 4302,
      "']": 4303,
      "ĠFin": 4304,
      "oul": 4305,
      "Ġenter": 4306,
      "Ġinteger": 4307,
      "Ġreasons": 4308,
      "ĠSystem": 4309,
      "Ġplanet": 4310,
      "Ġapplied": 4311,
      "Ġgradu": 4312,
      "Ġ...": 4313,
      "55": 4314,
      "ĠCong": 4315,
      "ĠWilliam": 4316,
      "reme": 4317,
      "78": 4318,
      "Ġhon": 4319,
      "Ġriver": 4320,
      "Ġcompletely": 4321,
      "Ġmilk": 4322,
      "ache": 4323,
      "Ġwrote": 4324,
      "Ġdetect": 4325,
      "Ġanti": 4326,
      "ams": 4327,
      "Ġdifferences": 4328,
      "Ġplaced": 4329,
      "Ġund": 4330,
      "Ġaffected": 4331,
      "Ġbenefit": 4332,
      "Ġconnection": 4333,
      "Ġmember": 4334,
      "____": 4335,
      "ĠEducation": 4336,
      "pat": 4337,
      "Ġmoving": 4338,
      "ees": 4339,
      "ĠPresident": 4340,
      "che": 4341,
      "ĠGreat": 4342,
      "Ġequipment": 4343,
      "ospital": 4344,
      "Ġisn": 4345,
      "Ġdiabetes": 4346,
      "ĠIsrael": 4347,
      "RL": 4348,
      "Ġoverall": 4349,
      "Ġopportunity": 4350,
      "pass": 4351,
      "Ġgrass": 4352,
      "Ġassistant": 4353,
      "Ġgenetic": 4354,
      "OU": 4355,
      "nAt": 4356,
      "PI": 4357,
      "Ġbear": 4358,
      "Ġcommunic": 4359,
      "Ġlegal": 4360,
      "Ġ$<<": 4361,
      "Ġextrem": 4362,
      "nAfter": 4363,
      "Ġsup": 4364,
      "ros": 4365,
      "ACT": 4366,
      "ormat": 4367,
      "ĠBlack": 4368,
      "Ġvill": 4369,
      "Ġpowerful": 4370,
      "Ġstrength": 4371,
      "Ġwinter": 4372,
      "Ġdiscovered": 4373,
      "Ġpieces": 4374,
      "ĠChurch": 4375,
      "ovember": 4376,
      "Ġformed": 4377,
      "Ġfederal": 4378,
      "nam": 4379,
      "Ġpow": 4380,
      "Ġfle": 4381,
      "edia": 4382,
      "Ġlaws": 4383,
      "Ġ26": 4384,
      "Ġ27": 4385,
      "ube": 4386,
      "Ġign": 4387,
      "Ġbackground": 4388,
      "Ġorganization": 4389,
      "Ġ2026": 4390,
      "='": 4391,
      "net": 4392,
      "\":\"\\\"": 4393,
      "ford": 4394,
      "reak": 4395,
      "Ġflowers": 4396,
      "Ġbound": 4397,
      "Ġcompar": 4398,
      "ĠRoman": 4399,
      "html": 4400,
      "Ġmut": 4401,
      "ĠJanuary": 4402,
      "Ġ2013": 4403,
      "Ġcommonly": 4404,
      "Ġdeal": 4405,
      "ya": 4406,
      "Ä±nÄ±": 4407,
      "Ġdirection": 4408,
      "nLily": 4409,
      "Com": 4410,
      "Ġrot": 4411,
      "ĠBo": 4412,
      "AS": 4413,
      "orage": 4414,
      "ĠMom": 4415,
      "Ġspent": 4416,
      "Ġ2008": 4417,
      "ints": 4418,
      "Ġ{\\": 4419,
      "ĠBi": 4420,
      "Ġtele": 4421,
      "emy": 4422,
      "Ġdegree": 4423,
      "apter": 4424,
      "Ġapply": 4425,
      "Ġmeasures": 4426,
      "ĠTechn": 4427,
      "ĠDevelop": 4428,
      "500": 4429,
      "asc": 4430,
      "Ġ23": 4431,
      "ĠDNA": 4432,
      "Ġteach": 4433,
      "ogle": 4434,
      "code": 4435,
      "ĠWashington": 4436,
      "Ġstandards": 4437,
      "omet": 4438,
      "Ġtorch": 4439,
      "Ġwonder": 4440,
      "Ġappears": 4441,
      "Ġchurch": 4442,
      "Ġtitle": 4443,
      "ĠOur": 4444,
      "44": 4445,
      "yd": 4446,
      "Ġpen": 4447,
      "ĠHigh": 4448,
      "Ġfields": 4449,
      "Ġrelevant": 4450,
      "Ġearlier": 4451,
      "Ġheight": 4452,
      "Ġround": 4453,
      "ynam": 4454,
      "Ġfollows": 4455,
      "Ġstories": 4456,
      "Ġrich": 4457,
      "rid": 4458,
      "ygen": 4459,
      "Ġreference": 4460,
      "Ġpeace": 4461,
      "denly": 4462,
      "Ġclim": 4463,
      "Ġexposure": 4464,
      "Ġreduced": 4465,
      "ocr": 4466,
      "AC": 4467,
      "irt": 4468,
      "Ġexactly": 4469,
      "ĠHuman": 4470,
      "Ġrise": 4471,
      "Ġenh": 4472,
      "Ġglass": 4473,
      "Ġbrother": 4474,
      "Ġvirt": 4475,
      "\\\",\\": 4476,
      "Ġrout": 4477,
      "ĠFeb": 4478,
      "Ġscared": 4479,
      "lin": 4480,
      "Ġnutri": 4481,
      "Ġcommit": 4482,
      "Ġatmosp": 4483,
      "ĠDon": 4484,
      "related": 4485,
      "Ġcore": 4486,
      "ste": 4487,
      "Ġeconomy": 4488,
      "Ġgames": 4489,
      "Ġstar": 4490,
      "Ġmap": 4491,
      "ĠAccording": 4492,
      "Ġworth": 4493,
      "ĠSeptember": 4494,
      "ĠProgram": 4495,
      "ĠJournal": 4496,
      "ĠOf": 4497,
      "Ġmodule": 4498,
      "ĠSan": 4499,
      "Th": 4500,
      "Ġ<=": 4501,
      "Ġoccup": 4502,
      "Ġ90": 4503,
      ");": 4504,
      "craft": 4505,
      "Ġempty": 4506,
      "Ġord": 4507,
      "ogen": 4508,
      "orge": 4509,
      "ĠJust": 4510,
      "Ġincreases": 4511,
      "ĠCounty": 4512,
      "ibly": 4513,
      "Ġotherwise": 4514,
      "Ġhear": 4515,
      "Ġhistorical": 4516,
      "nAnd": 4517,
      "Ġtu": 4518,
      "Ġcapacity": 4519,
      "mission": 4520,
      "Ġclasses": 4521,
      "ĠIS": 4522,
      "yg": 4523,
      "Ġpassed": 4524,
      "rick": 4525,
      "Ġexpand": 4526,
      "Ġidentified": 4527,
      ".]\\": 4528,
      "Ġarchitect": 4529,
      "Ġpresence": 4530,
      "ĠAre": 4531,
      "Ġdivid": 4532,
      "sort": 4533,
      "ĠAlso": 4534,
      "iling": 4535,
      "Ġoptim": 4536,
      "ĠOctober": 4537,
      "01": 4538,
      "Ġdestroy": 4539,
      "Ġjoint": 4540,
      "acci": 4541,
      "Ġstyle": 4542,
      "Ġparty": 4543,
      "ĠArch": 4544,
      "Ġpul": 4545,
      "OM": 4546,
      "Ġgiving": 4547,
      "Ġchanged": 4548,
      "ĠSince": 4549,
      "ĠEast": 4550,
      "Ġheavy": 4551,
      "Ġdrugs": 4552,
      "Ġhelped": 4553,
      "ports": 4554,
      "Ġinvolves": 4555,
      "can": 4556,
      "enty": 4557,
      "Ġbillion": 4558,
      "Ġmob": 4559,
      "Ġfully": 4560,
      "2819": 4561,
      "Ġgets": 4562,
      "ĠLondon": 4563,
      "ĠCommun": 4564,
      "Ġformer": 4565,
      "Ġpregn": 4566,
      "Ġcommerc": 4567,
      "Ġrow": 4568,
      "ĠLab": 4569,
      "Ġremov": 4570,
      "ta": 4571,
      "usion": 4572,
      "Ġpages": 4573,
      "onacci": 4574,
      "abilities": 4575,
      "Ġtransform": 4576,
      "Ġtissue": 4577,
      "length": 4578,
      "Ġplease": 4579,
      "eding": 4580,
      "iat": 4581,
      "wide": 4582,
      "ĠCour": 4583,
      "Ġbank": 4584,
      "gypt": 4585,
      "ĠDecember": 4586,
      "ternal": 4587,
      "Ġseparate": 4588,
      "].": 4589,
      "pret": 4590,
      "ĠMex": 4591,
      "Ġfigure": 4592,
      "PU": 4593,
      "ĠLaw": 4594,
      "Ġvariable": 4595,
      "ĠDuring": 4596,
      "erois": 4597,
      "oo": 4598,
      "Ġyellow": 4599,
      "icit": 4600,
      "Ġintegers": 4601,
      "ĠWater": 4602,
      "lower": 4603,
      ")`": 4604,
      "Ġmajority": 4605,
      "Ġperhaps": 4606,
      "iding": 4607,
      "force": 4608,
      "culate": 4609,
      "Ġfresh": 4610,
      "Ġutil": 4611,
      "Ġacqu": 4612,
      "Ġsigns": 4613,
      "Ġplanning": 4614,
      "roud": 4615,
      "Ġfemale": 4616,
      "Ġsetting": 4617,
      "Ġing": 4618,
      "efore": 4619,
      "cast": 4620,
      "ĠÃ¶": 4621,
      "iable": 4622,
      "Ġsitu": 4623,
      "Ġtox": 4624,
      "Ġ2000": 4625,
      "split": 4626,
      "ocal": 4627,
      "Ġlots": 4628,
      "Ġvoice": 4629,
      "Ġstrugg": 4630,
      "inc": 4631,
      "htt": 4632,
      "Ġsong": 4633,
      "Ġeffic": 4634,
      "ĠSpec": 4635,
      "iant": 4636,
      "Ġcoll": 4637,
      "HE": 4638,
      "Ġphilos": 4639,
      "atform": 4640,
      "Ġ2007": 4641,
      "eline": 4642,
      "Ä±k": 4643,
      "Ġstructures": 4644,
      "house": 4645,
      "Ġimmune": 4646,
      "ruary": 4647,
      "Ġanx": 4648,
      "Ġassum": 4649,
      "down": 4650,
      "gged": 4651,
      "Ġcities": 4652,
      ":\\\\": 4653,
      "ĠBecause": 4654,
      "True": 4655,
      "wards": 4656,
      "Ġadding": 4657,
      "za": 4658,
      "Ġinsect": 4659,
      "ĠPat": 4660,
      "Ġoffice": 4661,
      "Ġturned": 4662,
      "Ġbright": 4663,
      "Ġnode": 4664,
      "change": 4665,
      "Ġthank": 4666,
      "nes": 4667,
      "zy": 4668,
      "Ã¼r": 4669,
      "Ġnp": 4670,
      "Ġwall": 4671,
      "Ġmoved": 4672,
      "Ġabsor": 4673,
      "Ġpolic": 4674,
      "Ġillust": 4675,
      "ris": 4676,
      "uit": 4677,
      "Ġresource": 4678,
      "64": 4679,
      "Ġid": 4680,
      "95": 4681,
      "LY": 4682,
      "Ġdim": 4683,
      "Ġliqu": 4684,
      "Ġdict": 4685,
      "ĠNovember": 4686,
      "Ġnutrit": 4687,
      "Ġreached": 4688,
      "Ġtasks": 4689,
      "Ġsect": 4690,
      "Ġconver": 4691,
      "Ġeggs": 4692,
      "ĠTheir": 4693,
      "Ġiniti": 4694,
      "ditionally": 4695,
      "Ġcro": 4696,
      "Ġgeneration": 4697,
      "Ġcarefully": 4698,
      "Ġupd": 4699,
      "Ġmal": 4700,
      "Ġevolution": 4701,
      "Ġopened": 4702,
      "ĠUnion": 4703,
      "nWhile": 4704,
      "ĠMary": 4705,
      "atin": 4706,
      "Ġstim": 4707,
      "Ġfamous": 4708,
      "phas": 4709,
      "Ġformal": 4710,
      "Ġdogs": 4711,
      "orial": 4712,
      "Ġpretty": 4713,
      "Ġroll": 4714,
      "Ġargument": 4715,
      "ux": 4716,
      "Ä±m": 4717,
      "ĠCheck": 4718,
      "Ġtopic": 4719,
      "Ġrelatively": 4720,
      "Ġgrand": 4721,
      "ĠBook": 4722,
      "Ġbelief": 4723,
      "Ġacad": 4724,
      "ĠHouse": 4725,
      "Ġweak": 4726,
      "Ġfreed": 4727,
      "Ġcast": 4728,
      "Ġeventually": 4729,
      "Ġkn": 4730,
      "ses": 4731,
      "Ġillness": 4732,
      "ĠGeneral": 4733,
      "example": 4734,
      "Ġast": 4735,
      "Ġcouldn": 4736,
      "raction": 4737,
      "Ġlic": 4738,
      "Ġadopt": 4739,
      "Ġmuscle": 4740,
      "ĠJewish": 4741,
      "urb": 4742,
      "ÅŁt": 4743,
      "owels": 4744,
      "Ġplastic": 4745,
      "Ġocean": 4746,
      "Ġhappen": 4747,
      "ĠData": 4748,
      "Ġalcohol": 4749,
      "Ġlooks": 4750,
      "rieved": 4751,
      "Ġclassroom": 4752,
      "II": 4753,
      "iox": 4754,
      "gery": 4755,
      "Ġmission": 4756,
      "Ġtoy": 4757,
      "Ġregions": 4758,
      "Ġmonit": 4759,
      "ĠPeople": 4760,
      "}{": 4761,
      "eria": 4762,
      "Ġwindow": 4763,
      "Ġwin": 4764,
      "Ġemissions": 4765,
      "Ġdistribution": 4766,
      "semb": 4767,
      "ĠSur": 4768,
      "Ġhuge": 4769,
      "Ġcorresponding": 4770,
      "nFormat": 4771,
      "Ġeducational": 4772,
      "Ġstaff": 4773,
      "Ġbrief": 4774,
      "Ġcarried": 4775,
      "Ġmetal": 4776,
      "nThese": 4777,
      "Ġdad": 4778,
      "Ġpromot": 4779,
      "Ġrecords": 4780,
      "Ġspot": 4781,
      "Ġmorning": 4782,
      "Ġcompre": 4783,
      "Ġjump": 4784,
      "Ġcreation": 4785,
      "Ġiron": 4786,
      "ĠEgypt": 4787,
      "42": 4788,
      "Ġcollab": 4789,
      "Ġdoor": 4790,
      "ographic": 4791,
      "ĠAustralia": 4792,
      "ĠAng": 4793,
      "da": 4794,
      "Ġoffers": 4795,
      "Ġexperim": 4796,
      "aign": 4797,
      "Ġrace": 4798,
      "Ġcelebr": 4799,
      "pective": 4800,
      "Ġoxygen": 4801,
      "Ġsto": 4802,
      "lies": 4803,
      "item": 4804,
      "train": 4805,
      "Â°": 4806,
      "uting": 4807,
      "Ġmo": 4808,
      "Ġshap": 4809,
      "Ġtrib": 4810,
      "ĠSociety": 4811,
      "Ġsec": 4812,
      "Ġgoals": 4813,
      "56": 4814,
      "Ġdistinct": 4815,
      "Ġproud": 4816,
      "Ġobserv": 4817,
      "Ġchallenges": 4818,
      "Ġlesson": 4819,
      "icip": 4820,
      "bi": 4821,
      "ĠðŁ": 4822,
      "Ġtouch": 4823,
      "Ġcycle": 4824,
      "Ġreverse": 4825,
      "nWith": 4826,
      "ĠInter": 4827,
      "Ġminimum": 4828,
      "Ġfert": 4829,
      "apping": 4830,
      "erated": 4831,
      "Ġletters": 4832,
      "Ġtransfer": 4833,
      "Ġtransl": 4834,
      "Ġconsumption": 4835,
      "Ġobserved": 4836,
      "Ġbone": 4837,
      "Ġopportunities": 4838,
      "Ġnative": 4839,
      "Pro": 4840,
      "Ġimmediately": 4841,
      "Ġdetailed": 4842,
      "Ġresulting": 4843,
      "Ġfinding": 4844,
      "Ġinnov": 4845,
      "Ġwants": 4846,
      "Ġantib": 4847,
      "trans": 4848,
      "pire": 4849,
      "west": 4850,
      "sec": 4851,
      "Ġthousands": 4852,
      "reated": 4853,
      "Ġvolume": 4854,
      "ĠEX": 4855,
      "ĠRec": 4856,
      "Ġcounter": 4857,
      "asion": 4858,
      "Ġfro": 4859,
      "ĠReturn": 4860,
      "Ġcareful": 4861,
      "ails": 4862,
      "05": 4863,
      "igen": 4864,
      "Ġbelieved": 4865,
      "Ġscen": 4866,
      "Ġguide": 4867,
      "ĠColle": 4868,
      "47": 4869,
      "Ġremaining": 4870,
      "rupt": 4871,
      "asa": 4872,
      "Ġfindings": 4873,
      "Ġperformed": 4874,
      "Ġupper": 4875,
      "tep": 4876,
      "RI": 4877,
      "icks": 4878,
      "Ġbatter": 4879,
      "Ġproperly": 4880,
      "angle": 4881,
      "Ġsignificantly": 4882,
      "Ġple": 4883,
      "omas": 4884,
      "zer": 4885,
      "ĠGermany": 4886,
      "Hello": 4887,
      "Ġexperiences": 4888,
      "ctors": 4889,
      "Ġchance": 4890,
      "Ġvision": 4891,
      "dis": 4892,
      "Ġforeign": 4893,
      "Ġrelease": 4894,
      "Ġmale": 4895,
      "Ġseven": 4896,
      "Ġbottom": 4897,
      "care": 4898,
      "Ġtechnologies": 4899,
      "Ġdrive": 4900,
      "Ġchallenge": 4901,
      "ĠGreen": 4902,
      "ĠPhil": 4903,
      "Ġnice": 4904,
      "ĠFrance": 4905,
      "hors": 4906,
      "Ġspect": 4907,
      "ulum": 4908,
      "`.\\": 4909,
      "Ġconnected": 4910,
      "Ã¼n": 4911,
      "Ġrepresented": 4912,
      "```\\\"\\\"\\\"\\": 4913,
      "âĢĿ,": 4914,
      "Ġreports": 4915,
      "Ġstrategies": 4916,
      "alities": 4917,
      "Ġdirectory": 4918,
      "Ġ|\\": 4919,
      "och": 4920,
      "Ġapproximately": 4921,
      "Ġexhib": 4922,
      "Ġhappened": 4923,
      "ĠJames": 4924,
      "Ġspring": 4925,
      "Ġtwice": 4926,
      "58": 4927,
      "Ġtruth": 4928,
      "Ġserver": 4929,
      "Ġdangerous": 4930,
      "Ġsche": 4931,
      "Ġresistance": 4932,
      "Ġfig": 4933,
      "Ġupdate": 4934,
      "Ġcombination": 4935,
      "Ġphen": 4936,
      "eared": 4937,
      "ying": 4938,
      "Ġcommercial": 4939,
      "Ġlinked": 4940,
      "ĠRem": 4941,
      "Ġmanage": 4942,
      "Ġfloat": 4943,
      "ĠDirect": 4944,
      "Ġsurvey": 4945,
      "Ġbelong": 4946,
      "frac": 4947,
      "Ġplans": 4948,
      "Ġagg": 4949,
      "agram": 4950,
      "46": 4951,
      "Ġsuggests": 4952,
      "Ġeight": 4953,
      "Ġcitizens": 4954,
      "Ġbecoming": 4955,
      "':\\": 4956,
      "Ġexperiment": 4957,
      "Ġincome": 4958,
      "Ġextremely": 4959,
      "Ġfinally": 4960,
      "ĠEnvironment": 4961,
      "ball": 4962,
      "Ġsnow": 4963,
      "Ġedge": 4964,
      "np": 4965,
      "Ġexcess": 4966,
      "Ġtreated": 4967,
      "ressed": 4968,
      "ĠThus": 4969,
      "nums": 4970,
      "Ġ2015": 4971,
      "Ġspeech": 4972,
      "ifying": 4973,
      "roph": 4974,
      "Ġpassword": 4975,
      "ĠLord": 4976,
      "pons": 4977,
      "Ġstorage": 4978,
      "oma": 4979,
      "ophy": 4980,
      "join": 4981,
      "elines": 4982,
      "31": 4983,
      "Ġunits": 4984,
      "anda": 4985,
      "Ġclearly": 4986,
      "Ġfilter": 4987,
      "Ġsac": 4988,
      "Ġeasier": 4989,
      "Ġarm": 4990,
      "Ġfilm": 4991,
      "Ġgene": 4992,
      "TP": 4993,
      "Ġstack": 4994,
      "Ġremoved": 4995,
      "Ġelectricity": 4996,
      "ĠAssociation": 4997,
      "ĠPal": 4998,
      "Ġcovered": 4999,
      "ĠIN": 5000,
      "Ġserve": 5001,
      "Ġsend": 5002,
      "Ġsets": 5003,
      "lan": 5004,
      "Ġattract": 5005,
      "Ġbreast": 5006,
      "ĠKe": 5007,
      "Ġdisorder": 5008,
      "Ġpresented": 5009,
      "Ġmist": 5010,
      "Ġconvert": 5011,
      "ĠUN": 5012,
      "tp": 5013,
      "Ġjournal": 5014,
      "plications": 5015,
      "arg": 5016,
      "Ġshared": 5017,
      "ĠJapanese": 5018,
      "OS": 5019,
      "ĠInternet": 5020,
      "Ġsynt": 5021,
      "Ġdegrees": 5022,
      "Ġkelimesinin": 5023,
      "ĠMich": 5024,
      "Ġcontract": 5025,
      "zing": 5026,
      "BC": 5027,
      "anges": 5028,
      "Ġanyone": 5029,
      "An": 5030,
      "ensor": 5031,
      "=<<": 5032,
      "Ġstick": 5033,
      "nSome": 5034,
      "vis": 5035,
      "ĠWestern": 5036,
      "Ġwait": 5037,
      "96": 5038,
      "ĠAut": 5039,
      "Ġcars": 5040,
      "Ġtrust": 5041,
      "ĠFebruary": 5042,
      "Ġmeeting": 5043,
      "Ġscore": 5044,
      "ĠMedic": 5045,
      "Ġhelpful": 5046,
      "Ġreprodu": 5047,
      "Ġmentioned": 5048,
      "Ġtrou": 5049,
      "ĠCouncil": 5050,
      "Ġpun": 5051,
      "Ġvary": 5052,
      "ald": 5053,
      "Ġmommy": 5054,
      "Ġwet": 5055,
      "ĠCongress": 5056,
      "Ġnoise": 5057,
      "umber": 5058,
      "ĠProf": 5059,
      "Ġkeys": 5060,
      "conds": 5061,
      "Ġcausing": 5062,
      "Ex": 5063,
      "Ġwalking": 5064,
      "level": 5065,
      "eli": 5066,
      "Ġconv": 5067,
      "DA": 5068,
      "Ġcourt": 5069,
      "Ġintellig": 5070,
      "Ġnotes": 5071,
      "Ġpp": 5072,
      "Ġ2006": 5073,
      "ĠSch": 5074,
      "ĠDavid": 5075,
      "Ġamaz": 5076,
      "ĠAp": 5077,
      "Ġseeds": 5078,
      "valid": 5079,
      "Ġfrequently": 5080,
      "Ġkid": 5081,
      "Ġfaster": 5082,
      "Ġhelping": 5083,
      "ĠVir": 5084,
      "Ġdoub": 5085,
      "upp": 5086,
      "Ġmatrix": 5087,
      "antic": 5088,
      "ĠUK": 5089,
      "Ġdecades": 5090,
      "Ġbodies": 5091,
      "ĠMark": 5092,
      "elled": 5093,
      "Ġ70": 5094,
      "Ġhun": 5095,
      "Ġnovel": 5096,
      "Ġhop": 5097,
      "98": 5098,
      "?\\\"\\": 5099,
      "acing": 5100,
      "omb": 5101,
      "ĠNet": 5102,
      "Ġtrig": 5103,
      "ework": 5104,
      "useum": 5105,
      "weight": 5106,
      "Ġtoken": 5107,
      "Ġslight": 5108,
      "Ġretain": 5109,
      "mitted": 5110,
      "ĠCreate": 5111,
      "Ġcolors": 5112,
      "Ġindependent": 5113,
      "Ġstars": 5114,
      "tee": 5115,
      "Ġmedicine": 5116,
      "Ġorganizations": 5117,
      "Ġdecisions": 5118,
      "Ġrespond": 5119,
      "plete": 5120,
      "ĠWeb": 5121,
      "ki": 5122,
      "ĠURL": 5123,
      "Ġpopulations": 5124,
      "Ġlabel": 5125,
      "\\\")": 5126,
      "Ġcontrast": 5127,
      "Ġdetermined": 5128,
      "Ġdepression": 5129,
      "Ġcombined": 5130,
      "Ġinternal": 5131,
      "ias": 5132,
      "Ġreality": 5133,
      "Ġsem": 5134,
      "Ġhomes": 5135,
      "etime": 5136,
      "Ġspend": 5137,
      "Ġfloor": 5138,
      "image": 5139,
      "Ġclinical": 5140,
      "Ġax": 5141,
      "Ġestimated": 5142,
      "ĠSun": 5143,
      "Ġtemperatures": 5144,
      "Ġarguments": 5145,
      "Ġreleased": 5146,
      "ĠLu": 5147,
      "Ġfly": 5148,
      "Ġlib": 5149,
      ".)\\": 5150,
      "Ġsexual": 5151,
      "RES": 5152,
      "ĠOver": 5153,
      "rack": 5154,
      "poses": 5155,
      "Ġsorry": 5156,
      "from": 5157,
      "works": 5158,
      "ulf": 5159,
      "Ġphone": 5160,
      "ĠPublic": 5161,
      "Ġpars": 5162,
      "Ġbow": 5163,
      "Ġrecommended": 5164,
      "Ġparticipants": 5165,
      "lement": 5166,
      "comes": 5167,
      "apers": 5168,
      "road": 5169,
      "Ġstrate": 5170,
      "Ġintroduced": 5171,
      "ĠVol": 5172,
      "Ġdefinition": 5173,
      "gal": 5174,
      "Ġfaith": 5175,
      "Ġsolid": 5176,
      "aughter": 5177,
      "Ġurban": 5178,
      "Ġdiscussion": 5179,
      "Ġdescribe": 5180,
      "Ġsolutions": 5181,
      "Ġconducted": 5182,
      "ollow": 5183,
      "Ġemphas": 5184,
      "porary": 5185,
      "olved": 5186,
      "pen": 5187,
      "Ġ_": 5188,
      "ĠFound": 5189,
      "No": 5190,
      "Ġchanging": 5191,
      "ios": 5192,
      "Ġdomin": 5193,
      "Ġjour": 5194,
      "field": 5195,
      "Ġstra": 5196,
      "Ġalternative": 5197,
      "Ġflood": 5198,
      "Ġcomfort": 5199,
      "long": 5200,
      "Ġ@": 5201,
      "ĠInst": 5202,
      "ously": 5203,
      "anging": 5204,
      "Ġtechnique": 5205,
      "66": 5206,
      "Ġplatform": 5207,
      "no": 5208,
      "Ġhappens": 5209,
      "MES": 5210,
      "Ġtour": 5211,
      "Ġopin": 5212,
      "ishes": 5213,
      "),\\": 5214,
      "Ġdisorders": 5215,
      "Ġseed": 5216,
      "Ġwidely": 5217,
      "inst": 5218,
      "ĠSol": 5219,
      "unk": 5220,
      "Ġaspects": 5221,
      "ĠNA": 5222,
      "Ġcomment": 5223,
      "Ġship": 5224,
      "Ġexplan": 5225,
      "Ġmotor": 5226,
      "ressive": 5227,
      "ologist": 5228,
      "edic": 5229,
      "ĠGreek": 5230,
      "UN": 5231,
      "Ġsignal": 5232,
      "Ġindustrial": 5233,
      "Ġinflam": 5234,
      "Ġbuildings": 5235,
      "Ġ2016": 5236,
      "ĠDef": 5237,
      "Ġnuclear": 5238,
      "rade": 5239,
      "ĠOnce": 5240,
      "Ġgrade": 5241,
      "nBy": 5242,
      "rep": 5243,
      "Ġ35": 5244,
      "Ġcomprehens": 5245,
      "Ġlegis": 5246,
      "isation": 5247,
      "Ġadjust": 5248,
      "Ġ!": 5249,
      "ĠâĨ": 5250,
      "Ġpaint": 5251,
      "Ġpartners": 5252,
      "Ġminor": 5253,
      "enth": 5254,
      "Ġ2014": 5255,
      "ĠMor": 5256,
      "Ġisol": 5257,
      "Ä±s": 5258,
      "ĠTherefore": 5259,
      "If": 5260,
      "Ġunivers": 5261,
      "Ġdefault": 5262,
      "osystem": 5263,
      "tical": 5264,
      "oper": 5265,
      "ida": 5266,
      "Ġorganic": 5267,
      "ĠExample": 5268,
      "Ġradio": 5269,
      "ĠAv": 5270,
      "ĠSee": 5271,
      "Ġgender": 5272,
      "hetic": 5273,
      "ĠID": 5274,
      "Ġthick": 5275,
      "Ġkal": 5276,
      "Al": 5277,
      "error": 5278,
      "dent": 5279,
      "Ġchronic": 5280,
      "Ġpolicies": 5281,
      "cript": 5282,
      "Ġlisten": 5283,
      "Ġreturned": 5284,
      "Ġinvent": 5285,
      "dered": 5286,
      "Ġju": 5287,
      "Ġmel": 5288,
      "nel": 5289,
      "iring": 5290,
      "ij": 5291,
      "ĠChildren": 5292,
      "alle": 5293,
      "Ġtooth": 5294,
      "Ġgenes": 5295,
      "ĠSub": 5296,
      "Ġ2005": 5297,
      "ĠWhy": 5298,
      "vision": 5299,
      "asure": 5300,
      "ĠSpanish": 5301,
      "ĠCur": 5302,
      "ĠGeorge": 5303,
      "math": 5304,
      "Ġcharacteristics": 5305,
      "Ġlists": 5306,
      "ells": 5307,
      "pack": 5308,
      "ĠST": 5309,
      "atically": 5310,
      "nimport": 5311,
      "Ġassessment": 5312,
      "gl": 5313,
      "info": 5314,
      "Ġ500": 5315,
      "icial": 5316,
      "Ġisland": 5317,
      "urance": 5318,
      "Ġviolence": 5319,
      "He": 5320,
      "Ġtum": 5321,
      "Ġfailure": 5322,
      "Ã¼k": 5323,
      "IL": 5324,
      "ĠDevelopment": 5325,
      "\\\"\",\"": 5326,
      "Ġdin": 5327,
      "Ġinterpret": 5328,
      "Ġbrown": 5329,
      "Ġblocks": 5330,
      "Action": 5331,
      "\\\\\\\\": 5332,
      "ky": 5333,
      "Ġhypothes": 5334,
      "nExample": 5335,
      "nb": 5336,
      "Ġmeant": 5337,
      "Ġpresident": 5338,
      "nHere": 5339,
      "SAGE": 5340,
      "Ġprepar": 5341,
      "Ġ29": 5342,
      "Ġnumerous": 5343,
      "nand": 5344,
      "]\"},": 5345,
      "Ġstrategy": 5346,
      "ums": 5347,
      "Ġfreedom": 5348,
      "nic": 5349,
      "config": 5350,
      "Ġdele": 5351,
      "Ġnor": 5352,
      "ructure": 5353,
      "ĠBra": 5354,
      "Ġlogic": 5355,
      "ĠMuseum": 5356,
      "inations": 5357,
      "inde": 5358,
      "Ġmeat": 5359,
      "Ġsamples": 5360,
      "Ġvitamin": 5361,
      "Ġkilled": 5362,
      "Ġcompleted": 5363,
      "onic": 5364,
      "isf": 5365,
      "Ġbattle": 5366,
      "alled": 5367,
      "ĠCollege": 5368,
      "iveness": 5369,
      "Ġinches": 5370,
      "ĠPlan": 5371,
      "ava": 5372,
      "ĠOb": 5373,
      "Ġchoices": 5374,
      "Ġgrad": 5375,
      "kin": 5376,
      "anted": 5377,
      "Ġelimin": 5378,
      "Ġreducing": 5379,
      "acts": 5380,
      "Ġannual": 5381,
      "osit": 5382,
      "ishing": 5383,
      "ognitive": 5384,
      "Ġspecifically": 5385,
      "Ġ32": 5386,
      "Ġbinary": 5387,
      "Ġrelationships": 5388,
      "Ġclick": 5389,
      "ĠSocial": 5390,
      "Ġmissing": 5391,
      "Ġreaction": 5392,
      "ĠMr": 5393,
      "Ġrul": 5394,
      "ĠDem": 5395,
      "Ġvegetables": 5396,
      "Ġincorpor": 5397,
      "ĠFood": 5398,
      "ĠRel": 5399,
      "Ġconflict": 5400,
      "Ġgod": 5401,
      "Ġesc": 5402,
      "Ġvot": 5403,
      "ipped": 5404,
      "anch": 5405,
      "hand": 5406,
      "hi": 5407,
      "Ġsweet": 5408,
      "ĠEXACT": 5409,
      "MESSAGE": 5410,
      "Ġanxiety": 5411,
      "Ġwel": 5412,
      "eturn": 5413,
      "Ġliterature": 5414,
      "Ġjo": 5415,
      "ĠEXACTLY": 5416,
      "Ġrisks": 5417,
      "Ġarticles": 5418,
      "ĠRev": 5419,
      "nfrom": 5420,
      "\\\".\\": 5421,
      "conn": 5422,
      "âĢĿ.": 5423,
      "Ġprefer": 5424,
      "ĠRef": 5425,
      "riculum": 5426,
      "left": 5427,
      "items": 5428,
      "icians": 5429,
      "Ġcampaign": 5430,
      "Ġcircum": 5431,
      "Ġlit": 5432,
      "Ġvess": 5433,
      "ĠAnna": 5434,
      "âĶģâĶģâĶģâĶģâĶģâĶģâĶģâĶģ": 5435,
      "Ġfell": 5436,
      "writing": 5437,
      "Ġstorm": 5438,
      "Ġauthors": 5439,
      "Ġreferred": 5440,
      "Ġhorm": 5441,
      "Ġencourage": 5442,
      "Ã¡": 5443,
      "Ġschol": 5444,
      "ologists": 5445,
      "ĠInit": 5446,
      "Ġfine": 5447,
      "Ġattributes": 5448,
      "Ġdynam": 5449,
      "ferences": 5450,
      "ĠProject": 5451,
      "Ġcloser": 5452,
      "ĠRepublic": 5453,
      "gu": 5454,
      "ado": 5455,
      "isher": 5456,
      "ĠPaul": 5457,
      "ĠDi": 5458,
      "Ġsecret": 5459,
      "Ġinvolve": 5460,
      "Ġretrie": 5461,
      "Ġnoted": 5462,
      "Ġunf": 5463,
      "Ġ300": 5464,
      "Ġadvanced": 5465,
      "Ġ\"<": 5466,
      "json": 5467,
      "riage": 5468,
      "Ġcoordin": 5469,
      "ii": 5470,
      "utive": 5471,
      "Ġgreatest": 5472,
      "ĠMat": 5473,
      "Ġtrend": 5474,
      "ĠUnder": 5475,
      "PS": 5476,
      "top": 5477,
      "ewrite": 5478,
      "ait": 5479,
      "aÄŁ": 5480,
      "Ġbutter": 5481,
      "Ġdie": 5482,
      "41": 5483,
      "Ġmix": 5484,
      "ortunately": 5485,
      "Ġconfiguration": 5486,
      "ĠAir": 5487,
      "oyal": 5488,
      "compl": 5489,
      "Ġfilled": 5490,
      "Ġrig": 5491,
      "ili": 5492,
      "ĠCath": 5493,
      "Ġdream": 5494,
      "Ġtow": 5495,
      "rates": 5496,
      "ĠTur": 5497,
      "ye": 5498,
      "Ġinterested": 5499,
      "Ġwealth": 5500,
      "Ġpreviously": 5501,
      "Ġconservation": 5502,
      "Ġserved": 5503,
      "iance": 5504,
      "Ġnest": 5505,
      "Sum": 5506,
      "ooth": 5507,
      "57": 5508,
      "Ġleads": 5509,
      "Ġinjury": 5510,
      "rains": 5511,
      "ĠOrgan": 5512,
      "ĠRetrieved": 5513,
      "ĠGovernment": 5514,
      "Ġdram": 5515,
      "umin": 5516,
      "Ġatmosphere": 5517,
      "Ġvul": 5518,
      "Ġkil": 5519,
      "Ġcollege": 5520,
      "Ġsupported": 5521,
      "CC": 5522,
      "Ġwhom": 5523,
      "Ġpig": 5524,
      "rations": 5525,
      "Ġkit": 5526,
      "Ġsaying": 5527,
      "Ġsides": 5528,
      "Ġmostly": 5529,
      "Ġ2017": 5530,
      "Ġliquid": 5531,
      "inger": 5532,
      "eler": 5533,
      "ears": 5534,
      "Ġpair": 5535,
      "fil": 5536,
      "Ġcharge": 5537,
      "43": 5538,
      "Ġstation": 5539,
      "Ġterrit": 5540,
      "Ġamounts": 5541,
      "Ġexplicit": 5542,
      "Ġexperienced": 5543,
      "Ġlinks": 5544,
      "ords": 5545,
      "Ġflat": 5546,
      "Ġgenerated": 5547,
      "Ġnotice": 5548,
      "Ġradiation": 5549,
      "Ġdepending": 5550,
      "uing": 5551,
      "Ġpush": 5552,
      "Ġadvantage": 5553,
      "Ġstored": 5554,
      "Ġprepared": 5555,
      "._": 5556,
      "Ġplayer": 5557,
      "Ġpollution": 5558,
      "US": 5559,
      "Ġseg": 5560,
      "Ġzam": 5561,
      "Ġsurgery": 5562,
      "mtp": 5563,
      "Ġmaster": 5564,
      "Ġchann": 5565,
      "ĠLa": 5566,
      "Ġtall": 5567,
      "Ġefficiency": 5568,
      "Ġregarding": 5569,
      "Ġdouble": 5570,
      "ĠOff": 5571,
      "Ġparameter": 5572,
      "ria": 5573,
      "ander": 5574,
      "Ġpromote": 5575,
      "Ġpictures": 5576,
      "ĠWork": 5577,
      "Ġphase": 5578,
      "Ġreligion": 5579,
      "ĠIsland": 5580,
      "Drive": 5581,
      "Ġcere": 5582,
      "ilir": 5583,
      "Ġassist": 5584,
      "ellent": 5585,
      "Ġlandsc": 5586,
      "Cl": 5587,
      "aÅŁ": 5588,
      "Ġsmart": 5589,
      "Ġcolumn": 5590,
      "Ġonto": 5591,
      "Ġrelative": 5592,
      "ĠIts": 5593,
      "ĠMars": 5594,
      "Ġdisapp": 5595,
      "Ġdepth": 5596,
      "ĠBel": 5597,
      "Ġsounds": 5598,
      "Ġcollected": 5599,
      "Ġmanner": 5600,
      "which": 5601,
      "Ġdiss": 5602,
      "Ġraised": 5603,
      "Ġeffectively": 5604,
      "Ġblog": 5605,
      "Ġshar": 5606,
      "à¸": 5607,
      "Ġrou": 5608,
      "ĠMount": 5609,
      "Ġconclud": 5610,
      "othe": 5611,
      "Ġdiscover": 5612,
      "Ġpaid": 5613,
      "Ġmanufacture": 5614,
      "last": 5615,
      "rum": 5616,
      "orest": 5617,
      "crete": 5618,
      "Ġ45": 5619,
      "Ġinfections": 5620,
      "aint": 5621,
      "Ġnav": 5622,
      "Ġ\"\\\"": 5623,
      "dat": 5624,
      "Ġnerv": 5625,
      "ĠCourt": 5626,
      "ago": 5627,
      "cers": 5628,
      "Ġcomponent": 5629,
      "ĠPort": 5630,
      "Ġadvent": 5631,
      "Ġcredit": 5632,
      "Ġintended": 5633,
      "Ġgirls": 5634,
      "ĠAdd": 5635,
      "aug": 5636,
      "List": 5637,
      "ixt": 5638,
      "ĠAdditionally": 5639,
      "iverse": 5640,
      "Ġmodified": 5641,
      "Ġreb": 5642,
      "'d": 5643,
      "Ġcalls": 5644,
      "Ġstraight": 5645,
      "Ġ{'": 5646,
      "ibonacci": 5647,
      "Ġhiz": 5648,
      "kay": 5649,
      "wood": 5650,
      "Question": 5651,
      "Ġcoal": 5652,
      "....": 5653,
      "Ġpounds": 5654,
      "ael": 5655,
      "ĠJer": 5656,
      "ĠĠĠĠĠĠĠĠĠĠĠĠĠĠĠĠĠĠĠ": 5657,
      "df": 5658,
      "Ġband": 5659,
      "Ġexposed": 5660,
      "amental": 5661,
      "Ġnorthern": 5662,
      "ĠDes": 5663,
      "Ġerrors": 5664,
      "iler": 5665,
      "ĠProt": 5666,
      "Ġoccurred": 5667,
      "Ġexperts": 5668,
      "Ġpackage": 5669,
      "Ġconcepts": 5670,
      "Ġpython": 5671,
      "Ġhospital": 5672,
      "Ġsubt": 5673,
      "[\\\"": 5674,
      "Ġconcerns": 5675,
      "ensions": 5676,
      "Generate": 5677,
      "Ġacademic": 5678,
      "Ġdescription": 5679,
      "fered": 5680,
      "Ġphr": 5681,
      "Ġinh": 5682,
      "ĠRober": 5683,
      "Ġmode": 5684,
      "',\\": 5685,
      "ĠLin": 5686,
      "Ġlanguages": 5687,
      "EC": 5688,
      "Ġtail": 5689,
      "ieties": 5690,
      "Ġvictim": 5691,
      "nHowever": 5692,
      "Ġfruits": 5693,
      "node": 5694,
      "Ġallowing": 5695,
      "Ġmoral": 5696,
      "Ġinstructions": 5697,
      "nin": 5698,
      "Ġtaught": 5699,
      "find": 5700,
      "ndrome": 5701,
      "97": 5702,
      "non": 5703,
      "Ġconsists": 5704,
      "Ġbud": 5705,
      "omin": 5706,
      "Ġprocedure": 5707,
      "Ġ['": 5708,
      "car": 5709,
      "Ġprofession": 5710,
      "dev": 5711,
      "Ġabsol": 5712,
      "lick": 5713,
      "amm": 5714,
      "oking": 5715,
      "Ġessay": 5716,
      "Ġselected": 5717,
      "Ġ!=": 5718,
      "Ġemotional": 5719,
      "that": 5720,
      "Ġrequests": 5721,
      "Ġflex": 5722,
      "Ġgall": 5723,
      "win": 5724,
      "ÃŃ": 5725,
      "Ġthoughts": 5726,
      "ĠMet": 5727,
      "nSe": 5728,
      "van": 5729,
      "arrow": 5730,
      "Ġbroken": 5731,
      "STEM": 5732,
      "Ġstone": 5733,
      "Ġelectrical": 5734,
      "olds": 5735,
      "Ġaf": 5736,
      "osite": 5737,
      "[:": 5738,
      "isc": 5739,
      "Ġyouth": 5740,
      "pc": 5741,
      "Ġsouthern": 5742,
      "Ġstock": 5743,
      "SY": 5744,
      "Ġimproved": 5745,
      "mes": 5746,
      "Ġpurposes": 5747,
      "NER": 5748,
      "ĠIslam": 5749,
      "oding": 5750,
      "Ġobvious": 5751,
      "uable": 5752,
      "Ġowners": 5753,
      ")):\\": 5754,
      "anguage": 5755,
      "Ġsalt": 5756,
      "ĠAN": 5757,
      "zen": 5758,
      "Ġcomplexity": 5759,
      "Ġclosed": 5760,
      "rection": 5761,
      "ĠMal": 5762,
      "68": 5763,
      "output": 5764,
      "otic": 5765,
      "ĠMexico": 5766,
      "Ġconclusion": 5767,
      "Ġsufficient": 5768,
      "Ġregist": 5769,
      "boxed": 5770,
      "cious": 5771,
      "Ġrecorded": 5772,
      "ĠJews": 5773,
      "Check": 5774,
      "Ġdiam": 5775,
      "Ġmotion": 5776,
      "Ġindicate": 5777,
      "There": 5778,
      "Ġrab": 5779,
      "dir": 5780,
      "09": 5781,
      "ĠAsia": 5782,
      "ĠPhys": 5783,
      "ups": 5784,
      "ifies": 5785,
      "Ġdownload": 5786,
      "ancing": 5787,
      "ĠHen": 5788,
      "Ġswim": 5789,
      "ĠSom": 5790,
      "Ġdataset": 5791,
      "Ġnutrients": 5792,
      "ancer": 5793,
      "OL": 5794,
      "spec": 5795,
      "ĠJe": 5796,
      "Ġther": 5797,
      "body": 5798,
      "Ġalt": 5799,
      "nFrom": 5800,
      "Ġfarmers": 5801,
      "Ġexplained": 5802,
      "Ġloud": 5803,
      "nAll": 5804,
      "\\\":\\": 5805,
      "Ġque": 5806,
      "Ġdrinking": 5807,
      "ipe": 5808,
      "Ġfoss": 5809,
      "ulates": 5810,
      "300": 5811,
      "Ġengineering": 5812,
      "Ġshell": 5813,
      "oup": 5814,
      "Ġsustainable": 5815,
      "Ġalph": 5816,
      "Ġbill": 5817,
      "Ġ2004": 5818,
      "Ġparticles": 5819,
      "essor": 5820,
      "rypt": 5821,
      "ĠStudents": 5822,
      "ĠBudd": 5823,
      "Ġcontinues": 5824,
      "Ġecosystem": 5825,
      "Ġkill": 5826,
      "Ġhearing": 5827,
      "Ġformation": 5828,
      "Ġsubsequ": 5829,
      "Ġlongest": 5830,
      "Ġprices": 5831,
      "Ġbegins": 5832,
      "Ġneuro": 5833,
      "54": 5834,
      "Ġoffered": 5835,
      "Ġexists": 5836,
      "standing": 5837,
      "Ġeast": 5838,
      "Ġaccompl": 5839,
      "Ġkinds": 5840,
      "Ġwear": 5841,
      "rapy": 5842,
      "mp": 5843,
      "Ġlr": 5844,
      "enses": 5845,
      "orrow": 5846,
      "Ġshowing": 5847,
      "AP": 5848,
      "Ġjobs": 5849,
      "adian": 5850,
      "ycl": 5851,
      "Ġvehicle": 5852,
      "Ġgrid": 5853,
      "Yes": 5854,
      "Ġidentity": 5855,
      "ffee": 5856,
      "roke": 5857,
      "As": 5858,
      "âĶĢ": 5859,
      "nAccording": 5860,
      "ossible": 5861,
      "Ġfriendly": 5862,
      "ras": 5863,
      "ĠClass": 5864,
      "iday": 5865,
      "Ġdivided": 5866,
      "Ġneut": 5867,
      "Ġconsult": 5868,
      "Ġphenomen": 5869,
      "Ġ//": 5870,
      "Ġvariables": 5871,
      "Ġobtained": 5872,
      "Ġproposed": 5873,
      "Ġawareness": 5874,
      "ĠMiss": 5875,
      "rip": 5876,
      "Ġcloth": 5877,
      "ĠGet": 5878,
      "ĠRich": 5879,
      "nShe": 5880,
      "Ġbiological": 5881,
      "Ġprocessed": 5882,
      "Ġfill": 5883,
      "Ġchemicals": 5884,
      "Ġrenew": 5885,
      "ĠTex": 5886,
      "ĠFind": 5887,
      "position": 5888,
      "ĠHel": 5889,
      "sq": 5890,
      "Ġaid": 5891,
      "ĠService": 5892,
      "Ġpractical": 5893,
      "ounced": 5894,
      "Ġfocused": 5895,
      "Ġpull": 5896,
      "Ġhit": 5897,
      "âĢĿ\\": 5898,
      "anÄ±": 5899,
      "PON": 5900,
      "ĠPlease": 5901,
      "hist": 5902,
      "Ġmuscles": 5903,
      "Ġzero": 5904,
      "Ġinstitutions": 5905,
      "title": 5906,
      "Ġremained": 5907,
      "ocation": 5908,
      "88": 5909,
      "Ġfort": 5910,
      "aturally": 5911,
      "well": 5912,
      "nNow": 5913,
      "Ġmainly": 5914,
      "direct": 5915,
      "lst": 5916,
      "Ġpolice": 5917,
      "Ã¼m": 5918,
      "Ġimpl": 5919,
      "ella": 5920,
      "brain": 5921,
      "Ġlose": 5922,
      "Ġwaters": 5923,
      "astern": 5924,
      "Ġdocuments": 5925,
      "Ġinfluen": 5926,
      ":**": 5927,
      "ario": 5928,
      "reci": 5929,
      "Ġnums": 5930,
      "Ġvulner": 5931,
      "rays": 5932,
      "uddenly": 5933,
      "Ġexistence": 5934,
      "Ġstarts": 5935,
      "eries": 5936,
      "Ġapplicable": 5937,
      "Ġhttps": 5938,
      "ĠAD": 5939,
      "Ġreduction": 5940,
      "Ġsen": 5941,
      "osen": 5942,
      "Ġshel": 5943,
      "search": 5944,
      "ĠEv": 5945,
      "Ġappoint": 5946,
      "Ġhyper": 5947,
      "']\\": 5948,
      "ĠInf": 5949,
      "Ġcontribute": 5950,
      "ĠHIV": 5951,
      "ĠKore": 5952,
      "omy": 5953,
      "Ġforg": 5954,
      "mation": 5955,
      "Ġdisci": 5956,
      "Ġsuccessfully": 5957,
      "rian": 5958,
      "Ġsud": 5959,
      "ĠAcad": 5960,
      "Ġforced": 5961,
      "ĠOld": 5962,
      "EP": 5963,
      "Ġlatest": 5964,
      "ĠWhite": 5965,
      "Äģ": 5966,
      "Ġcup": 5967,
      "rich": 5968,
      "Ġ2003": 5969,
      "Ġstopped": 5970,
      "Ġsed": 5971,
      "Ġmoon": 5972,
      "message": 5973,
      "ĠMart": 5974,
      "Let": 5975,
      "Ġcert": 5976,
      "Ġframework": 5977,
      "ĠArab": 5978,
      "larÄ±": 5979,
      "Ġwife": 5980,
      "Ġsituations": 5981,
      "Ġprimarily": 5982,
      "rier": 5983,
      "uge": 5984,
      "Ġdiagnosis": 5985,
      "lik": 5986,
      "ĠBas": 5987,
      "ĠĠĠĠĠĠ": 5988,
      "Ġvaccine": 5989,
      "Ġauthority": 5990,
      "acific": 5991,
      "Ġos": 5992,
      "Ġpresc": 5993,
      "itan": 5994,
      "'.": 5995,
      "Ġrough": 5996,
      "ĠMo": 5997,
      "ĠImplement": 5998,
      "stream": 5999,
      "draw": 6000,
      "Ġrh": 6001,
      "ocab": 6002,
      "mas": 6003,
      "istan": 6004,
      "Ġruns": 6005,
      "berg": 6006,
      "pected": 6007,
      "ĠWind": 6008,
      "TML": 6009,
      "Ġevaluate": 6010,
      "ĠBay": 6011,
      "Ġ}\\": 6012,
      "Ġpray": 6013,
      "ĠThomas": 6014,
      "Ġnit": 6015,
      "Ġdeliver": 6016,
      "Ġfacts": 6017,
      "ĠSmith": 6018,
      "Ġtoxic": 6019,
      "Ġdecor": 6020,
      "arter": 6021,
      "Ä±ÅŁ": 6022,
      "cel": 6023,
      "values": 6024,
      "Ġsettings": 6025,
      "Ġhurt": 6026,
      "Ġanlam": 6027,
      "Ġwalls": 6028,
      "Ġfif": 6029,
      "Ġemployees": 6030,
      "ĠVirgin": 6031,
      "Ġwave": 6032,
      "SS": 6033,
      "Ġexternal": 6034,
      "Ġrecognized": 6035,
      "Ġideal": 6036,
      "ĠLou": 6037,
      "Ġrefers": 6038,
      "Ġcards": 6039,
      "SYSTEM": 6040,
      "Ġneighb": 6041,
      "Ġprogramming": 6042,
      "ague": 6043,
      "una": 6044,
      "what": 6045,
      "uls": 6046,
      "Ġconsequences": 6047,
      "Ġremind": 6048,
      "Ġfinished": 6049,
      "Ġsatisf": 6050,
      "Ġkeeping": 6051,
      "Ġmaintaining": 6052,
      "plate": 6053,
      "band": 6054,
      "Ġfundamental": 6055,
      "ady": 6056,
      "Ġnoticed": 6057,
      "Masa": 6058,
      "Ġpaths": 6059,
      "root": 6060,
      "Ġaw": 6061,
      "ĠCivil": 6062,
      "stood": 6063,
      "Ġcart": 6064,
      "rame": 6065,
      "ĠBoth": 6066,
      "Ġcenturies": 6067,
      "Ġproteins": 6068,
      "OneDrive": 6069,
      "PLAN": 6070,
      "Ġ150": 6071,
      "Ġarrived": 6072,
      "ads": 6073,
      "Ġfluid": 6074,
      "Ġchain": 6075,
      "Ġsubjects": 6076,
      "Ġfixed": 6077,
      "Ġ{}\\": 6078,
      "Ġexplains": 6079,
      "Ġadvice": 6080,
      "ĠLife": 6081,
      "Ġoperating": 6082,
      "Ġpros": 6083,
      "ĠEnergy": 6084,
      "nThen": 6085,
      "balance": 6086,
      "Ä°": 6087,
      "RESPON": 6088,
      "Ġjoin": 6089,
      "ĠBritain": 6090,
      "().": 6091,
      "Ġthin": 6092,
      "chen": 6093,
      "Ġprofessor": 6094,
      "ila": 6095,
      "52": 6096,
      "Ġhugged": 6097,
      "ĠDist": 6098,
      "ĠSal": 6099,
      "ĠSpace": 6100,
      "Ġsuggested": 6101,
      "Ġtechnical": 6102,
      "Ġaccurate": 6103,
      "ĠLearning": 6104,
      "Ġgnorm": 6105,
      "Ġroots": 6106,
      "verty": 6107,
      "cip": 6108,
      "Ġslowly": 6109,
      "Ġextreme": 6110,
      "ocket": 6111,
      "ĠFranc": 6112,
      "case": 6113,
      "Ġdrop": 6114,
      "Ġunc": 6115,
      "ĠTwo": 6116,
      "Ġfeedback": 6117,
      "ĠSecond": 6118,
      "RESPONSE": 6119,
      "Ġpoverty": 6120,
      "nPro": 6121,
      "Ġexpensive": 6122,
      "Ġgar": 6123,
      "ĠMac": 6124,
      "ĠCentral": 6125,
      "ĠCam": 6126,
      "Ġped": 6127,
      "Ġmessages": 6128,
      "Ġsick": 6129,
      "ravity": 6130,
      "Ġgone": 6131,
      "Ġperman": 6132,
      "Ġstem": 6133,
      "Ġperspective": 6134,
      "cules": 6135,
      "Ġban": 6136,
      "Ġmonitoring": 6137,
      "tem": 6138,
      "Ġlarg": 6139,
      "ĠUsing": 6140,
      "going": 6141,
      "unte": 6142,
      "Ġtreatments": 6143,
      "ĠConf": 6144,
      "Ġcareer": 6145,
      "59": 6146,
      "ĠNASA": 6147,
      "igation": 6148,
      "Ġrub": 6149,
      "imer": 6150,
      "Ġcontinuous": 6151,
      "Ġmotiv": 6152,
      "ĠÎ": 6153,
      "ĠQue": 6154,
      "MS": 6155,
      "Ġmetab": 6156,
      "rant": 6157,
      "Ġconstra": 6158,
      "Ġfavorite": 6159,
      "PLANNER": 6160,
      "ĠAlex": 6161,
      "Ġmeasured": 6162,
      "arah": 6163,
      "ĠFurther": 6164,
      "Ġpoly": 6165,
      "Ġcertainly": 6166,
      "DF": 6167,
      "Ġtro": 6168,
      "div": 6169,
      "ifier": 6170,
      "Ġkm": 6171,
      "\\\\.": 6172,
      "Ġleader": 6173,
      "Ġtalking": 6174,
      "Ġcrucial": 6175,
      "ĠBer": 6176,
      "Ġhole": 6177,
      "ĠOF": 6178,
      "hent": 6179,
      "Ġfix": 6180,
      "nSince": 6181,
      "Ġdescribes": 6182,
      "rastructure": 6183,
      "67": 6184,
      "ificial": 6185,
      "anged": 6186,
      "Ġextent": 6187,
      "Ġbought": 6188,
      "ĠSpe": 6189,
      "Ġappeared": 6190,
      "Ġexcellent": 6191,
      "ĠTexas": 6192,
      "Ġadvance": 6193,
      "ĠAPI": 6194,
      "Ġastr": 6195,
      "ship": 6196,
      "Ġbag": 6197,
      "ĠStand": 6198,
      "Ġmort": 6199,
      "ĠToday": 6200,
      "ĠSet": 6201,
      "53": 6202,
      "swers": 6203,
      "Ġcreates": 6204,
      "Ġleaving": 6205,
      "ĠUp": 6206,
      "ĠIr": 6207,
      "Ġworry": 6208,
      "ĠMedicine": 6209,
      "Ġaren": 6210,
      "escription": 6211,
      "Ġaffects": 6212,
      "Ġhorse": 6213,
      "rust": 6214,
      "Your": 6215,
      "Ġflag": 6216,
      "ĠPri": 6217,
      "ĠExt": 6218,
      "Ġtopics": 6219,
      "phone": 6220,
      "Ġhaz": 6221,
      "osa": 6222,
      "mediate": 6223,
      "Ġlargely": 6224,
      "Ġvast": 6225,
      "oices": 6226,
      "Ġstret": 6227,
      "Ġharvest": 6228,
      "Ġcris": 6229,
      "Ġdespite": 6230,
      "ĠSen": 6231,
      "exp": 6232,
      "ĠMedical": 6233,
      "Ġvillage": 6234,
      "Ġtypical": 6235,
      "Ġliver": 6236,
      "Ġelev": 6237,
      "Ġcrops": 6238,
      "ĠBC": 6239,
      "ML": 6240,
      "Ġcreative": 6241,
      "gem": 6242,
      "mek": 6243,
      "Ġtrial": 6244,
      "Ġarmy": 6245,
      "ĠMuslim": 6246,
      "ĠNews": 6247,
      "Ġmoist": 6248,
      "ĠBr": 6249,
      "Ġemergency": 6250,
      "Ġselection": 6251,
      "nIm": 6252,
      "Ġsurrounding": 6253,
      "Ġrevolution": 6254,
      "icious": 6255,
      "pes": 6256,
      "Ġseconds": 6257,
      "Ġarms": 6258,
      "amily": 6259,
      "Ġproport": 6260,
      "Ġsin": 6261,
      "Ġperiods": 6262,
      "Ġimpacts": 6263,
      "Ġvital": 6264,
      "itness": 6265,
      "bles": 6266,
      "Ġcorrectly": 6267,
      "urity": 6268,
      "format": 6269,
      "cium": 6270,
      "ĠLatin": 6271,
      "Ġflower": 6272,
      "Ġresponsibility": 6273,
      "Ġgel": 6274,
      "Ġ[\\\"": 6275,
      "ensus": 6276,
      "Ġdriving": 6277,
      "51": 6278,
      "ĠMake": 6279,
      "erals": 6280,
      "ĠAtl": 6281,
      "lt": 6282,
      "Ġfirm": 6283,
      "Ġsector": 6284,
      "Ġmountain": 6285,
      "Ġhabitat": 6286,
      "ĠTr": 6287,
      "Ġalle": 6288,
      "Ġchief": 6289,
      "Ġgrown": 6290,
      "Ġprev": 6291,
      "pop": 6292,
      "ĠgÃ¶": 6293,
      "Ġcloud": 6294,
      "Ġportion": 6295,
      "pan": 6296,
      "Ġpersons": 6297,
      "Ġcommands": 6298,
      "ls": 6299,
      "Ġtiny": 6300,
      "flow": 6301,
      "Ġcop": 6302,
      "Ġpairs": 6303,
      "Ġprompt": 6304,
      "Ġdk": 6305,
      "ĠArmy": 6306,
      "Ġfamiliar": 6307,
      "Ġwaves": 6308,
      "Ġoral": 6309,
      "Ġages": 6310,
      "ĠGoogle": 6311,
      "rics": 6312,
      "Ġviews": 6313,
      "Ġlocations": 6314,
      "Ġhidden": 6315,
      "Ġcurriculum": 6316,
      "Ġce": 6317,
      "06": 6318,
      "ĠPost": 6319,
      "Ġfeelings": 6320,
      "ĠMass": 6321,
      "Ġqual": 6322,
      "Ġgun": 6323,
      "Ġnations": 6324,
      "De": 6325,
      "Ġprotected": 6326,
      "Ġinterests": 6327,
      "Ġrail": 6328,
      "Ġdepends": 6329,
      "Ġneighbor": 6330,
      "Ġpotentially": 6331,
      "âĶĢâĶĢ": 6332,
      "rolog": 6333,
      "Ġ2001": 6334,
      "Ġsan": 6335,
      "Ġingred": 6336,
      "Ã³": 6337,
      "yr": 6338,
      "Ġloop": 6339,
      "Ġpump": 6340,
      "Ġble": 6341,
      "roid": 6342,
      "Ġstudied": 6343,
      "Ġtested": 6344,
      ")`:": 6345,
      "Ġkalan": 6346,
      "Ġagricultural": 6347,
      "ĠCommission": 6348,
      "Ġpool": 6349,
      "Ġagreed": 6350,
      "Ġslightly": 6351,
      "How": 6352,
      "Ġsimpl": 6353,
      "Ġwalked": 6354,
      "Return": 6355,
      "ĠRewrite": 6356,
      "Ġclosely": 6357,
      "ĠBible": 6358,
      "function": 6359,
      "Ġabuse": 6360,
      "Ġdefine": 6361,
      "Ġ.\\": 6362,
      "ĠTechnology": 6363,
      "Ġdial": 6364,
      "Ġ36": 6365,
      "Ġbread": 6366,
      "Ġattacks": 6367,
      "nn": 6368,
      "86": 6369,
      "CH": 6370,
      "Ġbpc": 6371,
      "Ġvisible": 6372,
      "sa": 6373,
      "erver": 6374,
      "ĠDise": 6375,
      "Ġincreasingly": 6376,
      "Ġ2018": 6377,
      "Adim": 6378,
      "Ġgoods": 6379,
      "Ġwea": 6380,
      "ĠMem": 6381,
      "Ġsecure": 6382,
      "Ġcategory": 6383,
      "Ġdecrease": 6384,
      "IG": 6385,
      "oom": 6386,
      "Ġdollars": 6387,
      "Ġvent": 6388,
      "Ġmere": 6389,
      "02": 6390,
      "Ġcoffee": 6391,
      "grad": 6392,
      "Ġpip": 6393,
      "next": 6394,
      "Ġ1990": 6395,
      "ĠSum": 6396,
      "agon": 6397,
      "ether": 6398,
      "Ġhouses": 6399,
      "Ġinterview": 6400,
      "Ġimmig": 6401,
      "Ġexplanation": 6402,
      "Ġcontrolled": 6403,
      "Ġwire": 6404,
      "Ġpil": 6405,
      "asp": 6406,
      "di": 6407,
      "ĠCarol": 6408,
      "Ġpicked": 6409,
      "Ġcognitive": 6410,
      "Ġapparent": 6411,
      "Ġjourney": 6412,
      "ĠTreat": 6413,
      "Ġprem": 6414,
      "ĠFoundation": 6415,
      "Ġfrag": 6416,
      "Ġdomestic": 6417,
      "Ġnod": 6418,
      "ĠEngine": 6419,
      "uzz": 6420,
      "Ġchol": 6421,
      "Ġhundreds": 6422,
      "ulating": 6423,
      "Ar": 6424,
      "cest": 6425,
      "ĠRights": 6426,
      "Ġ2020": 6427,
      "ĠJoh": 6428,
      "Ġapproaches": 6429,
      "atever": 6430,
      "Ġequival": 6431,
      "ota": 6432,
      "Ġvaluable": 6433,
      "Ġtips": 6434,
      "nMany": 6435,
      "Ġsubstance": 6436,
      "Ġturns": 6437,
      "}\\\")\\": 6438,
      "ĠFlor": 6439,
      "token": 6440,
      "Ġnaturally": 6441,
      ")\"}]}": 6442,
      "ĠAny": 6443,
      "]\\\"\\\"\\\"\\": 6444,
      "anes": 6445,
      "Ġtrip": 6446,
      "lines": 6447,
      "Ġclaims": 6448,
      "ĠSci": 6449,
      "Ġplate": 6450,
      "Ġmedium": 6451,
      "Ġangry": 6452,
      "Ġinvestment": 6453,
      "Ġgovernments": 6454,
      "Ġspiritual": 6455,
      "Ġoutcomes": 6456,
      "76": 6457,
      "ĠBob": 6458,
      "Ġmechanism": 6459,
      "racy": 6460,
      "plicates": 6461,
      "Ġdiscussed": 6462,
      "Ġstated": 6463,
      "Ġproduces": 6464,
      "Ġrural": 6465,
      "alysis": 6466,
      "Ġtrad": 6467,
      "aks": 6468,
      "Ġsell": 6469,
      "Ġfalse": 6470,
      "uses": 6471,
      "oles": 6472,
      "ĠLake": 6473,
      "ingly": 6474,
      "ĠInformation": 6475,
      "nAlthough": 6476,
      "ĠMicro": 6477,
      "Ġboat": 6478,
      "Ġconcentration": 6479,
      "Ġspaces": 6480,
      "igenous": 6481,
      "Ġ2002": 6482,
      "cd": 6483,
      "Ġdress": 6484,
      "Ġshift": 6485,
      "itage": 6486,
      "ĠPacific": 6487,
      "ĠCatholic": 6488,
      "Ġtight": 6489,
      "nof": 6490,
      "fit": 6491,
      "oded": 6492,
      "Ġconscious": 6493,
      "Ã¼st": 6494,
      "Ġprotocol": 6495,
      "irty": 6496,
      "Ġrapidly": 6497,
      "Ġ400": 6498,
      "Ġrepeated": 6499,
      "Ġassume": 6500,
      "Ġdistingu": 6501,
      "ascular": 6502,
      "ĠRussian": 6503,
      "Ġclient": 6504,
      "Ġleaf": 6505,
      "Ġdiscovery": 6506,
      "ĠTHE": 6507,
      "nThat": 6508,
      "Ġreact": 6509,
      "nm": 6510,
      "Ġneck": 6511,
      "Ġfacilities": 6512,
      "ĠCD": 6513,
      "ĠTem": 6514,
      "Ġmovements": 6515,
      "ĠWomen": 6516,
      "Ġsession": 6517,
      "oto": 6518,
      "Ġcapable": 6519,
      "aser": 6520,
      "Ġprocedures": 6521,
      "Ġasks": 6522,
      "Ġfailed": 6523,
      "Ġcalculations": 6524,
      "how": 6525,
      "Ġyield": 6526,
      "ĠInstead": 6527,
      "Ġcouple": 6528,
      "Ġ31": 6529,
      "Ġdut": 6530,
      "Ġnarr": 6531,
      "Ġimmun": 6532,
      "Ġofficials": 6533,
      "Ġguidelines": 6534,
      "Ġvowels": 6535,
      "Ġunknown": 6536,
      "Ġscores": 6537,
      "Ġappreci": 6538,
      "ĠAnother": 6539,
      "Ġsubstant": 6540,
      "07": 6541,
      "umps": 6542,
      "arant": 6543,
      "OW": 6544,
      "eles": 6545,
      "Ġinternet": 6546,
      "Ġconcerned": 6547,
      "Ġdiversity": 6548,
      "Ġlst": 6549,
      "sor": 6550,
      "faces": 6551,
      "Ġapart": 6552,
      "Im": 6553,
      "Ġdur": 6554,
      "olf": 6555,
      "uts": 6556,
      "Ġrocks": 6557,
      "Ġconvent": 6558,
      "Ġrecognize": 6559,
      "Ġlessons": 6560,
      "coming": 6561,
      "Ġlun": 6562,
      "Ġhandling": 6563,
      "Ġ\"'": 6564,
      "Ġdaughter": 6565,
      "dule": 6566,
      "ato": 6567,
      "ĠCharles": 6568,
      "ĠSign": 6569,
      "Ġ1000": 6570,
      "ĠReport": 6571,
      "war": 6572,
      "ĠLibrary": 6573,
      "ĠNor": 6574,
      "Ġpercentage": 6575,
      "Ġsuffering": 6576,
      "Ġwish": 6577,
      "fl": 6578,
      "ĠNOT": 6579,
      "nda": 6580,
      "eless": 6581,
      "ĠMiddle": 6582,
      "ville": 6583,
      "nTom": 6584,
      "Ġchick": 6585,
      "ga": 6586,
      "Ġcompare": 6587,
      "ĠJose": 6588,
      "Ġcm": 6589,
      "nclass": 6590,
      "Ġdra": 6591,
      "Ġfertil": 6592,
      "nAd": 6593,
      "hemical": 6594,
      ".;": 6595,
      "lers": 6596,
      "ĠJud": 6597,
      "Ġcardi": 6598,
      "Ġpure": 6599,
      "Ġexchange": 6600,
      "Ġ2019": 6601,
      "Ġfunctionality": 6602,
      "Ġraw": 6603,
      "Ġunderstood": 6604,
      "iki": 6605,
      "Ġframe": 6606,
      "imize": 6607,
      "ĠThink": 6608,
      "Ġfacilit": 6609,
      "Ġcandid": 6610,
      "ĠInc": 6611,
      "random": 6612,
      "version": 6613,
      "Ġlayers": 6614,
      "oviet": 6615,
      "But": 6616,
      "Ġorganisms": 6617,
      "ĠSea": 6618,
      "Ġwasn": 6619,
      "Ġappearance": 6620,
      "Ġbones": 6621,
      "Ġprinciple": 6622,
      "Ġcriteria": 6623,
      "^^^^": 6624,
      "organ": 6625,
      "Ġratio": 6626,
      "Ġwestern": 6627,
      "ellect": 6628,
      "Ġunless": 6629,
      "ĠHTML": 6630,
      "iform": 6631,
      "Ġtal": 6632,
      "cons": 6633,
      "Ġtraffic": 6634,
      "ĠRobert": 6635,
      "77": 6636,
      "ulin": 6637,
      "Ġprepare": 6638,
      "Ġinfrastructure": 6639,
      "93": 6640,
      "ĠIP": 6641,
      "ĠElect": 6642,
      "nRes": 6643,
      "Ġexplicitly": 6644,
      "ĠTw": 6645,
      "ĠÐ": 6646,
      "Ġmit": 6647,
      "ĠEconom": 6648,
      "QL": 6649,
      "Ġmillions": 6650,
      "],\\": 6651,
      "Ġfunds": 6652,
      "Ġamazing": 6653,
      "host": 6654,
      "Ġdil": 6655,
      "Ġflight": 6656,
      "LE": 6657,
      "ulti": 6658,
      "free": 6659,
      "flo": 6660,
      "SON": 6661,
      "cycl": 6662,
      "dig": 6663,
      "Ġlaun": 6664,
      "Ġcontem": 6665,
      "Ġmuse": 6666,
      "ching": 6667,
      "Ġcats": 6668,
      "Ġsharing": 6669,
      "Ġprison": 6670,
      "ĠControl": 6671,
      "Ġcircumst": 6672,
      "chers": 6673,
      "tenance": 6674,
      "TH": 6675,
      "94": 6676,
      "Ġsignature": 6677,
      "Ġobservation": 6678,
      "Ġmedications": 6679,
      "omach": 6680,
      "Ġentry": 6681,
      "Ġjustice": 6682,
      "Ġcrisis": 6683,
      "Ø§": 6684,
      "Ġresidents": 6685,
      "ĠMia": 6686,
      "plication": 6687,
      "85": 6688,
      "Ġinteract": 6689,
      "Ġexception": 6690,
      "Ġbath": 6691,
      "That": 6692,
      "Ġsatell": 6693,
      "-\\": 6694,
      "antig": 6695,
      "Ġmanip": 6696,
      "Ġquery": 6697,
      "ĠRussia": 6698,
      "cher": 6699,
      "parent": 6700,
      "Ġ(\\\"": 6701,
      "larak": 6702,
      "Ġobjective": 6703,
      "Ġcircle": 6704,
      "Ġenable": 6705,
      "iate": 6706,
      "umns": 6707,
      "Ġbelie": 6708,
      "aker": 6709,
      "ĠAcc": 6710,
      "OC": 6711,
      "Ġdomain": 6712,
      "Ġallerg": 6713,
      "cs": 6714,
      "oster": 6715,
      "ĠBet": 6716,
      "Ġclust": 6717,
      "Ġnarrow": 6718,
      "orter": 6719,
      "Ġrein": 6720,
      "ĠLand": 6721,
      "Ġaccepted": 6722,
      "plicated": 6723,
      "Ġsuitable": 6724,
      "Ġregularly": 6725,
      "uilding": 6726,
      "ĠHenry": 6727,
      "Ġenhance": 6728,
      "Ä±z": 6729,
      "Ġevaluation": 6730,
      "Ġanswers": 6731,
      "Ġdirector": 6732,
      "nLast": 6733,
      "Ġsuffer": 6734,
      "Ġsod": 6735,
      "Ġgather": 6736,
      "Ġreplaced": 6737,
      "Ġpron": 6738,
      "Ġmobile": 6739,
      "Ġoriginally": 6740,
      "antigravity": 6741,
      "aki": 6742,
      "gemini": 6743,
      "Ġtag": 6744,
      "False": 6745,
      "pring": 6746,
      "Ġproducing": 6747,
      "Ġfunding": 6748,
      "Ġreform": 6749,
      "Ġsuc": 6750,
      "Ġkull": 6751,
      "Ġopening": 6752,
      "pol": 6753,
      "Ùİ": 6754,
      "Ġsyndrome": 6755,
      "Ġconfir": 6756,
      "Ġaccounts": 6757,
      "ipping": 6758,
      "Ġflew": 6759,
      "ĠOut": 6760,
      "Ġroute": 6761,
      "Ġlisted": 6762,
      "Ġdecide": 6763,
      "param": 6764,
      "ushed": 6765,
      "72": 6766,
      "TS": 6767,
      "Ġsoldiers": 6768,
      "Ġtank": 6769,
      "ĠDet": 6770,
      "Ġtells": 6771,
      "Ġcomparison": 6772,
      "Ġfewer": 6773,
      "Ġintelligence": 6774,
      "ogether": 6775,
      "mid": 6776,
      "cluding": 6777,
      "Ġattribute": 6778,
      "icon": 6779,
      "Ġimpossible": 6780,
      "oves": 6781,
      "Ġagriculture": 6782,
      "Ġplot": 6783,
      "Ġvehicles": 6784,
      "esterol": 6785,
      "Ġtransition": 6786,
      "Ġwidth": 6787,
      "itors": 6788,
      "ĠHam": 6789,
      "Ġchart": 6790,
      "ibilities": 6791,
      "onds": 6792,
      "Ġgrav": 6793,
      "Ġorganized": 6794,
      "92": 6795,
      "AB": 6796,
      "Ġstages": 6797,
      "sembly": 6798,
      "Ġrecovery": 6799,
      "ĠPeter": 6800,
      "Ġpregnancy": 6801,
      "vironments": 6802,
      "ĠWild": 6803,
      "ĠÃĹ": 6804,
      "rat": 6805,
      "Ġmyth": 6806,
      "raining": 6807,
      "allel": 6808,
      "ĠSuch": 6809,
      "Ġaccident": 6810,
      "Ġmouse": 6811,
      "Ġrect": 6812,
      "Ġlake": 6813,
      "ifications": 6814,
      "Ġsees": 6815,
      "Ġmolecules": 6816,
      "Ġrecycl": 6817,
      "calls": 6818,
      "Ġswitch": 6819,
      "Ġdeaths": 6820,
      "ditional": 6821,
      "Ġho": 6822,
      "command": 6823,
      "pace": 6824,
      "Ġrevers": 6825,
      "Ġdefic": 6826,
      "ĠKnow": 6827,
      "Ġprints": 6828,
      "Ġinject": 6829,
      "Ġsecondary": 6830,
      "eper": 6831,
      "ĠDiv": 6832,
      "Ġplays": 6833,
      "Ġolarak": 6834,
      "Ġaccomp": 6835,
      "Ġowner": 6836,
      "Ġentirely": 6837,
      "Ġtoler": 6838,
      "ĠCompany": 6839,
      "pleted": 6840,
      "Ġinflammation": 6841,
      "Ġhur": 6842,
      "Ġnan": 6843,
      "under": 6844,
      "Ġcomments": 6845,
      "Ġlegs": 6846,
      "Ġparties": 6847,
      "Ġmarine": 6848,
      "nAnother": 6849,
      "aha": 6850,
      "Ġnormally": 6851,
      "ocratic": 6852,
      "IM": 6853,
      "aya": 6854,
      "Ġinsert": 6855,
      "Ġmeters": 6856,
      "ĠMain": 6857,
      "Mod": 6858,
      "Ã¼stÃ¼": 6859,
      "Ġrepresentation": 6860,
      "ĠPC": 6861,
      "Ġcorpor": 6862,
      "Wh": 6863,
      "Ġindicates": 6864,
      "Ġachieved": 6865,
      "ĠAnn": 6866,
      "Ġtick": 6867,
      "Ġstanding": 6868,
      "Ġconstraints": 6869,
      "ĠPsych": 6870,
      "Ġintroduction": 6871,
      "bert": 6872,
      "Ġmarriage": 6873,
      "Ġ75": 6874,
      "aughed": 6875,
      "esity": 6876,
      "Ġresponses": 6877,
      "Ġru": 6878,
      "Ġindicating": 6879,
      "ĠStep": 6880,
      "ctic": 6881,
      "power": 6882,
      "ĠStudies": 6883,
      "Ġopinion": 6884,
      "())\\": 6885,
      "ĠSoviet": 6886,
      "\":[": 6887,
      "Ġlaughed": 6888,
      "tage": 6889,
      "Ġinfected": 6890,
      "ona": 6891,
      "ua": 6892,
      "--------------------------------": 6893,
      "ĠNature": 6894,
      "Ġnutrition": 6895,
      "Ġinner": 6896,
      "$$\\": 6897,
      "Ġchapter": 6898,
      "scale": 6899,
      "ĠTime": 6900,
      "Ġcontents": 6901,
      "Ġnearby": 6902,
      "ĠFederal": 6903,
      "bing": 6904,
      "Ġfab": 6905,
      "ĠPower": 6906,
      "Ġvisited": 6907,
      "Ġsensitive": 6908,
      "Ġadvoc": 6909,
      "PR": 6910,
      "pred": 6911,
      "nCon": 6912,
      "Ġtruck": 6913,
      "Ġcomputers": 6914,
      "ĠLouis": 6915,
      "Ġmanaged": 6916,
      "Ġpassage": 6917,
      "ĠOnly": 6918,
      "ĠManagement": 6919,
      "agers": 6920,
      "inet": 6921,
      "hips": 6922,
      "Ġincorrect": 6923,
      "Ġbattery": 6924,
      "Can": 6925,
      "Ġsurvive": 6926,
      "Ġadequ": 6927,
      "Ġopposite": 6928,
      "ĠHistor": 6929,
      "ĠFrancis": 6930,
      "Ġbusinesses": 6931,
      "Ġbranch": 6932,
      "Ġsmooth": 6933,
      "nMost": 6934,
      "ais": 6935,
      "Ġtun": 6936,
      "ĠNav": 6937,
      "iology": 6938,
      "ĠGroup": 6939,
      "`.": 6940,
      "ĠProv": 6941,
      "uy": 6942,
      "Ġrevealed": 6943,
      "Ġpossibly": 6944,
      "inally": 6945,
      "oted": 6946,
      "Ġlands": 6947,
      "bered": 6948,
      "Ġregional": 6949,
      "rd": 6950,
      "oor": 6951,
      "Ġcorn": 6952,
      "ĠPers": 6953,
      "Ġhydro": 6954,
      "password": 6955,
      "Ġancest": 6956,
      "Ġinstrument": 6957,
      "ĠÃ¢": 6958,
      "ĠanlamÄ±": 6959,
      "ĠOx": 6960,
      "Ġseeing": 6961,
      "Ġmassive": 6962,
      "Ġthanked": 6963,
      "Ġpossess": 6964,
      "Ġlifest": 6965,
      "Ġfigures": 6966,
      "ceived": 6967,
      "Ġinsp": 6968,
      "Ġbudget": 6969,
      "Ġimproving": 6970,
      "nex": 6971,
      "break": 6972,
      "teen": 6973,
      "Ġaccum": 6974,
      "Ġacts": 6975,
      "look": 6976,
      "ĠGood": 6977,
      "Ġsentences": 6978,
      "To": 6979,
      "Ġworse": 6980,
      "BN": 6981,
      "Ġcolour": 6982,
      "ĠVirginia": 6983,
      "Ġspeaking": 6984,
      "Ġmonitor": 6985,
      "Ġintermediate": 6986,
      "ioxide": 6987,
      "Ġexperiments": 6988,
      "CS": 6989,
      "Ġprevention": 6990,
      "Ġinsects": 6991,
      "Ġcomprehensive": 6992,
      "being": 6993,
      "aud": 6994,
      "ĠDel": 6995,
      "email": 6996,
      "indu": 6997,
      "Ġsurvival": 6998,
      "When": 6999,
      "Ġhighlight": 7000,
      "ĠBro": 7001,
      "Ġdental": 7002,
      "Ġpossibility": 7003,
      "Ġsplit": 7004,
      "fish": 7005,
      "osph": 7006,
      "Ġsports": 7007,
      "ansion": 7008,
      "Ġcustomers": 7009,
      "osm": 7010,
      "Ġdiverse": 7011,
      "87": 7012,
      "Summary": 7013,
      "Ġmedication": 7014,
      "Ġdrawing": 7015,
      "nOther": 7016,
      "Ġera": 7017,
      "ĠEnvironmental": 7018,
      "Ġwarming": 7019,
      "ropical": 7020,
      "born": 7021,
      "Ġdedic": 7022,
      "hell": 7023,
      "Ġequation": 7024,
      "Ġate": 7025,
      "Ġforget": 7026,
      "hma": 7027,
      "Ġarchitecture": 7028,
      "gent": 7029,
      "ĠScient": 7030,
      "Ġindeed": 7031,
      "athe": 7032,
      "Ġdensity": 7033,
      "Ġhat": 7034,
      "Ġholds": 7035,
      "Ġlandscape": 7036,
      "Ġleadership": 7037,
      "Ġabund": 7038,
      "400": 7039,
      "Ġuniverse": 7040,
      "ĠMag": 7041,
      "posal": 7042,
      "nLog": 7043,
      "Ġstreet": 7044,
      "ĠMont": 7045,
      "Ġdesired": 7046,
      "Ġpurchase": 7047,
      "Ġcircuit": 7048,
      "Ġadministration": 7049,
      "Ġdust": 7050,
      "Ġodd": 7051,
      "ĠDec": 7052,
      "Ġaqu": 7053,
      "bin": 7054,
      "hesis": 7055,
      "Ġadopted": 7056,
      "Ġassert": 7057,
      "Based": 7058,
      "Ġassistance": 7059,
      "oral": 7060,
      "edu": 7061,
      "Ġamb": 7062,
      "ocracy": 7063,
      "Ġagreement": 7064,
      "Ġmixed": 7065,
      "Ġlimits": 7066,
      "120": 7067,
      "Ġgrew": 7068,
      "ĠShow": 7069,
      "Ġworldwide": 7070,
      "aria": 7071,
      "race": 7072,
      "Ġvolunte": 7073,
      "Ġdecline": 7074,
      "Ġrealized": 7075,
      "Ġintake": 7076,
      "prime": 7077,
      "Ġextensive": 7078,
      "Ġpositions": 7079,
      "Ġahead": 7080,
      "obe": 7081,
      "ashion": 7082,
      "ĠVer": 7083,
      "Ġnetworks": 7084,
      "Ġharmful": 7085,
      "Ġsignals": 7086,
      "Ġdoctors": 7087,
      "ĠConstitution": 7088,
      "Ġhal": 7089,
      "Ġearn": 7090,
      "Ġends": 7091,
      "Ġstudying": 7092,
      "Ġhousehold": 7093,
      "ribe": 7094,
      "Ġtruly": 7095,
      "uma": 7096,
      "Ġfocusing": 7097,
      "Ġenvironments": 7098,
      "Ġfinish": 7099,
      "Ġequivalent": 7100,
      "nWhy": 7101,
      "Ġfossil": 7102,
      "Ġeld": 7103,
      "ĠAtt": 7104,
      "asive": 7105,
      "agues": 7106,
      "Ġdemonstrate": 7107,
      "Ġstomach": 7108,
      "ĠCommon": 7109,
      "ĠĠĠĠĠĠĠĠĠĠĠĠ": 7110,
      "Ġcourses": 7111,
      "rec": 7112,
      "Ġborder": 7113,
      "Created": 7114,
      "Ġimper": 7115,
      "Ġreject": 7116,
      "Ġhealthcare": 7117,
      "entence": 7118,
      "Ġasc": 7119,
      "Ġflav": 7120,
      "Ġupdated": 7121,
      "ĠTor": 7122,
      "Åĵ": 7123,
      "ĠCommit": 7124,
      "Ġengage": 7125,
      "Ġmovie": 7126,
      "Ġplayers": 7127,
      "ĠFlorida": 7128,
      "Ġholding": 7129,
      "ĠModel": 7130,
      "izon": 7131,
      "Ġcalcium": 7132,
      "Ġpoet": 7133,
      "Ġmarried": 7134,
      "sm": 7135,
      "Ġtea": 7136,
      "Ġmanufacturing": 7137,
      "Ġcategories": 7138,
      "press": 7139,
      "Ġbrave": 7140,
      "Ġsight": 7141,
      "Ġrespectively": 7142,
      "Ġrelax": 7143,
      "Ġacids": 7144,
      "Ġafford": 7145,
      "ested": 7146,
      "Ġaudience": 7147,
      "Ġextended": 7148,
      "Ġolu": 7149,
      "Ġelectronic": 7150,
      "Ġconsistent": 7151,
      "Ġcollabor": 7152,
      "Ġsoul": 7153,
      "Ġkitchen": 7154,
      "ĠFe": 7155,
      "Ġmultip": 7156,
      "ĠCanadian": 7157,
      "Ġexpressed": 7158,
      "Ġformula": 7159,
      "ĠColumb": 7160,
      "Ġfrequent": 7161,
      "Ġinteraction": 7162,
      "MasaÃ¼stÃ¼": 7163,
      "inction": 7164,
      "Ġ1999": 7165,
      "Ġderived": 7166,
      "Ġtaste": 7167,
      "Ġspl": 7168,
      "ounter": 7169,
      "Ġtransmission": 7170,
      "Ġnewsp": 7171,
      "Ġbrand": 7172,
      "Ġforests": 7173,
      "current": 7174,
      "rot": 7175,
      "150": 7176,
      "89": 7177,
      "Ġbehaviour": 7178,
      "clusive": 7179,
      "ctive": 7180,
      "omic": 7181,
      "Ġlatter": 7182,
      "but": 7183,
      "Ġcrop": 7184,
      "product": 7185,
      "tasks": 7186,
      "Ġcalculated": 7187,
      "Ġsteel": 7188,
      "ĠLong": 7189,
      "Ġbool": 7190,
      "Ġprincip": 7191,
      "section": 7192,
      "aved": 7193,
      "\":{\"": 7194,
      "abits": 7195,
      "Ġfoundation": 7196,
      "Ġhydrogen": 7197,
      "Ġwildlife": 7198,
      "Ġsections": 7199,
      "Ġrigor": 7200,
      "http": 7201,
      "Ġfighting": 7202,
      "Ġcaught": 7203,
      "Ġbigger": 7204,
      "Ġslide": 7205,
      "ĠRome": 7206,
      "inding": 7207,
      "itter": 7208,
      "ĠDan": 7209,
      "indrome": 7210,
      "Ġreaders": 7211,
      "Ġmur": 7212,
      "Ġobl": 7213,
      "never": 7214,
      "ocked": 7215,
      "Ġbeneficial": 7216,
      "84": 7217,
      "Ġdioxide": 7218,
      "Ġdistrict": 7219,
      "inte": 7220,
      "Ġshapes": 7221,
      "nto": 7222,
      "aped": 7223,
      "zed": 7224,
      "plements": 7225,
      "Ġsummary": 7226,
      "Ġcalories": 7227,
      "ĠThrough": 7228,
      "nfor": 7229,
      "\":[{\"": 7230,
      "Ġmac": 7231,
      "abled": 7232,
      "Ġthor": 7233,
      "Ġhus": 7234,
      "ĠOffice": 7235,
      "range": 7236,
      "Ġagencies": 7237,
      "ĠReview": 7238,
      "Ġlaunched": 7239,
      "ĠBir": 7240,
      "Ġantibiot": 7241,
      "ĠdÃ¼": 7242,
      "stract": 7243,
      "/.": 7244,
      "gans": 7245,
      "Ġboys": 7246,
      "ĠSk": 7247,
      "nDuring": 7248,
      "rants": 7249,
      "nNot": 7250,
      "wing": 7251,
      "Ġyounger": 7252,
      "Ġsupports": 7253,
      "ĠUSA": 7254,
      "Ġintellect": 7255,
      "check": 7256,
      "Ġstruggle": 7257,
      "Ġ1980": 7258,
      "ĠBank": 7259,
      "Ġchosen": 7260,
      "Ġsmile": 7261,
      "Ġknows": 7262,
      "Ġinjuries": 7263,
      "Ġrespir": 7264,
      "ĠEnd": 7265,
      "Ġdates": 7266,
      "Ġrecon": 7267,
      "Ġskill": 7268,
      "ĠGrand": 7269,
      "ĠWhe": 7270,
      "ĠNations": 7271,
      "Ġdivision": 7272,
      "edy": 7273,
      "umes": 7274,
      "TA": 7275,
      "Ġmaintenance": 7276,
      "ĠLabor": 7277,
      "RC": 7278,
      "Val": 7279,
      "ĠLoss": 7280,
      "Ġremote": 7281,
      "while": 7282,
      "Ġpainting": 7283,
      "\\\\\\\"": 7284,
      "Ġsupplies": 7285,
      "RA": 7286,
      "Ġmargin": 7287,
      "Ġangle": 7288,
      "pet": 7289,
      "apped": 7290,
      "lets": 7291,
      "ĠGlobal": 7292,
      "Ġscholars": 7293,
      "Ġhero": 7294,
      "IF": 7295,
      "ĠVict": 7296,
      "nCons": 7297,
      "Ġdol": 7298,
      "Ġnurs": 7299,
      "Ġdestroyed": 7300,
      "Ġunus": 7301,
      "Ġfet": 7302,
      "Ġinher": 7303,
      "\"}}": 7304,
      "Ġadds": 7305,
      "stone": 7306,
      "Ġcircumstances": 7307,
      "CO": 7308,
      "Ġsupplement": 7309,
      "Ġmarked": 7310,
      "Ġprofessionals": 7311,
      "ĠValue": 7312,
      "Ġwww": 7313,
      "Ġimplemented": 7314,
      "ĠFinally": 7315,
      "ogue": 7316,
      "Ġyard": 7317,
      "ĠMa": 7318,
      "Ġgal": 7319,
      "Ġminute": 7320,
      "Ġplane": 7321,
      "Ġlaboratory": 7322,
      "ĠThose": 7323,
      "ĠâĨĴ": 7324,
      "Ġsav": 7325,
      "Ġfulf": 7326,
      "Ġdiscipl": 7327,
      "Ġpup": 7328,
      "ĠSec": 7329,
      "ĠFollow": 7330,
      "ĠParis": 7331,
      "Ġtroops": 7332,
      "Ġhem": 7333,
      "Ġreader": 7334,
      "Ġwonderful": 7335,
      "Ġfasc": 7336,
      "Ġsubs": 7337,
      "Ġartif": 7338,
      "((": 7339,
      "ih": 7340,
      "akers": 7341,
      "Ġzone": 7342,
      "ĠIdent": 7343,
      "Ġaircraft": 7344,
      "Ġdelay": 7345,
      "ĠCode": 7346,
      "Ġunable": 7347,
      "New": 7348,
      "Ġdecade": 7349,
      "Ġdifficulty": 7350,
      ".âĢĻ": 7351,
      "Ġcamera": 7352,
      "Ġpersist": 7353,
      "liament": 7354,
      "Ġconnections": 7355,
      "iÄŁ": 7356,
      "nee": 7357,
      "Ġtrained": 7358,
      "Ġrobot": 7359,
      "even": 7360,
      "orses": 7361,
      "Ġattend": 7362,
      "ĠInitial": 7363,
      "ĠComput": 7364,
      "ĠRob": 7365,
      "En": 7366,
      "Americ": 7367,
      "ummy": 7368,
      "Ġmembr": 7369,
      "names": 7370,
      "ĠAbout": 7371,
      "illy": 7372,
      "Ġjoined": 7373,
      "Ġpermanent": 7374,
      "Ġcomposition": 7375,
      "ĠWhich": 7376,
      "ĠChe": 7377,
      "Ġchecks": 7378,
      "ĠAustralian": 7379,
      "Ġpowers": 7380,
      "omes": 7381,
      "ĠExper": 7382,
      "Ġring": 7383,
      "Ġfinds": 7384,
      "Ġbiggest": 7385,
      "Ġalign": 7386,
      ".\\\")\\": 7387,
      "ĠDesign": 7388,
      "eric": 7389,
      "ĠStreet": 7390,
      "Ġattached": 7391,
      "Ġrank": 7392,
      "generated": 7393,
      "Ġ120": 7394,
      "anches": 7395,
      "ypes": 7396,
      "Ġimmediate": 7397,
      "Ġinterface": 7398,
      "Ġcholesterol": 7399,
      "Ġaer": 7400,
      "Ġexecute": 7401,
      "Ġroof": 7402,
      "ĠColor": 7403,
      "ĠâĢ¢": 7404,
      "Ġgreatly": 7405,
      "ĠYet": 7406,
      "txt": 7407,
      "ribed": 7408,
      "inity": 7409,
      "nMore": 7410,
      "Ġcustomer": 7411,
      "Ġconcrete": 7412,
      "Ġchildhood": 7413,
      "dep": 7414,
      "Ġcorrection": 7415,
      "Ġelectron": 7416,
      "ymph": 7417,
      "ĠProfessor": 7418,
      "ita": 7419,
      "ĠFrank": 7420,
      "Ġshut": 7421,
      "operation": 7422,
      "toolSummary": 7423,
      "ĠSup": 7424,
      "ĠAS": 7425,
      "cknow": 7426,
      "iatric": 7427,
      "Ġdoubt": 7428,
      "Ġath": 7429,
      "Ġbutton": 7430,
      "Ġlinear": 7431,
      "ĠBur": 7432,
      "Ġmild": 7433,
      "ĠMad": 7434,
      "ĠTV": 7435,
      "normal": 7436,
      "Ġsucceed": 7437,
      "nStep": 7438,
      "Ġconcise": 7439,
      "Ġblow": 7440,
      "yles": 7441,
      "gers": 7442,
      "Ġclothes": 7443,
      "Ġgluc": 7444,
      "Ġbridge": 7445,
      "Ġcutting": 7446,
      "Ġcompr": 7447,
      "ĠÃ¼": 7448,
      "ename": 7449,
      "Ġcrow": 7450,
      "Man": 7451,
      "zil": 7452,
      "Ġconsumers": 7453,
      "ĠJoseph": 7454,
      "Ġtemp": 7455,
      "Ġseemed": 7456,
      "matrix": 7457,
      "Is": 7458,
      "bar": 7459,
      "ogram": 7460,
      "toolAction": 7461,
      "ĠLib": 7462,
      "reland": 7463,
      "63": 7464,
      "Ġsyn": 7465,
      "ĠVis": 7466,
      "Ġcalling": 7467,
      "map": 7468,
      "Ġdepartment": 7469,
      "Ġethnic": 7470,
      "burg": 7471,
      "Ġdedicated": 7472,
      "Ġaccuracy": 7473,
      "Ġcraft": 7474,
      "CD": 7475,
      "Ġcontained": 7476,
      "nw": 7477,
      "Ġ...\\": 7478,
      "leri": 7479,
      "ĠBrown": 7480,
      "Ġyap": 7481,
      "allow": 7482,
      "Ġcultures": 7483,
      "Ġelectro": 7484,
      "ĠCare": 7485,
      "Ġboost": 7486,
      "Ġmoves": 7487,
      "Ġwriter": 7488,
      "\"}}]}": 7489,
      "det": 7490,
      "Ġcompetition": 7491,
      "antly": 7492,
      "ĠFibonacci": 7493,
      "ola": 7494,
      "icide": 7495,
      "nTask": 7496,
      "nh": 7497,
      "Ġresolution": 7498,
      "Ġsupposed": 7499,
      "Ġnervous": 7500,
      "Ġagency": 7501,
      "Ġtut": 7502,
      "Ġbio": 7503,
      "Sh": 7504,
      "Ġinstitution": 7505,
      "ĠSupp": 7506,
      "ĠSouthern": 7507,
      "ĠIll": 7508,
      "Ġmachines": 7509,
      "iders": 7510,
      "Ġnose": 7511,
      "âĢĺ": 7512,
      "ĠConn": 7513,
      "Ġmeal": 7514,
      "kes": 7515,
      "anta": 7516,
      "\\\"]\\": 7517,
      "Ġcapture": 7518,
      "osh": 7519,
      "replace": 7520,
      "91": 7521,
      "plan": 7522,
      "Ġconstitution": 7523,
      "Ġflying": 7524,
      "Ġsurprise": 7525,
      "keys": 7526,
      "Ġintervention": 7527,
      "Ġthousand": 7528,
      "ferent": 7529,
      "sey": 7530,
      "Ġbutterf": 7531,
      "rine": 7532,
      "child": 7533,
      "Ġchrom": 7534,
      "`\\": 7535,
      "Ġnecessarily": 7536,
      "Ġdriver": 7537,
      "Ġpermission": 7538,
      "stein": 7539,
      "king": 7540,
      "John": 7541,
      "Ġvessels": 7542,
      "Ġthrow": 7543,
      "orig": 7544,
      "Ġdisp": 7545,
      "Ġauthorities": 7546,
      "Ġbreathing": 7547,
      "Ġourselves": 7548,
      "Ġprecise": 7549,
      "Ġemotions": 7550,
      "ĠGold": 7551,
      "Ġasking": 7552,
      "Ġ1998": 7553,
      "ena": 7554,
      "rey": 7555,
      "Un": 7556,
      ".|\\": 7557,
      "Ġstores": 7558,
      "ĠGal": 7559,
      "Ġultimately": 7560,
      "Ġphilosophy": 7561,
      "Ġlaunch": 7562,
      "Ġmanager": 7563,
      "esis": 7564,
      "Ġtit": 7565,
      "ĠBul": 7566,
      "Ġmigration": 7567,
      "Ġnine": 7568,
      "ĠJane": 7569,
      "Ġtwenty": 7570,
      "Ġdeli": 7571,
      "ocolate": 7572,
      "Ġmaps": 7573,
      "Ġpin": 7574,
      "Ġpresentation": 7575,
      "ĠSl": 7576,
      "osion": 7577,
      "itudes": 7578,
      "ora": 7579,
      "Ġmagnetic": 7580,
      "Ġinstalled": 7581,
      "Ġtuple": 7582,
      "Ġreactions": 7583,
      "Ġthread": 7584,
      "ĠWell": 7585,
      "Ġmechanisms": 7586,
      "Ġreceiving": 7587,
      "Ġphrase": 7588,
      "total": 7589,
      "Ġhoney": 7590,
      "Ġbrings": 7591,
      "Re": 7592,
      "ĠHaw": 7593,
      "Ġbehaviors": 7594,
      "rimination": 7595,
      "âĢĻ,": 7596,
      "Ġgrab": 7597,
      "ĠNatural": 7598,
      "Ġuniversity": 7599,
      "label": 7600,
      "Ġstands": 7601,
      "ocy": 7602,
      "ĠChic": 7603,
      "onia": 7604,
      "Ġdivis": 7605,
      "ĠHome": 7606,
      "ĠMichael": 7607,
      "},\\": 7608,
      "common": 7609,
      "Ġremark": 7610,
      "Ġfiber": 7611,
      "rink": 7612,
      "Ġdrag": 7613,
      "Ġveter": 7614,
      "IR": 7615,
      "Ġsusp": 7616,
      "Ġpriority": 7617,
      "Ġcurious": 7618,
      "inated": 7619,
      "Ġapples": 7620,
      "response": 7621,
      "Ġstuff": 7622,
      "ĠEth": 7623,
      "Ġproceed": 7624,
      "asty": 7625,
      "Ġcircul": 7626,
      "ucky": 7627,
      "Ġherself": 7628,
      "[-": 7629,
      "Ġdesire": 7630,
      "lÄ±k": 7631,
      "ĠStudy": 7632,
      "ĠDisease": 7633,
      "Ġ1970": 7634,
      "Ġcryst": 7635,
      "ighter": 7636,
      "Ġcritic": 7637,
      "ĠItal": 7638,
      "Ġvocab": 7639,
      "ĠNorthern": 7640,
      "Ġsupporting": 7641,
      "ĠCommittee": 7642,
      "Ġphotograph": 7643,
      "Ġenjoyed": 7644,
      "Ġfeeding": 7645,
      "Ġauthent": 7646,
      "inder": 7647,
      "Ġshiny": 7648,
      "Ġdent": 7649,
      "None": 7650,
      "ĠRad": 7651,
      "Ġlifestyle": 7652,
      "Ġtrouble": 7653,
      "By": 7654,
      "nOutput": 7655,
      "isk": 7656,
      "Ġlabels": 7657,
      "Ġmice": 7658,
      "iated": 7659,
      "Ġconfidence": 7660,
      "hav": 7661,
      "Ġsho": 7662,
      "Ġnucle": 7663,
      "ĠAL": 7664,
      "agraph": 7665,
      "Ġdefe": 7666,
      "Ġwitness": 7667,
      "Ġguarant": 7668,
      "rating": 7669,
      "Ġsitting": 7670,
      "ĠIreland": 7671,
      "ĠKh": 7672,
      "Ġnone": 7673,
      "ĠCa": 7674,
      "Ġrefuge": 7675,
      "ref": 7676,
      "Ġbreath": 7677,
      "Ġtransportation": 7678,
      "ĠSpain": 7679,
      "Ġarrange": 7680,
      "ett": 7681,
      "Ġwilling": 7682,
      "Ġnerve": 7683,
      "Ġputting": 7684,
      "Ġincred": 7685,
      "Ġquantity": 7686,
      "Ġfunctional": 7687,
      "oose": 7688,
      "aked": 7689,
      "gsm": 7690,
      "Ġdrain": 7691,
      "Ġsmoke": 7692,
      "Line": 7693,
      "ĠSara": 7694,
      "Ġparallel": 7695,
      "Ġoutdo": 7696,
      "Ġstroke": 7697,
      "Ġsister": 7698,
      "Ġlies": 7699,
      "Ġintent": 7700,
      "Ġprofit": 7701,
      "loss": 7702,
      "instance": 7703,
      "ĠLike": 7704,
      "Ġcommunicate": 7705,
      "otes": 7706,
      "https": 7707,
      "ĠCult": 7708,
      "Ġvote": 7709,
      "soft": 7710,
      "Ġregulations": 7711,
      "Ġrising": 7712,
      "Ġdelivery": 7713,
      "torch": 7714,
      "utch": 7715,
      "Ġvirtual": 7716,
      "Ġwhatever": 7717,
      "ĠOpen": 7718,
      "Ġvac": 7719,
      "ĠMill": 7720,
      "Ġwatched": 7721,
      "ĠMethod": 7722,
      "rency": 7723,
      "Ġcompounds": 7724,
      "icate": 7725,
      "Ġoccasion": 7726,
      "Ġchest": 7727,
      "Ġimprovement": 7728,
      "Res": 7729,
      "ĠCancer": 7730,
      "Ġships": 7731,
      "ĠItaly": 7732,
      "Ġacknow": 7733,
      "onomy": 7734,
      "Ġneur": 7735,
      "Ġunderlying": 7736,
      "Ġfounded": 7737,
      "Ġartificial": 7738,
      "Ġcolleagues": 7739,
      "Ġreliable": 7740,
      "Ð¾": 7741,
      "Ġdebate": 7742,
      "Ġstatistics": 7743,
      "sqrt": 7744,
      "For": 7745,
      "Ġgap": 7746,
      "ĠClin": 7747,
      "Ġfur": 7748,
      "adata": 7749,
      "ude": 7750,
      "Ġshif": 7751,
      "ĠBefore": 7752,
      "Ġfourth": 7753,
      "Ġvs": 7754,
      "Ġsaved": 7755,
      "ĠISBN": 7756,
      "sim": 7757,
      "lean": 7758,
      "Ġdistributed": 7759,
      "####\",": 7760,
      "ĠValley": 7761,
      "Ġstable": 7762,
      "ĠWil": 7763,
      "Ġtissues": 7764,
      "asy": 7765,
      "float": 7766,
      "Ġsales": 7767,
      "emia": 7768,
      "Ġinstruments": 7769,
      "ĠLanguage": 7770,
      "Ġparticipate": 7771,
      "Ġpand": 7772,
      "ĠPub": 7773,
      "choice": 7774,
      "ĠCat": 7775,
      "page": 7776,
      "ipher": 7777,
      "Ġretrieve": 7778,
      "ĠAcademy": 7779,
      "Ġtherap": 7780,
      "IP": 7781,
      "Ġyes": 7782,
      "Ġinsurance": 7783,
      "10000": 7784,
      "Ġsubstances": 7785,
      "Ġcorner": 7786,
      "Ġcookies": 7787,
      "cor": 7788,
      "dur": 7789,
      "Ġrecognition": 7790,
      "Ġretaining": 7791,
      "table": 7792,
      "bridge": 7793,
      "itz": 7794,
      "Ġdigest": 7795,
      "Ġescape": 7796,
      "ĠCreat": 7797,
      "Ġsheet": 7798,
      "Ġdance": 7799,
      "Ġbeach": 7800,
      "Ġstrict": 7801,
      "Ġgro": 7802,
      "ĠFace": 7803,
      "Ġrecip": 7804,
      "Ġcultiv": 7805,
      "Ġconventional": 7806,
      "Ġpapers": 7807,
      "plex": 7808,
      "Ġ48": 7809,
      "then": 7810,
      "Ġexamine": 7811,
      "idity": 7812,
      "Ã¶z": 7813,
      "idth": 7814,
      "Ġquiet": 7815,
      "ĠAdminist": 7816,
      "Ġconstructed": 7817,
      "itual": 7818,
      "Ġadministr": 7819,
      "Ġremem": 7820,
      "arsh": 7821,
      "Ġinputs": 7822,
      "ĠOcean": 7823,
      "orph": 7824,
      "Ġpreval": 7825,
      "Ġguess": 7826,
      "Ġshot": 7827,
      "Ġrestric": 7828,
      "using": 7829,
      "Ph": 7830,
      "called": 7831,
      "hab": 7832,
      "Ġmaybe": 7833,
      "ourage": 7834,
      "Ġhousing": 7835,
      "ĠBig": 7836,
      "oons": 7837,
      "Ġod": 7838,
      "itivity": 7839,
      "Se": 7840,
      "ĠExec": 7841,
      "ĠPM": 7842,
      "ĠHand": 7843,
      "Ġexecution": 7844,
      "ĠTop": 7845,
      "Ġseparated": 7846,
      "dy": 7847,
      "1000": 7848,
      "Ġconversation": 7849,
      "Ġvolcan": 7850,
      "Ġcovers": 7851,
      "Ġburning": 7852,
      "Ġobservations": 7853,
      "Ġment": 7854,
      "ĠJohns": 7855,
      "Ġwhereas": 7856,
      "Ġjson": 7857,
      "Ġhabits": 7858,
      "Ġpartner": 7859,
      "ruction": 7860,
      "osc": 7861,
      "Ġenemy": 7862,
      "ione": 7863,
      "Ġreserv": 7864,
      "Ġgreenhouse": 7865,
      "Ġda": 7866,
      "Ġgenerations": 7867,
      "Ġentered": 7868,
      "Ġaccessible": 7869,
      "Ġpromin": 7870,
      "Ġvulnerable": 7871,
      "Ġrepair": 7872,
      "riers": 7873,
      "ĠKeep": 7874,
      "Ġmask": 7875,
      "quit": 7876,
      "Ġdivide": 7877,
      "Ġextracted": 7878,
      "heast": 7879,
      "Ġrice": 7880,
      "Ġcounts": 7881,
      "Ġterritory": 7882,
      "generate": 7883,
      "Name": 7884,
      "venue": 7885,
      "Ġvoltage": 7886,
      "ĠEmpire": 7887,
      "Ġanalyze": 7888,
      "Ġspending": 7889,
      "ĠSometimes": 7890,
      "Ġlicense": 7891,
      "rog": 7892,
      "Ġsmoking": 7893,
      "parse": 7894,
      "Ġmarks": 7895,
      "erior": 7896,
      "Ġrelation": 7897,
      "Ġpra": 7898,
      "author": 7899,
      "Ġconsidering": 7900,
      "Ġplus": 7901,
      "Ġzaman": 7902,
      "Ġalter": 7903,
      "ĠRevolution": 7904,
      "fix": 7905,
      "adder": 7906,
      "Ġinteractions": 7907,
      "Ġcream": 7908,
      "Ġmanif": 7909,
      "Ġinhib": 7910,
      "final": 7911,
      "icing": 7912,
      "Ġteen": 7913,
      "Ġlect": 7914,
      "Ġeastern": 7915,
      "Ġdesert": 7916,
      "ango": 7917,
      "ployment": 7918,
      "ĠCamp": 7919,
      "Ġforth": 7920,
      "Ġwithdraw": 7921,
      "ĠPan": 7922,
      "ENT": 7923,
      "62": 7924,
      "device": 7925,
      "Ġdemonstrated": 7926,
      "pread": 7927,
      "Ġprove": 7928,
      "Ġended": 7929,
      "ĠJSON": 7930,
      "write": 7931,
      "illa": 7932,
      "Ġconsumer": 7933,
      "ĠRoyal": 7934,
      "Ġadm": 7935,
      "Ġobesity": 7936,
      "Ġboxes": 7937,
      "Ġorgans": 7938,
      "Ġnodes": 7939,
      "ĠBab": 7940,
      "2000": 7941,
      "},": 7942,
      "Ġepid": 7943,
      "ĠBoard": 7944,
      "Ġ1960": 7945,
      "!\"}": 7946,
      "Ġtargets": 7947,
      "Ġcontamin": 7948,
      "rooms": 7949,
      "throp": 7950,
      "ĠPass": 7951,
      "Ġbuck": 7952,
      "arÄ±": 7953,
      "ĠForest": 7954,
      "such": 7955,
      "Ġbask": 7956,
      "ĠRichard": 7957,
      "nExplain": 7958,
      "nOur": 7959,
      "Ġcolumns": 7960,
      "Ġcarb": 7961,
      "Don": 7962,
      "ĠLucy": 7963,
      "Ġexplo": 7964,
      "ixture": 7965,
      "ĠWhere": 7966,
      "Ġagent": 7967,
      "600": 7968,
      "tery": 7969,
      "Ġresulted": 7970,
      "books": 7971,
      "mun": 7972,
      "usiness": 7973,
      "ĠCarolina": 7974,
      "ulary": 7975,
      "Ġverb": 7976,
      "Ġdanger": 7977,
      "Ġearthqu": 7978,
      "Ġingredients": 7979,
      "isp": 7980,
      "Ġpassing": 7981,
      "Ġcoc": 7982,
      "Ġorange": 7983,
      "ĠSciences": 7984,
      "Ġmos": 7985,
      "Ġphoto": 7986,
      "ĠType": 7987,
      "itative": 7988,
      "Ġminerals": 7989,
      "ĠSing": 7990,
      "ĠAM": 7991,
      "Ġinstruct": 7992,
      "Id": 7993,
      "Ġoutcome": 7994,
      "arity": 7995,
      "Ġpsychological": 7996,
      "Ġhug": 7997,
      "Ġmatters": 7998,
      "Ġrows": 7999,
      "Ġmand": 8000,
      "ĠSarah": 8001,
      "Ġglucose": 8002,
      "Ġpoison": 8003,
      "ĠFort": 8004,
      "earing": 8005,
      "sing": 8006,
      "group": 8007,
      "Ġensuring": 8008,
      "61": 8009,
      "ican": 8010,
      "earchers": 8011,
      "Ġeveryday": 8012,
      "Ġscene": 8013,
      "nAb": 8014,
      "Ġtur": 8015,
      "================================================================": 8016,
      "Ġreward": 8017,
      ":**\\": 8018,
      "Ġattempts": 8019,
      "ampl": 8020,
      "Ġneither": 8021,
      "Ġphysics": 8022,
      "Ġnob": 8023,
      "ĠBrazil": 8024,
      "olly": 8025,
      "Ġordered": 8026,
      "Ġsunlight": 8027,
      "iences": 8028,
      "Ġcleaning": 8029,
      "Ġjudge": 8030,
      "kins": 8031,
      "ĠWood": 8032,
      "()`": 8033,
      "Ġrecept": 8034,
      "Ġmolecular": 8035,
      "api": 8036,
      "spe": 8037,
      "ĠCy": 8038,
      "Ġcompound": 8039,
      "Ġbees": 8040,
      "Ġflour": 8041,
      "Ġestimate": 8042,
      "ĠOh": 8043,
      "opes": 8044,
      "Ġspin": 8045,
      "Ġinvolving": 8046,
      "color": 8047,
      "ĠWord": 8048,
      "uels": 8049,
      "stories": 8050,
      "Ġthanks": 8051,
      "Ġdebt": 8052,
      "83": 8053,
      "Ġlaugh": 8054,
      "irus": 8055,
      "ĠCalculate": 8056,
      "Ġsharp": 8057,
      "ĠForm": 8058,
      "mean": 8059,
      "Ġbeliefs": 8060,
      "Ġbranches": 8061,
      "Ðµ": 8062,
      "Ġhung": 8063,
      "Ġrestrict": 8064,
      "Ġweigh": 8065,
      "Ġexpansion": 8066,
      "Ġcommitted": 8067,
      "PC": 8068,
      "Ġtired": 8069,
      "ĠHave": 8070,
      "nDr": 8071,
      "Ġ1997": 8072,
      "Ġ37": 8073,
      "ĠPrint": 8074,
      "Ġfurn": 8075,
      "usal": 8076,
      "ĠPract": 8077,
      "Ð°": 8078,
      "Ġmeasurement": 8079,
      "Ġsurve": 8080,
      "gov": 8081,
      "ĠScott": 8082,
      "Ġtrials": 8083,
      "Ġissued": 8084,
      "Ġinsulin": 8085,
      "iah": 8086,
      "Ġemployment": 8087,
      "Ġorient": 8088,
      "Ġcontrols": 8089,
      "var": 8090,
      "ishment": 8091,
      "Ġwis": 8092,
      "aten": 8093,
      "Ġ\\\"\\\"\\\"\\": 8094,
      "Ġmuseum": 8095,
      "ba": 8096,
      "Ġcomposed": 8097,
      "Ġcra": 8098,
      "strings": 8099,
      "Ġfalls": 8100,
      "Ġdepict": 8101,
      "amps": 8102,
      "Ġdetection": 8103,
      "nBen": 8104,
      "Ġshout": 8105,
      "Ġbond": 8106,
      "Ġrivers": 8107,
      "rovers": 8108,
      "Ġtexts": 8109,
      "Ġcrime": 8110,
      "ĠTimes": 8111,
      "Ġ)": 8112,
      "Ġcontainer": 8113,
      "Â·": 8114,
      "reshold": 8115,
      "ĠAND": 8116,
      "Ġpond": 8117,
      "tra": 8118,
      "ailability": 8119,
      "nNote": 8120,
      "Ġmechanical": 8121,
      "ĠGard": 8122,
      "Ġchannel": 8123,
      "Ġindicated": 8124,
      "ĠChicago": 8125,
      "DP": 8126,
      "dec": 8127,
      "Ġhorses": 8128,
      "ĠFree": 8129,
      "Ġpolitics": 8130,
      "Ġbeauty": 8131,
      "Ġoperate": 8132,
      "EF": 8133,
      "Ġparticipation": 8134,
      "ĠAge": 8135,
      "Ġmeth": 8136,
      "Ġscan": 8137,
      "ented": 8138,
      "ĠĠĠĠĠĠĠĠĠ": 8139,
      "ĠNative": 8140,
      "abil": 8141,
      "Design": 8142,
      "Ġknowing": 8143,
      "ĠAgricult": 8144,
      "Ġdiagnosed": 8145,
      "ĠVictor": 8146,
      "ĠTake": 8147,
      "Ġ65": 8148,
      "element": 8149,
      "Ġcarrying": 8150,
      "Ġestimates": 8151,
      "Ġfreq": 8152,
      "Ġconstit": 8153,
      "ĠSaf": 8154,
      "ĠJac": 8155,
      "ubble": 8156,
      "frequ": 8157,
      "ften": 8158,
      "Ġmm": 8159,
      "Ġdrawn": 8160,
      "Ġsole": 8161,
      "olving": 8162,
      "Ġpublication": 8163,
      "Ġmeasurements": 8164,
      "Go": 8165,
      "ĠCap": 8166,
      "ĠDig": 8167,
      "69": 8168,
      "Ġpy": 8169,
      "Ġreduces": 8170,
      "Ġassociation": 8171,
      "Ġengineer": 8172,
      "ano": 8173,
      "Ġmales": 8174,
      "Ġprinted": 8175,
      "Ġthy": 8176,
      "Ġcentre": 8177,
      "Ġfashion": 8178,
      "Ġdepart": 8179,
      "ounce": 8180,
      "ibraries": 8181,
      "Ġrelief": 8182,
      "adow": 8183,
      "erator": 8184,
      "Ġturning": 8185,
      "everal": 8186,
      "Ġsurprised": 8187,
      "Ġpiv": 8188,
      "CTION": 8189,
      "azine": 8190,
      "Ġassigned": 8191,
      "Ġhusband": 8192,
      "Ġfemales": 8193,
      "IA": 8194,
      "Ġworksh": 8195,
      "peror": 8196,
      "lete": 8197,
      "Ġliv": 8198,
      "ailed": 8199,
      "cope": 8200,
      "Ġintegrated": 8201,
      "ĠGeorg": 8202,
      "etics": 8203,
      "aws": 8204,
      "bur": 8205,
      "person": 8206,
      "ĠMer": 8207,
      "Ġcooking": 8208,
      "Ġepis": 8209,
      "Ġ33": 8210,
      "Ġfever": 8211,
      "first": 8212,
      "va": 8213,
      "Ġlung": 8214,
      "ivered": 8215,
      "Ġsacr": 8216,
      "Ġgrant": 8217,
      "ĠEst": 8218,
      "cies": 8219,
      "ĠCS": 8220,
      "utrit": 8221,
      "ĠKar": 8222,
      "Ġchallenging": 8223,
      "Ġindependence": 8224,
      "ĠEqu": 8225,
      "anger": 8226,
      "Ġ'__": 8227,
      "Ġokay": 8228,
      "Ġdetected": 8229,
      "Ġdepos": 8230,
      "nPh": 8231,
      "Ġtub": 8232,
      "Ġrealize": 8233,
      "?âĢĿ": 8234,
      "Ġcomfortable": 8235,
      "ĠAccess": 8236,
      "idespread": 8237,
      "ĠClimate": 8238,
      "claim": 8239,
      "ĠÅŁah": 8240,
      "Ġagents": 8241,
      "Ġcake": 8242,
      "Ġuns": 8243,
      "Ġthorough": 8244,
      "Ġaward": 8245,
      "Ġmoisture": 8246,
      "ĠWindows": 8247,
      "Ġstronger": 8248,
      "Ġroles": 8249,
      "Ġimplications": 8250,
      "Ġjuice": 8251,
      "Ġshop": 8252,
      "ĠIndians": 8253,
      "doc": 8254,
      "Ġmir": 8255,
      "Ġrenewable": 8256,
      "isters": 8257,
      "Ġdinner": 8258,
      "through": 8259,
      "ĠÅŁahÄ±s": 8260,
      "ĠDO": 8261,
      "oz": 8262,
      "Ġtons": 8263,
      "ĠWrite": 8264,
      "rus": 8265,
      "oured": 8266,
      "Ġextension": 8267,
      "ibl": 8268,
      "bre": 8269,
      "Ġexercises": 8270,
      "object": 8271,
      "Ġlegislation": 8272,
      "herent": 8273,
      "Ġdispl": 8274,
      "Ġmood": 8275,
      "Ġislands": 8276,
      "Ġfeels": 8277,
      "Ġcounty": 8278,
      "Ġcrim": 8279,
      "rary": 8280,
      "ped": 8281,
      "ritis": 8282,
      "Ġcoastal": 8283,
      "ohyd": 8284,
      "Ġbabies": 8285,
      "ugh": 8286,
      "Ġtranslation": 8287,
      "Ġdestruction": 8288,
      "ĠSund": 8289,
      "ikip": 8290,
      "Ġtables": 8291,
      "ĠnasÄ±": 8292,
      "Ġundert": 8293,
      "elly": 8294,
      "Ġbiology": 8295,
      "Ġmanaging": 8296,
      "Ġbags": 8297,
      "Ġschedule": 8298,
      "target": 8299,
      "Ġmathematical": 8300,
      "Ġprobability": 8301,
      "Ġvel": 8302,
      "lat": 8303,
      "Ġbanks": 8304,
      "Ġphotos": 8305,
      "81": 8306,
      "Ġcab": 8307,
      "Ġongoing": 8308,
      "nBe": 8309,
      "Ġjoy": 8310,
      "Ġsoup": 8311,
      "nEnd": 8312,
      "Ġdamaged": 8313,
      "Ġrecommendations": 8314,
      "Ġwarning": 8315,
      "Ġreplied": 8316,
      "ĠEss": 8317,
      "ĠScot": 8318,
      "ĠSue": 8319,
      "Ġconven": 8320,
      "ĠIII": 8321,
      "Ġfaces": 8322,
      "Ġfacing": 8323,
      "Ġgiant": 8324,
      "raham": 8325,
      "Ġhorizon": 8326,
      "Ġrely": 8327,
      "Ġelection": 8328,
      "ĠGuide": 8329,
      "ĠPenn": 8330,
      "Ġroutine": 8331,
      "health": 8332,
      "initely": 8333,
      "acent": 8334,
      "Ġbringing": 8335,
      "ani": 8336,
      "Ġwaiting": 8337,
      "ĠBill": 8338,
      "comfort": 8339,
      "Ġtelevision": 8340,
      "ĠHoly": 8341,
      "Ġton": 8342,
      "liest": 8343,
      "Ġchocolate": 8344,
      "Ġ[[": 8345,
      "forcement": 8346,
      "ĠIrish": 8347,
      "Ġapproved": 8348,
      "Ġmathematician": 8349,
      "Ġserving": 8350,
      "cell": 8351,
      "Ġgent": 8352,
      "Ġviruses": 8353,
      "Ad": 8354,
      "ouds": 8355,
      "Ġclothing": 8356,
      "acher": 8357,
      "71": 8358,
      "Ġwal": 8359,
      "create": 8360,
      "BS": 8361,
      "Ġinspir": 8362,
      "Ġduration": 8363,
      "Ġrabbit": 8364,
      "nCompleted": 8365,
      "0000": 8366,
      "elihood": 8367,
      "width": 8368,
      "Ġequally": 8369,
      "ĠDev": 8370,
      "Ġparse": 8371,
      "ĠDu": 8372,
      "Ġwindows": 8373,
      "]:": 8374,
      "Ġadequate": 8375,
      "Ġrid": 8376,
      "real": 8377,
      "Ġalert": 8378,
      "price": 8379,
      "ĠSat": 8380,
      "reek": 8381,
      "Ġtheme": 8382,
      "Ġshoes": 8383,
      "points": 8384,
      "ilation": 8385,
      "Ġ55": 8386,
      "erest": 8387,
      "73": 8388,
      "ayer": 8389,
      "Ġille": 8390,
      "ĠItalian": 8391,
      "Ġdigit": 8392,
      "Ġsubsequent": 8393,
      "Ġproportion": 8394,
      "world": 8395,
      "andon": 8396,
      "ĠYear": 8397,
      "Ġindustries": 8398,
      "Ġmamm": 8399,
      "Ġblank": 8400,
      "Ġemployed": 8401,
      "Ġunusual": 8402,
      "Ġfabric": 8403,
      "Ġpink": 8404,
      "Ġvector": 8405,
      "Ġsmallest": 8406,
      "ette": 8407,
      "Ġpreparation": 8408,
      "VID": 8409,
      "Ġmine": 8410,
      "Ġnegot": 8411,
      "ĠEastern": 8412,
      "ĠKingdom": 8413,
      "Ġarrest": 8414,
      "Ġconference": 8415,
      "Ġstatements": 8416,
      "hyd": 8417,
      "Ġwatching": 8418,
      "Ġmicrosc": 8419,
      "Ġguidance": 8420,
      "ometers": 8421,
      "Ġoffering": 8422,
      "Ġhappening": 8423,
      "ifferent": 8424,
      "ĠFamily": 8425,
      "ĠGPU": 8426,
      "yal": 8427,
      "ĠEc": 8428,
      "ustain": 8429,
      "CL": 8430,
      "Step": 8431,
      "Ġcollaboration": 8432,
      "Ġinitially": 8433,
      "ĠEarly": 8434,
      "Ġkidney": 8435,
      "making": 8436,
      "Ġstrongly": 8437,
      "Ġheads": 8438,
      "ĠServices": 8439,
      "mail": 8440,
      "Ġdeclared": 8441,
      "asters": 8442,
      "ĠZeal": 8443,
      "NING": 8444,
      "Ġlights": 8445,
      "iest": 8446,
      "essions": 8447,
      ":/": 8448,
      "inson": 8449,
      "Ġexceed": 8450,
      "opyright": 8451,
      "Ġbalanced": 8452,
      "Ġexciting": 8453,
      "Ġmarkets": 8454,
      "sts": 8455,
      "Ġhill": 8456,
      "Ġ1995": 8457,
      "Ġheating": 8458,
      "Ġdesigns": 8459,
      "Ġconstantly": 8460,
      "ĠStart": 8461,
      "Ġdoi": 8462,
      "ĠDar": 8463,
      "Ġphenomenon": 8464,
      "oples": 8465,
      "nRe": 8466,
      "Ed": 8467,
      "Ġadvert": 8468,
      "ĠChange": 8469,
      "Ġ('": 8470,
      "Ġcomplain": 8471,
      "atial": 8472,
      "CE": 8473,
      "Ġargs": 8474,
      "Ġdynamic": 8475,
      "ĠViet": 8476,
      "Ġpresents": 8477,
      "Ġsignificance": 8478,
      "Ġsurfaces": 8479,
      "Ġintellectual": 8480,
      "ĠRom": 8481,
      "Ġwheel": 8482,
      "Ġseeking": 8483,
      "aired": 8484,
      "ĠDen": 8485,
      "Ġhistoric": 8486,
      "iability": 8487,
      "files": 8488,
      "Ġouter": 8489,
      "return": 8490,
      "ikipedia": 8491,
      "Ġexamination": 8492,
      "cerning": 8493,
      "Ġdependent": 8494,
      "Ġtom": 8495,
      "unc": 8496,
      "iana": 8497,
      "Ġwidespread": 8498,
      "iodiversity": 8499,
      "apor": 8500,
      "Ġmineral": 8501,
      "Ġhonor": 8502,
      "Ġaudio": 8503,
      "Ġbeings": 8504,
      "Ġblind": 8505,
      "Ġsilver": 8506,
      "Ġconfirmed": 8507,
      "ĠSolve": 8508,
      "EST": 8509,
      "nWhich": 8510,
      "link": 8511,
      "ĠRock": 8512,
      "nUn": 8513,
      "Ġdecay": 8514,
      "Ġnitrogen": 8515,
      "Ġdropped": 8516,
      "Ġmerely": 8517,
      "Ġsched": 8518,
      "Ġengaged": 8519,
      "800": 8520,
      "Ġneural": 8521,
      "74": 8522,
      "Ġgift": 8523,
      "perm": 8524,
      "dÃ¼": 8525,
      "Ġbil": 8526,
      "unct": 8527,
      "Ġow": 8528,
      "They": 8529,
      "Ġtube": 8530,
      "berry": 8531,
      "igan": 8532,
      "Ġpupp": 8533,
      "ĠTer": 8534,
      "Ġ1996": 8535,
      "nif": 8536,
      "âĢĿ.\\": 8537,
      "oving": 8538,
      "ĠAtlantic": 8539,
      "Ġcenters": 8540,
      "vol": 8541,
      ");\\": 8542,
      "Ġmathematics": 8543,
      "ĠMel": 8544,
      "airy": 8545,
      "Ġlegisl": 8546,
      "Ġsomewhat": 8547,
      "ĠMartin": 8548,
      "ĠChristmas": 8549,
      "Ġwouldn": 8550,
      "Ġcompl": 8551,
      "Ġserves": 8552,
      "heric": 8553,
      "Ġresist": 8554,
      "Ġnodded": 8555,
      "Ġdeeper": 8556,
      "td": 8557,
      "Ġremoval": 8558,
      "ĠIss": 8559,
      "Ġoutbreak": 8560,
      "Ġneighborhood": 8561,
      "olar": 8562,
      "ĠEffect": 8563,
      "ÙĦ": 8564,
      "squ": 8565,
      "Ġpoem": 8566,
      "ÄŁÄ±": 8567,
      "imi": 8568,
      "ĠBu": 8569,
      "plant": 8570,
      "idential": 8571,
      "ĠSpecial": 8572,
      "Ġanymore": 8573,
      "Ġvan": 8574,
      "Ġvisitors": 8575,
      "Ġprohib": 8576,
      "ĠWho": 8577,
      "ĠZealand": 8578,
      "athered": 8579,
      "Ġartist": 8580,
      "ĠParty": 8581,
      "Ġride": 8582,
      "post": 8583,
      "inating": 8584,
      "Ġmining": 8585,
      "ruit": 8586,
      "Ġremoving": 8587,
      "Ġadventure": 8588,
      "UR": 8589,
      "ĠInput": 8590,
      "Ġasthma": 8591,
      "amil": 8592,
      "Ġprinting": 8593,
      "opic": 8594,
      "iber": 8595,
      "82": 8596,
      "nSh": 8597,
      "directory": 8598,
      "Ġparagraph": 8599,
      "charge": 8600,
      "alm": 8601,
      "Ġpregnant": 8602,
      "Ġguard": 8603,
      "Ġpanel": 8604,
      "Ġglad": 8605,
      "Ġ>=": 8606,
      "Ġwine": 8607,
      "Ġtrigger": 8608,
      "Ġmapping": 8609,
      "ĠStat": 8610,
      "Ġpointed": 8611,
      "chain": 8612,
      "Ġconverted": 8613,
      "Ġ{\\\"": 8614,
      "ĠHill": 8615,
      "Ġbrows": 8616,
      "alph": 8617,
      "Ġdefense": 8618,
      "Ġprincipal": 8619,
      "ĠPet": 8620,
      "Ġperforms": 8621,
      "Ġorders": 8622,
      "nStud": 8623,
      "Ġcontrovers": 8624,
      "Ġexploring": 8625,
      "kl": 8626,
      "tok": 8627,
      "Ġ[\\": 8628,
      "Ġdelivered": 8629,
      "Ġchair": 8630,
      "Ġcav": 8631,
      "Ġrestaur": 8632,
      "heimer": 8633,
      "Ġeverywhere": 8634,
      "Ġcriminal": 8635,
      "nIs": 8636,
      "Ġplenty": 8637,
      "cÄ±": 8638,
      "Ġcopyright": 8639,
      "Ġ''": 8640,
      "Ġsigned": 8641,
      "79": 8642,
      "mm": 8643,
      "Ġimagine": 8644,
      "cyclop": 8645,
      "Ġdiscrimination": 8646,
      "Ġparas": 8647,
      "utely": 8648,
      "fast": 8649,
      "iological": 8650,
      "Ġtheore": 8651,
      "Ġfacility": 8652,
      "amins": 8653,
      "bye": 8654,
      "Ġmetabol": 8655,
      "gment": 8656,
      "Ġchlor": 8657,
      "Ġintest": 8658,
      "Ġarchae": 8659,
      "Ġpharm": 8660,
      "\\\"]": 8661,
      "outs": 8662,
      "ĠNetwork": 8663,
      "Ġseat": 8664,
      "kt": 8665,
      "}$": 8666,
      "Ġsatellite": 8667,
      "ĠSecurity": 8668,
      "Ġmold": 8669,
      "ĠMoon": 8670,
      "________": 8671,
      "nConsider": 8672,
      "matory": 8673,
      "night": 8674,
      "stud": 8675,
      "Ġvictims": 8676,
      "Ġfarming": 8677,
      "Ġproof": 8678,
      "Ġpreventing": 8679,
      "Ġfishing": 8680,
      "Ġannounced": 8681,
      "Ġbrush": 8682,
      "commod": 8683,
      "ading": 8684,
      "layers": 8685,
      "Ġ34": 8686,
      "Ġdraft": 8687,
      "ala": 8688,
      "Ġ42": 8689,
      "ĠCast": 8690,
      "izz": 8691,
      "immy": 8692,
      "Ġregul": 8693,
      "nEl": 8694,
      "ensional": 8695,
      "Ġapple": 8696,
      "ĠSa": 8697,
      "ÅŁtur": 8698,
      "ĠProcess": 8699,
      "Ġcomplicated": 8700,
      "ĠIns": 8701,
      "inn": 8702,
      "esides": 8703,
      "Ġrose": 8704,
      "Ġinterpretation": 8705,
      "Task": 8706,
      "Ġessentially": 8707,
      "Ġrespiratory": 8708,
      "Ġuncertain": 8709,
      "Ġartists": 8710,
      "Ġmaintained": 8711,
      "itamin": 8712,
      "ĠSand": 8713,
      "acco": 8714,
      "ĠLar": 8715,
      "UL": 8716,
      "PE": 8717,
      "roduction": 8718,
      "ocial": 8719,
      "Ġpeak": 8720,
      "ernel": 8721,
      "tic": 8722,
      "Ġq": 8723,
      "Ġexperimental": 8724,
      "%)": 8725,
      "Ġstrange": 8726,
      "Ġapproval": 8727,
      "Ġtheories": 8728,
      "Ġfer": 8729,
      "Ġwrites": 8730,
      "Ġbottle": 8731,
      "Ġsongs": 8732,
      "Ġlie": 8733,
      "Ġinfect": 8734,
      "Ġholes": 8735,
      "bra": 8736,
      "ĠNon": 8737,
      "Ġsought": 8738,
      "nDo": 8739,
      "azon": 8740,
      "Ġofficers": 8741,
      "Ġkelimesi": 8742,
      "acks": 8743,
      "Ġtab": 8744,
      "ĠHall": 8745,
      "Ġwound": 8746,
      "request": 8747,
      "Ġcopper": 8748,
      "Ġplanned": 8749,
      "ĠPlant": 8750,
      "âĢĻ.": 8751,
      "open": 8752,
      "apse": 8753,
      "istical": 8754,
      "OK": 8755,
      "ĠNaz": 8756,
      "Ġcombat": 8757,
      "ĠMoreover": 8758,
      "Ġinfant": 8759,
      "Ġstructural": 8760,
      "ĠFurthermore": 8761,
      "Ġteams": 8762,
      "Ġconsume": 8763,
      "Ġlistening": 8764,
      "Ġperforming": 8765,
      "Ġcaptured": 8766,
      "Data": 8767,
      "ĠAgency": 8768,
      "Ġtemple": 8769,
      "ĠCoast": 8770,
      "Ġparser": 8771,
      "Ġcontemporary": 8772,
      "Ġcash": 8773,
      "ĠOl": 8774,
      "Ġorbit": 8775,
      "Ġuniversal": 8776,
      "UT": 8777,
      "Ġintensity": 8778,
      "ĠDoes": 8779,
      "Ġrarely": 8780,
      "rene": 8781,
      "gun": 8782,
      "Ġevil": 8783,
      "Ġcommission": 8784,
      "Ġabsolute": 8785,
      "Ġfed": 8786,
      "ĠThough": 8787,
      "Ġobserve": 8788,
      "Ġcorrel": 8789,
      "uple": 8790,
      "coln": 8791,
      "Ġeliminate": 8792,
      "Ġlaid": 8793,
      "Ġabandon": 8794,
      "Ġtot": 8795,
      "uce": 8796,
      "Ġbuff": 8797,
      "oga": 8798,
      "Ġinfluenced": 8799,
      "rub": 8800,
      "Ġbroke": 8801,
      "Ġencouraged": 8802,
      "just": 8803,
      "otype": 8804,
      "Ġdefend": 8805,
      "yi": 8806,
      "Ġempir": 8807,
      "Ġbreeding": 8808,
      "Ġdefect": 8809,
      "Ġvideos": 8810,
      "Ġfox": 8811,
      "ĠAsian": 8812,
      "Ġscientist": 8813,
      "/-": 8814,
      "Ġmeasuring": 8815,
      "Ġ250": 8816,
      "ĠMen": 8817,
      "Look": 8818,
      ")\\\\": 8819,
      "My": 8820,
      "ĠPen": 8821,
      "iture": 8822,
      "Ġfairly": 8823,
      "Ġanywhere": 8824,
      "Ġhypothesis": 8825,
      "Ġweapons": 8826,
      "base": 8827,
      "Ġsport": 8828,
      "Ġoverw": 8829,
      "HO": 8830,
      "Ġquarter": 8831,
      "Ġpill": 8832,
      "Ġabsence": 8833,
      "Ġsizes": 8834,
      "riptions": 8835,
      "Ġdose": 8836,
      "Ġphosph": 8837,
      "ĠResources": 8838,
      "arters": 8839,
      "eting": 8840,
      "Ġye": 8841,
      "Ġregardless": 8842,
      "Ġwearing": 8843,
      "Ġfest": 8844,
      "Ġpuzz": 8845,
      "Ġaims": 8846,
      "Ġdiameter": 8847,
      "Ġfung": 8848,
      "Ġopposed": 8849,
      "ston": 8850,
      "Ġgeomet": 8851,
      "Ġracial": 8852,
      "Ġgained": 8853,
      "Ġ600": 8854,
      "erring": 8855,
      "On": 8856,
      "she": 8857,
      "Ġproven": 8858,
      "nJohn": 8859,
      "Ġbreed": 8860,
      "Ġdys": 8861,
      "Ġextend": 8862,
      "Ġsuit": 8863,
      "orted": 8864,
      "Ġroads": 8865,
      "ĠPop": 8866,
      "Ġenorm": 8867,
      "AA": 8868,
      "Ġspecifications": 8869,
      "Ġconversion": 8870,
      "vard": 8871,
      "Ġplain": 8872,
      "igate": 8873,
      "nNo": 8874,
      "olesc": 8875,
      "Ġtract": 8876,
      "Ġnewly": 8877,
      "rance": 8878,
      "Ġstones": 8879,
      "American": 8880,
      "Ġresid": 8881,
      "Ġbun": 8882,
      "Ġlikes": 8883,
      "ventions": 8884,
      "ĠHeb": 8885,
      "Thank": 8886,
      "And": 8887,
      "ĠJul": 8888,
      "Ġarts": 8889,
      "ĠSuddenly": 8890,
      "Ġadvantages": 8891,
      "ourse": 8892,
      "Ġautomatically": 8893,
      "rint": 8894,
      "ĠSpot": 8895,
      "Ġtip": 8896,
      "Ġusual": 8897,
      "bow": 8898,
      "Ġca": 8899,
      "ĠLow": 8900,
      "__':\\": 8901,
      "Ġroughly": 8902,
      "Ġgradually": 8903,
      "Ġforgot": 8904,
      "Ġdealing": 8905,
      "ĠLeg": 8906,
      "inci": 8907,
      "(-": 8908,
      "eden": 8909,
      "Ġmicrob": 8910,
      "thritis": 8911,
      "ĠPo": 8912,
      "Ġhormone": 8913,
      "Ġinvestigation": 8914,
      "Ġscreening": 8915,
      "ĠLook": 8916,
      "neg": 8917,
      "Ġinterpre": 8918,
      "IDS": 8919,
      "Ġ$\\\\": 8920,
      "Ġeffectiveness": 8921,
      "otton": 8922,
      "Ġversions": 8923,
      "Ġclaimed": 8924,
      "Ġirrit": 8925,
      "ĠØ": 8926,
      "including": 8927,
      "Ġ1950": 8928,
      "estamp": 8929,
      "Ġexamined": 8930,
      "grade": 8931,
      "Ġconfirm": 8932,
      "ĠSym": 8933,
      "ĠSecret": 8934,
      "Ġspray": 8935,
      "ĠSuper": 8936,
      "GB": 8937,
      "Ġdisaster": 8938,
      "sen": 8939,
      "Ġcrew": 8940,
      "Ġsurprising": 8941,
      "ĠAdv": 8942,
      "opath": 8943,
      "Ġmountains": 8944,
      "Ġfinger": 8945,
      "arn": 8946,
      "Ġlunch": 8947,
      "Ġexcessive": 8948,
      "ĠoluÅŁtur": 8949,
      "Ġdaha": 8950,
      "Ġaccel": 8951,
      "Ġconsiderable": 8952,
      "Sc": 8953,
      "ĠJeff": 8954,
      "Ġbatch": 8955,
      "ĠHy": 8956,
      "ĠNorm": 8957,
      "Ġmatches": 8958,
      "Ġgenerates": 8959,
      "option": 8960,
      "Ġplanets": 8961,
      "Ġbat": 8962,
      "Ġcosm": 8963,
      "amine": 8964,
      "Ġoccurring": 8965,
      "ovascular": 8966,
      "ĠFacebook": 8967,
      "Ġstead": 8968,
      "nFirst": 8969,
      "ĠEp": 8970,
      "Ġeleph": 8971,
      "Ġinformed": 8972,
      "uesday": 8973,
      "Ġurl": 8974,
      "Ġputs": 8975,
      "Ġflows": 8976,
      "Ġanalys": 8977,
      "Ġpromise": 8978,
      "Ġdimensions": 8979,
      "PT": 8980,
      "ĠMD": 8981,
      "Ġembed": 8982,
      "Ġembry": 8983,
      "Ġcham": 8984,
      "ĠKey": 8985,
      "Ġfalling": 8986,
      "ulty": 8987,
      "Ġradical": 8988,
      "oa": 8989,
      "Ġunion": 8990,
      "ĠArticle": 8991,
      "db": 8992,
      "Ġfault": 8993,
      "ruption": 8994,
      "Ġgrows": 8995,
      "Ġelected": 8996,
      "Ġspectrum": 8997,
      "ĠDistrict": 8998,
      "eras": 8999,
      "ĠWall": 9000,
      "aren": 9001,
      "enger": 9002,
      "ĠNum": 9003,
      "holders": 9004,
      "ocity": 9005,
      "================================================================================": 9006,
      "itals": 9007,
      "endar": 9008,
      "ĠOxford": 9009,
      "pow": 9010,
      "Ġcrack": 9011,
      "Once": 9012,
      "Ġwelcome": 9013,
      "ĠVen": 9014,
      "Ġregulation": 9015,
      "Ġwings": 9016,
      "ĠKorea": 9017,
      "riz": 9018,
      "query": 9019,
      "ĠAmong": 9020,
      "erb": 9021,
      "Ġgalax": 9022,
      "Ġstrain": 9023,
      "FT": 9024,
      "ĠYoung": 9025,
      "Ġmes": 9026,
      "Ġtropical": 9027,
      "roat": 9028,
      "Ġprofile": 9029,
      "raq": 9030,
      "Ġfocuses": 9031,
      "aska": 9032,
      "Ġlady": 9033,
      "Ġcharacteristic": 9034,
      "ĠCommunity": 9035,
      "ioxid": 9036,
      "ratch": 9037,
      "Ġborrow": 9038,
      "Ġproved": 9039,
      "ĠaÃ§": 9040,
      "Ġtower": 9041,
      "Ġapplying": 9042,
      "uum": 9043,
      "Ġrender": 9044,
      "Ġeditor": 9045,
      "ĠdeÄŁ": 9046,
      "Ġuniform": 9047,
      "ideo": 9048,
      "Ġgranted": 9049,
      "Ġmortality": 9050,
      "erly": 9051,
      "Ġbeans": 9052,
      "Ġemployee": 9053,
      "Ġwriters": 9054,
      "ĠColumbia": 9055,
      "ĠDirector": 9056,
      "amination": 9057,
      "ĠIran": 9058,
      "olean": 9059,
      "account": 9060,
      "cut": 9061,
      "oir": 9062,
      "Ġhide": 9063,
      "Ġsteam": 9064,
      "oston": 9065,
      "Ġspark": 9066,
      "gress": 9067,
      "Do": 9068,
      "ji": 9069,
      "Ġunw": 9070,
      "Ġathlet": 9071,
      "Ġefficiently": 9072,
      "Ind": 9073,
      "theless": 9074,
      "Ġreaching": 9075,
      "ĠLog": 9076,
      "ĠPerson": 9077,
      "iminate": 9078,
      "Ġevening": 9079,
      "cat": 9080,
      "Ġcow": 9081,
      "Ġlaser": 9082,
      "Ġconj": 9083,
      "Ġcub": 9084,
      "Ġcharacterized": 9085,
      "Ġintense": 9086,
      "fold": 9087,
      "lem": 9088,
      "Ġhealing": 9089,
      "ĠWorks": 9090,
      "score": 9091,
      "ĠRoad": 9092,
      "irds": 9093,
      "Ġdecreased": 9094,
      "Ġidentification": 9095,
      "Ġvocabulary": 9096,
      "Ġtraditions": 9097,
      "Ġham": 9098,
      "ima": 9099,
      "ieving": 9100,
      "ults": 9101,
      "aret": 9102,
      "Ġbuying": 9103,
      "Ġweights": 9104,
      "ertion": 9105,
      "ishop": 9106,
      "Ġsuddenly": 9107,
      "Ġgut": 9108,
      "Ġtreating": 9109,
      "Ġmusical": 9110,
      "ĠFour": 9111,
      "zheimer": 9112,
      "Ġtomat": 9113,
      "haust": 9114,
      "Ġterror": 9115,
      "Ġdifficulties": 9116,
      "sis": 9117,
      "Ġearliest": 9118,
      "Ġbench": 9119,
      "Ġbiom": 9120,
      "quir": 9121,
      "Ġkeeps": 9122,
      "plicate": 9123,
      "Ġfaced": 9124,
      "Ġvariation": 9125,
      "utrition": 9126,
      ":-": 9127,
      "Ġcoat": 9128,
      "aneously": 9129,
      "ĠEU": 9130,
      "Ġmeals": 9131,
      "Ġharder": 9132,
      "TTP": 9133,
      "rend": 9134,
      "oric": 9135,
      "ĠTable": 9136,
      "Ġsuffered": 9137,
      "Ġidentifying": 9138,
      "Ġremembered": 9139,
      "ĠPot": 9140,
      "Ġtrends": 9141,
      "ATION": 9142,
      "Ġconcerning": 9143,
      "Ġinnovation": 9144,
      "Ġstre": 9145,
      "Ġwra": 9146,
      "aded": 9147,
      "eople": 9148,
      "oli": 9149,
      "ĠDespite": 9150,
      "ĠFund": 9151,
      "Ġisolated": 9152,
      "Ġdrought": 9153,
      "Ġlon": 9154,
      "Ġimaging": 9155,
      "ĠValueError": 9156,
      "nFunction": 9157,
      "Ġdirected": 9158,
      "ographical": 9159,
      "RU": 9160,
      "Ġgrain": 9161,
      "brid": 9162,
      "far": 9163,
      "iger": 9164,
      "Ġturb": 9165,
      "Ġmixture": 9166,
      "Ġcompens": 9167,
      "Ġlowest": 9168,
      "Ġaccommod": 9169,
      ":///": 9170,
      "Ġinstances": 9171,
      "123": 9172,
      "Ġdrinks": 9173,
      "rous": 9174,
      "uality": 9175,
      "Ġlearners": 9176,
      "ĠNote": 9177,
      "friend": 9178,
      "ĠIndust": 9179,
      "ĠThree": 9180,
      "Ġalive": 9181,
      "ĠCentre": 9182,
      "Ġinspired": 9183,
      "nDe": 9184,
      "eller": 9185,
      "Ġceremon": 9186,
      "Ġthr": 9187,
      "ĠAdministration": 9188,
      "vl": 9189,
      "{[": 9190,
      "Ġoldest": 9191,
      "Ġsenior": 9192,
      "Ġcycl": 9193,
      "Ġprovider": 9194,
      "mad": 9195,
      "Ġ64": 9196,
      "Ġampl": 9197,
      "Ġworst": 9198,
      "Ġ1994": 9199,
      "ĠJohnson": 9200,
      "Ġpit": 9201,
      "aneous": 9202,
      "nis": 9203,
      "Ġcort": 9204,
      "ĠKen": 9205,
      "Ġgam": 9206,
      "Ġphysician": 9207,
      "Bl": 9208,
      "Ġbias": 9209,
      "Ġdriven": 9210,
      "vals": 9211,
      "igue": 9212,
      "Ġthreats": 9213,
      "hus": 9214,
      "Ġmys": 9215,
      "Ġattach": 9216,
      "Ġsending": 9217,
      "Ġcoordinates": 9218,
      "bits": 9219,
      "ĠLight": 9220,
      "lishing": 9221,
      "Ġinteractive": 9222,
      "Ġpestic": 9223,
      "ĠCurrent": 9224,
      "Ġpreced": 9225,
      "ĠMS": 9226,
      "Ġacres": 9227,
      "gra": 9228,
      "ĠOper": 9229,
[...]
